<unk>	0
<s>	0
</s>	0
<LAD>	0
<ENG>	0
<SPA>	0
<TUR>	0
<0x00>	0
<0x01>	0
<0x02>	0
<0x03>	0
<0x04>	0
<0x05>	0
<0x06>	0
<0x07>	0
<0x08>	0
<0x09>	0
<0x0A>	0
<0x0B>	0
<0x0C>	0
<0x0D>	0
<0x0E>	0
<0x0F>	0
<0x10>	0
<0x11>	0
<0x12>	0
<0x13>	0
<0x14>	0
<0x15>	0
<0x16>	0
<0x17>	0
<0x18>	0
<0x19>	0
<0x1A>	0
<0x1B>	0
<0x1C>	0
<0x1D>	0
<0x1E>	0
<0x1F>	0
<0x20>	0
<0x21>	0
<0x22>	0
<0x23>	0
<0x24>	0
<0x25>	0
<0x26>	0
<0x27>	0
<0x28>	0
<0x29>	0
<0x2A>	0
<0x2B>	0
<0x2C>	0
<0x2D>	0
<0x2E>	0
<0x2F>	0
<0x30>	0
<0x31>	0
<0x32>	0
<0x33>	0
<0x34>	0
<0x35>	0
<0x36>	0
<0x37>	0
<0x38>	0
<0x39>	0
<0x3A>	0
<0x3B>	0
<0x3C>	0
<0x3D>	0
<0x3E>	0
<0x3F>	0
<0x40>	0
<0x41>	0
<0x42>	0
<0x43>	0
<0x44>	0
<0x45>	0
<0x46>	0
<0x47>	0
<0x48>	0
<0x49>	0
<0x4A>	0
<0x4B>	0
<0x4C>	0
<0x4D>	0
<0x4E>	0
<0x4F>	0
<0x50>	0
<0x51>	0
<0x52>	0
<0x53>	0
<0x54>	0
<0x55>	0
<0x56>	0
<0x57>	0
<0x58>	0
<0x59>	0
<0x5A>	0
<0x5B>	0
<0x5C>	0
<0x5D>	0
<0x5E>	0
<0x5F>	0
<0x60>	0
<0x61>	0
<0x62>	0
<0x63>	0
<0x64>	0
<0x65>	0
<0x66>	0
<0x67>	0
<0x68>	0
<0x69>	0
<0x6A>	0
<0x6B>	0
<0x6C>	0
<0x6D>	0
<0x6E>	0
<0x6F>	0
<0x70>	0
<0x71>	0
<0x72>	0
<0x73>	0
<0x74>	0
<0x75>	0
<0x76>	0
<0x77>	0
<0x78>	0
<0x79>	0
<0x7A>	0
<0x7B>	0
<0x7C>	0
<0x7D>	0
<0x7E>	0
<0x7F>	0
<0x80>	0
<0x81>	0
<0x82>	0
<0x83>	0
<0x84>	0
<0x85>	0
<0x86>	0
<0x87>	0
<0x88>	0
<0x89>	0
<0x8A>	0
<0x8B>	0
<0x8C>	0
<0x8D>	0
<0x8E>	0
<0x8F>	0
<0x90>	0
<0x91>	0
<0x92>	0
<0x93>	0
<0x94>	0
<0x95>	0
<0x96>	0
<0x97>	0
<0x98>	0
<0x99>	0
<0x9A>	0
<0x9B>	0
<0x9C>	0
<0x9D>	0
<0x9E>	0
<0x9F>	0
<0xA0>	0
<0xA1>	0
<0xA2>	0
<0xA3>	0
<0xA4>	0
<0xA5>	0
<0xA6>	0
<0xA7>	0
<0xA8>	0
<0xA9>	0
<0xAA>	0
<0xAB>	0
<0xAC>	0
<0xAD>	0
<0xAE>	0
<0xAF>	0
<0xB0>	0
<0xB1>	0
<0xB2>	0
<0xB3>	0
<0xB4>	0
<0xB5>	0
<0xB6>	0
<0xB7>	0
<0xB8>	0
<0xB9>	0
<0xBA>	0
<0xBB>	0
<0xBC>	0
<0xBD>	0
<0xBE>	0
<0xBF>	0
<0xC0>	0
<0xC1>	0
<0xC2>	0
<0xC3>	0
<0xC4>	0
<0xC5>	0
<0xC6>	0
<0xC7>	0
<0xC8>	0
<0xC9>	0
<0xCA>	0
<0xCB>	0
<0xCC>	0
<0xCD>	0
<0xCE>	0
<0xCF>	0
<0xD0>	0
<0xD1>	0
<0xD2>	0
<0xD3>	0
<0xD4>	0
<0xD5>	0
<0xD6>	0
<0xD7>	0
<0xD8>	0
<0xD9>	0
<0xDA>	0
<0xDB>	0
<0xDC>	0
<0xDD>	0
<0xDE>	0
<0xDF>	0
<0xE0>	0
<0xE1>	0
<0xE2>	0
<0xE3>	0
<0xE4>	0
<0xE5>	0
<0xE6>	0
<0xE7>	0
<0xE8>	0
<0xE9>	0
<0xEA>	0
<0xEB>	0
<0xEC>	0
<0xED>	0
<0xEE>	0
<0xEF>	0
<0xF0>	0
<0xF1>	0
<0xF2>	0
<0xF3>	0
<0xF4>	0
<0xF5>	0
<0xF6>	0
<0xF7>	0
<0xF8>	0
<0xF9>	0
<0xFA>	0
<0xFB>	0
<0xFC>	0
<0xFD>	0
<0xFE>	0
<0xFF>	0
.	-2.75419
,	-3.1194
▁de	-3.84354
▁a	-3.90126
▁the	-3.97168
▁i	-3.98835
s	-4.21682
'	-4.23548
▁ke	-4.30237
▁el	-4.33409
?	-4.37982
▁la	-4.39766
▁-	-4.46751
▁to	-4.52824
▁you	-4.5948
▁	-4.60085
▁no	-4.71225
▁of	-4.72808
▁en	-4.78199
▁and	-4.82003
▁in	-5.05877
▁it	-5.16874
▁that	-5.17536
!	-5.25402
▁me	-5.3048
t	-5.32752
▁los	-5.33986
▁un	-5.39108
▁es	-5.41414
▁is	-5.44939
▁se	-5.46442
0	-5.52392
...	-5.55004
▁por	-5.62
▁una	-5.66951
▁for	-5.67473
▁we	-5.69916
▁kon	-5.72506
▁this	-5.73882
▁las	-5.79731
▁lo	-5.81185
▁be	-5.89336
▁para	-5.89553
▁on	-5.90032
▁esta	-5.91951
-	-5.97917
▁have	-5.9905
▁si	-5.99232
1	-6.00587
▁with	-6.02624
▁he	-6.05034
▁va	-6.09958
▁what	-6.1422
▁are	-6.14388
▁not	-6.14409
▁was	-6.15088
▁este	-6.19384
2	-6.20538
▁my	-6.23804
▁su	-6.24127
▁mi	-6.24994
▁te	-6.28726
▁do	-6.31407
▁tu	-6.31859
re	-6.32347
▁but	-6.34031
m	-6.3422
▁so	-6.36676
▁your	-6.37562
▁all	-6.42208
▁can	-6.42497
▁komo	-6.44877
▁as	-6.44929
▁pero	-6.45951
▁"""	-6.48284
▁they	-6.51244
▁maz	-6.51922
ll	-6.5218
▁there	-6.53781
▁don	-6.54972
▁at	-6.58451
▁""""	-6.61982
▁will	-6.66191
▁if	-6.691
▁like	-6.69875
▁know	-6.70386
▁le	-6.70708
▁muncho	-6.7081
▁bueno	-6.70812
5	-6.70857
▁by	-6.72367
▁esto	-6.74047
▁here	-6.77072
d	-6.78453
▁one	-6.80475
▁from	-6.80695
▁yo	-6.82892
▁him	-6.84434
▁about	-6.84527
▁out	-6.85387
9	-6.85472
▁an	-6.85834
▁get	-6.86438
▁she	-6.86608
3	-6.87521
▁now	-6.89077
▁up	-6.90609
▁which	-6.90927
▁just	-6.90952
▁"""""""	-6.91902
▁o	-6.92414
ve	-6.93417
/	-6.94528
▁go	-6.96523
▁has	-6.97159
▁well	-6.98
▁ser	-6.98533
▁or	-7.00158
▁her	-7.02678
▁his	-7.0275
▁aki	-7.03839
▁ya	-7.04182
▁would	-7.04352
4	-7.06656
n	-7.07565
▁been	-7.08611
▁todo	-7.08636
▁how	-7.11636
;	-7.12756
▁see	-7.14325
▁who	-7.14797
▁right	-7.15075
▁mr	-7.15572
▁solo	-7.16306
▁when	-7.16341
▁were	-7.17081
▁oh	-7.17418
a	-7.18363
▁come	-7.18557
▁son	-7.19707
▁want	-7.19859
▁vamos	-7.20601
▁had	-7.21204
▁kuando	-7.22741
▁think	-7.2295
▁our	-7.23725
▁sovre	-7.23834
▁nos	-7.23849
▁fue	-7.2468
▁time	-7.25132
▁got	-7.27966
▁more	-7.28814
▁good	-7.29879
▁us	-7.30148
es	-7.30184
▁them	-7.30888
8	-7.31255
6	-7.31309
▁asi	-7.3361
▁agora	-7.34714
▁very	-7.36274
▁ay	-7.36653
:	-7.37314
▁take	-7.37368
▁did	-7.37576
▁sus	-7.38405
7	-7.38422
▁tambien	-7.38969
▁:	-7.40968
lo	-7.41315
▁why	-7.43426
▁some	-7.43821
▁must	-7.43843
▁these	-7.4399
▁should	-7.45634
▁sin	-7.45898
▁going	-7.46527
▁puede	-7.46581
▁let	-7.47712
▁say	-7.47787
▁algo	-7.48852
▁senyor	-7.50121
▁only	-7.50231
▁could	-7.51581
▁their	-7.51604
▁where	-7.5197
i	-7.53305
▁todos	-7.54796
▁despues	-7.54841
▁azer	-7.54911
▁vez	-7.56337
▁tyene	-7.58325
▁back	-7.58775
▁way	-7.59134
▁make	-7.59885
▁then	-7.60039
▁people	-7.60053
▁man	-7.61155
▁nada	-7.61823
▁echo	-7.61837
▁tell	-7.62432
▁y	-7.6273
▁era	-7.64648
▁estas	-7.66268
▁sr	-7.66884
▁look	-7.66898
▁ver	-7.67062
▁como	-7.67337
▁other	-7.67375
▁any	-7.67623
▁van	-7.68094
▁too	-7.68143
se	-7.69158
▁kero	-7.69267
r	-7.69958
▁because	-7.70392
▁over	-7.71225
▁ese	-7.71512
▁said	-7.72267
▁tan	-7.7236
▁ken	-7.7246
%	-7.72592
▁union	-7.72752
▁european	-7.72874
▁porke	-7.73248
▁eya	-7.74457
▁yes	-7.7498
o	-7.75141
▁also	-7.75473
▁tiempo	-7.75665
▁ni	-7.76662
▁dizir	-7.7682
▁two	-7.76858
▁dos	-7.78047
▁than	-7.79201
ing	-7.80574
▁entre	-7.80621
▁never	-7.81139
▁little	-7.81367
▁into	-7.81794
▁tom	-7.83087
▁komision	-7.83408
ed	-7.84032
▁something	-7.84269
▁kreo	-7.84285
▁down	-7.84351
▁first	-7.84581
▁need	-7.85674
▁new	-7.86337
y	-7.86377
▁didn	-7.86621
▁puedo	-7.87536
▁tengo	-7.87557
e	-7.87745
▁aze	-7.88337
▁ayi	-7.8858
▁much	-7.89005
▁give	-7.90102
▁tener	-7.90764
▁anyos	-7.91291
▁those	-7.92352
▁deve	-7.92408
▁les	-7.92498
▁vas	-7.92732
▁asta	-7.93046
▁even	-7.93914
▁nunka	-7.94288
▁am	-7.94711
▁mijor	-7.95098
▁estar	-7.96549
▁work	-7.96887
▁estan	-7.9882
▁caza	-8.00232
▁estava	-8.00562
mos	-8.02974
▁vida	-8.03066
▁desde	-8.04117
▁ir	-8.04681
me	-8.05702
▁(	-8.05781
▁may	-8.06445
▁vo	-8.0676
▁after	-8.06777
▁years	-8.07412
▁favor	-8.07589
▁before	-8.07837
▁commission	-8.07902
▁uno	-8.08111
▁mizmo	-8.09074
."""	-8.09812
▁such	-8.09867
▁sea	-8.09917
▁antes	-8.10116
▁really	-8.10172
▁dia	-8.10372
▁off	-8.11016
▁ombre	-8.1131
▁parte	-8.11438
▁vedrad	-8.1185
▁siempre	-8.12174
do	-8.12655
▁kozas	-8.14151
▁life	-8.14317
▁long	-8.14353
▁made	-8.14838
no	-8.14886
▁better	-8.15039
▁alora	-8.15234
▁avia	-8.15911
."""""""	-8.1626
▁otra	-8.16761
▁still	-8.1705
▁president	-8.17292
▁put	-8.17567
▁again	-8.17597
▁tanto	-8.18606
▁love	-8.18938
▁lugar	-8.19501
▁e	-8.1987
▁its	-8.20216
▁problem	-8.20302
▁gran	-8.20372
▁please	-8.2079
▁disho	-8.20804
▁world	-8.20923
le	-8.21286
▁day	-8.21854
▁being	-8.21934
▁thing	-8.22036
▁sir	-8.22149
▁mean	-8.22781
▁last	-8.23077
▁mundo	-8.23178
▁poko	-8.24412
▁mujer	-8.24903
▁otro	-8.25075
▁find	-8.25175
▁presidente	-8.25421
▁donde	-8.25892
▁does	-8.26215
▁nothing	-8.26535
▁won	-8.27042
▁parese	-8.27209
▁most	-8.27555
▁otros	-8.28111
▁shukur	-8.28466
▁idea	-8.2855
▁anything	-8.28735
▁away	-8.29133
▁estos	-8.30322
▁gonna	-8.30384
▁noche	-8.30683
▁help	-8.30747
▁many	-8.31365
""""	-8.31668
▁between	-8.31731
▁'	-8.31934
▁dinguno	-8.32526
▁great	-8.32723
▁sure	-8.32741
▁things	-8.32949
▁through	-8.3358
in	-8.33638
▁always	-8.34027
▁kada	-8.34206
▁tal	-8.34478
▁thought	-8.34579
▁koza	-8.34581
▁mis	-8.34696
▁old	-8.34749
▁sos	-8.349
▁momento	-8.35127
▁yeah	-8.35176
▁mozotros	-8.35189
▁same	-8.35272
▁europea	-8.3562
▁believe	-8.35772
▁place	-8.35976
▁home	-8.36188
▁night	-8.36301
ly	-8.37363
▁manko	-8.38173
▁estados	-8.39252
▁report	-8.39272
▁puederia	-8.39401
▁muestra	-8.39537
▁kual	-8.39679
▁oy	-8.40118
▁save	-8.40394
▁avlar	-8.40752
▁own	-8.41203
▁call	-8.42218
▁use	-8.42523
▁money	-8.42536
on	-8.42785
▁konsejo	-8.43004
▁three	-8.43263
▁talk	-8.43286
▁kere	-8.43692
▁amanyana	-8.43958
▁important	-8.44606
▁muestro	-8.45024
▁states	-8.45239
▁devo	-8.45453
er	-8.45774
▁estamos	-8.45859
▁around	-8.45936
▁every	-8.46525
▁without	-8.46553
▁pueder	-8.46615
▁kontra	-8.46632
▁djente	-8.46861
▁ever	-8.47836
▁house	-8.48002
▁eyos	-8.48021
▁dar	-8.48344
▁course	-8.48374
da	-8.48509
▁another	-8.48615
▁keres	-8.48626
▁parlamento	-8.49019
▁forma	-8.49162
▁told	-8.49384
▁parliament	-8.49989
▁akordo	-8.50165
▁anda	-8.50613
▁mayor	-8.50704
▁tres	-8.51064
▁paizes	-8.51123
▁todas	-8.51175
▁informe	-8.51392
▁council	-8.51535
▁klaro	-8.51764
▁tipo	-8.5194
▁devemos	-8.52119
▁keep	-8.5222
▁muevo	-8.5345
▁might	-8.53618
▁valutoza	-8.5369
▁algien	-8.53698
▁doing	-8.54899
▁everything	-8.54949
▁tyenes	-8.55359
▁today	-8.55457
▁leave	-8.55543
▁politika	-8.55714
▁padre	-8.55728
▁kavzo	-8.56076
la	-8.56363
l	-8.56447
te	-8.56681
▁used	-8.56902
▁presto	-8.57045
▁durante	-8.57079
▁countries	-8.57185
▁maybe	-8.57306
▁ijo	-8.57566
▁al	-8.57605
▁aver	-8.57694
▁--	-8.57697
▁father	-8.57757
▁anyo	-8.58555
▁done	-8.59002
▁thank	-8.59242
▁tenemos	-8.59309
▁isn	-8.59549
▁hey	-8.59713
▁pueden	-8.60059
▁toda	-8.60326
en	-8.61176
▁saves	-8.6134
▁ask	-8.61381
▁left	-8.61531
▁siguro	-8.61705
▁kuanto	-8.62035
▁name	-8.62457
▁kind	-8.62521
▁both	-8.62546
▁puedemos	-8.627
▁tornar	-8.62801
▁enough	-8.63496
▁real	-8.63669
▁ainda	-8.63726
▁tenia	-8.63861
▁paras	-8.64013
▁mind	-8.64269
▁feel	-8.64604
▁care	-8.64625
▁member	-8.65081
▁since	-8.65316
▁miss	-8.66155
▁year	-8.66274
▁under	-8.66421
--	-8.67215
▁came	-8.67278
▁personas	-8.67344
ia	-8.6739
▁dias	-8.67438
▁show	-8.67814
▁meter	-8.67866
▁sorry	-8.67925
▁mrs	-8.6803
▁puedes	-8.68285
▁ago	-8.68313
▁found	-8.68417
▁part	-8.68653
va	-8.68688
▁senyora	-8.69073
▁big	-8.69109
▁portanto	-8.69221
mente	-8.69497
)	-8.69627
▁case	-8.69724
▁izo	-8.69811
an	-8.70502
▁dize	-8.70847
▁wait	-8.7086
▁already	-8.70988
▁stop	-8.71398
▁men	-8.71498
▁atension	-8.71499
▁against	-8.71625
▁doesn	-8.71654
▁next	-8.72001
▁understand	-8.72337
▁asento	-8.72594
▁)	-8.72711
▁while	-8.72887
▁nombre	-8.72987
▁dio	-8.73167
▁respekto	-8.73227
▁tyenen	-8.73467
▁mother	-8.7369
▁vi	-8.73738
▁debasho	-8.74097
▁matter	-8.74139
▁hacer	-8.74254
▁ora	-8.74385
▁buena	-8.74676
▁point	-8.75205
▁fact	-8.756
▁mal	-8.75623
▁hope	-8.75652
▁nice	-8.75808
▁once	-8.7582
▁debate	-8.76159
▁however	-8.76252
c	-8.76368
▁europe	-8.76404
▁manera	-8.77213
ndo	-8.77299
▁paso	-8.77389
▁miembros	-8.78006
▁ola	-8.78448
▁order	-8.78971
▁ija	-8.79117
▁"""".	-8.79679
as	-8.79789
▁country	-8.79801
▁hear	-8.79805
▁different	-8.80533
▁each	-8.80785
▁eyo	-8.80844
▁boy	-8.82003
▁europeo	-8.82045
▁kuenta	-8.82452
▁remember	-8.82551
▁girl	-8.82597
▁madre	-8.82667
▁policy	-8.82699
▁lot	-8.82711
▁far	-8.82764
▁buen	-8.83106
▁few	-8.83288
to	-8.83313
▁seria	-8.83648
▁yet	-8.83904
▁embargo	-8.83928
▁sra	-8.84064
▁wanted	-8.84189
▁algunos	-8.84247
▁evropa	-8.84308
▁human	-8.84544
▁dr	-8.84672
▁vezes	-8.8474
▁amigo	-8.84841
▁fueron	-8.8485
▁stay	-8.84893
▁coming	-8.85242
▁room	-8.85269
▁seen	-8.85308
▁social	-8.85397
▁aunke	-8.85411
▁eslo	-8.85582
el	-8.8561
▁shall	-8.85949
▁end	-8.86035
▁women	-8.86274
▁number	-8.86466
▁verso	-8.86478
▁plaze	-8.86735
▁morning	-8.86835
▁therefore	-8.86854
▁question	-8.86871
▁punto	-8.87104
▁bad	-8.87133
▁primera	-8.87209
▁demaziado	-8.87669
▁pasa	-8.87715
▁okay	-8.87826
▁paiz	-8.87882
▁opinion	-8.87894
▁whole	-8.87919
▁try	-8.8836
▁tadre	-8.88585
de	-8.88626
▁went	-8.88658
▁mary	-8.88921
▁medio	-8.88938
▁best	-8.89074
▁saver	-8.89338
▁wouldn	-8.89342
the	-8.8965
▁woman	-8.89742
▁hand	-8.8984
▁car	-8.90185
▁desarroyo	-8.90195
▁primer	-8.90224
▁unos	-8.90277
▁live	-8.90429
▁ma	-8.90432
▁together	-8.90977
si	-8.91031
▁mientras	-8.91686
▁god	-8.91878
▁grupo	-8.92077
▁health	-8.92106
▁young	-8.92701
▁estado	-8.92851
▁mujeres	-8.9307
▁public	-8.93099
▁p	-8.93149
▁razon	-8.93176
▁state	-8.93406
▁problemes	-8.93604
▁high	-8.93935
▁algna	-8.94
▁posivle	-8.94267
▁indemas	-8.94354
▁da	-8.94588
▁saw	-8.94613
ke	-8.94744
▁ah	-8.94759
▁segridad	-8.94776
▁support	-8.9482
▁papa	-8.94828
▁deven	-8.94855
▁azerlo	-8.9501
▁eh	-8.95426
▁esos	-8.95489
▁mira	-8.95618
▁quite	-8.95749
▁devria	-8.95843
▁wrong	-8.96494
▁c	-8.96702
▁friend	-8.96795
▁possible	-8.96822
▁group	-8.96829
▁yourself	-8.96844
▁heard	-8.96871
▁myself	-8.97198
▁mueva	-8.97385
▁ariento	-8.97388
▁deshar	-8.97721
▁keria	-8.97799
▁ti	-8.97898
▁fin	-8.98473
▁ombres	-8.98478
▁able	-8.9853
▁vozotros	-8.98844
▁kualkier	-8.98892
▁salud	-8.99102
▁listen	-8.99231
▁days	-8.99288
▁true	-8.99344
▁pasar	-9.00059
▁cannot	-9.00303
al	-9.00346
▁guy	-9.00646
▁munchas	-9.00958
▁play	-9.01033
▁second	-9.01836
▁bring	-9.02135
▁nuestros	-9.02144
▁change	-9.02204
▁means	-9.02423
▁doktor	-9.02574
▁committee	-9.02723
▁political	-9.02895
▁mama	-9.02978
▁system	-9.03007
▁business	-9.03253
▁start	-9.03393
▁until	-9.03442
▁tomorrow	-9.0346
▁took	-9.04155
and	-9.04193
▁situasion	-9.04289
▁eu	-9.04436
▁uh	-9.04441
▁else	-9.04507
▁water	-9.04522
▁afuera	-9.04639
▁happened	-9.04644
▁open	-9.04737
▁head	-9.04795
▁kreatura	-9.04798
▁taken	-9.04862
▁having	-9.04876
▁within	-9.05396
▁dishe	-9.0545
▁job	-9.05454
▁trata	-9.05556
▁sierto	-9.05635
▁patients	-9.05743
▁getting	-9.05815
▁looking	-9.0583
▁tomar	-9.06048
▁wish	-9.06085
▁clear	-9.06284
▁fine	-9.0633
▁realmente	-9.06404
▁kamino	-9.06513
▁kreaturas	-9.06568
▁derechos	-9.06628
▁alone	-9.0674
▁aspero	-9.06849
▁re	-9.07043
▁ayuda	-9.0707
▁final	-9.07356
▁ve	-9.07469
▁sistema	-9.07469
▁haven	-9.07475
▁inkluzo	-9.07475
▁area	-9.07965
▁children	-9.08278
▁wife	-9.08301
▁ayegar	-9.08498
▁topar	-9.08536
▁plazeria	-9.08539
▁yevar	-9.08894
▁development	-9.09146
▁called	-9.09508
▁future	-9.09531
▁ven	-9.09627
▁propozision	-9.09737
▁otras	-9.09781
▁deves	-9.10166
▁plan	-9.1021
▁...	-9.10299
▁todavia	-9.10481
▁derecho	-9.1083
▁lado	-9.11086
▁vayga	-9.11121
▁tonight	-9.11191
▁salir	-9.11382
ra	-9.1149
▁egzempyo	-9.11759
▁djeneral	-9.11766
▁during	-9.11768
▁soon	-9.118
▁ayga	-9.12135
▁economic	-9.12227
▁d	-9.1265
▁serka	-9.12688
▁dear	-9.12736
▁face	-9.12862
▁algun	-9.12866
▁kaji	-9.12889
▁modo	-9.12992
▁vos	-9.13025
▁family	-9.1307
▁kijera	-9.13111
▁present	-9.13199
▁information	-9.13241
▁nesesario	-9.13253
▁given	-9.13514
▁kiza	-9.13668
▁tierra	-9.13796
▁falta	-9.14285
▁dead	-9.1464
▁ain	-9.14665
▁esas	-9.15071
▁run	-9.15071
▁study	-9.15208
▁rights	-9.15211
▁couldn	-9.15238
ar	-9.15445
▁happy	-9.15456
▁knew	-9.15496
▁mizma	-9.15532
you	-9.15546
▁someone	-9.15608
▁amor	-9.15724
man	-9.15811
▁agua	-9.16048
▁trying	-9.16181
▁pasensiaes	-9.1639
tes	-9.16584
k	-9.16963
▁kale	-9.17235
▁talking	-9.17295
▁kerido	-9.17482
it	-9.1756
▁pay	-9.17638
▁chikos	-9.17707
▁ize	-9.17758
▁five	-9.18024
▁istoria	-9.1826
▁relasion	-9.18318
▁importa	-9.18596
▁komer	-9.18758
▁informasion	-9.18966
▁aziendo	-9.19044
▁process	-9.19161
▁l	-9.19304
▁kavesa	-9.19506
▁hello	-9.19509
▁muevos	-9.19587
▁working	-9.19617
▁wasn	-9.19655
▁war	-9.1982
▁siguir	-9.19851
▁sivdad	-9.19946
▁meet	-9.20019
▁four	-9.20234
▁demando	-9.203
▁kill	-9.20434
▁uvyera	-9.20558
▁fui	-9.20607
▁numero	-9.21118
▁set	-9.21229
▁turn	-9.21456
▁national	-9.2149
▁moment	-9.21765
▁community	-9.21809
▁situation	-9.21899
▁heart	-9.22031
▁lady	-9.22393
▁actually	-9.22533
▁hard	-9.22606
▁proseso	-9.22673
▁asked	-9.22949
▁hold	-9.23264
▁kara	-9.23409
▁estudio	-9.23442
▁speak	-9.23613
▁ningun	-9.23653
▁pretty	-9.23683
▁taking	-9.23963
▁general	-9.24088
▁government	-9.24147
▁publiko	-9.24268
▁least	-9.24275
▁rather	-9.24394
▁polisiya	-9.25052
▁algnas	-9.25074
▁muchos	-9.2509
▁gentlemen	-9.25156
▁milyones	-9.25466
▁kestion	-9.257
▁level	-9.25727
▁mano	-9.2605
▁ermozo	-9.26117
▁prezensia	-9.2638
▁common	-9.2638
▁senso	-9.26461
▁making	-9.26513
▁tus	-9.26536
▁gone	-9.26722
▁issue	-9.26899
▁minute	-9.27102
▁school	-9.27233
▁doctor	-9.27346
▁amigos	-9.2764
▁perhaps	-9.27817
▁says	-9.27838
▁krees	-9.27967
▁afraid	-9.2802
▁gerra	-9.28211
▁b	-9.28312
▁move	-9.28469
▁death	-9.28636
▁red	-9.28684
g	-9.28755
▁primero	-9.28767
▁ready	-9.28774
h	-9.28961
▁ud	-9.28995
▁pueda	-9.29105
▁sosyal	-9.29333
▁data	-9.29605
▁savia	-9.2963
▁market	-9.29636
p	-9.29801
▁law	-9.30165
▁reason	-9.3019
os	-9.30321
▁governo	-9.30449
▁rest	-9.30466
▁along	-9.30487
▁torno	-9.30488
▁igal	-9.30512
b	-9.30633
▁later	-9.30764
▁small	-9.30806
▁pas	-9.30939
▁personal	-9.31082
▁famiya	-9.31127
▁pasado	-9.31247
▁thanks	-9.31516
▁ayudar	-9.31579
▁word	-9.31673
▁proposal	-9.32033
▁half	-9.32264
▁power	-9.32553
th	-9.32758
▁sinko	-9.32909
▁become	-9.32945
▁viejo	-9.32983
▁forget	-9.33022
▁read	-9.33049
▁grandes	-9.33117
▁oras	-9.33276
▁guess	-9.33353
▁nivel	-9.33558
▁futuro	-9.33626
▁buenas	-9.33697
▁police	-9.33778
▁di	-9.33958
▁muerte	-9.34116
▁aspera	-9.34153
▁beautiful	-9.34409
▁ultimo	-9.34444
▁kuatro	-9.34469
▁research	-9.34474
▁kuadro	-9.34494
▁total	-9.34576
▁digo	-9.34641
▁difisil	-9.34979
▁pensar	-9.35011
▁commissioner	-9.35097
▁friends	-9.35125
▁gave	-9.35228
ron	-9.35314
,""""	-9.35476
▁prekosions	-9.35886
▁faktos	-9.36233
▁view	-9.36237
▁party	-9.36274
so	-9.36566
▁whether	-9.36568
▁example	-9.36614
▁poor	-9.36701
▁certain	-9.36797
▁international	-9.369
▁investigasion	-9.36937
▁stand	-9.37245
▁kontrol	-9.37334
▁charsi	-9.37516
▁full	-9.37545
▁mio	-9.37551
▁veo	-9.37564
▁segndo	-9.37616
▁uniko	-9.3762
▁though	-9.37646
▁programa	-9.37828
▁ten	-9.37841
▁times	-9.37982
▁komun	-9.37987
▁food	-9.38097
▁position	-9.38122
▁dolar	-9.38363
▁child	-9.38647
▁mine	-9.39058
▁control	-9.39068
▁eyes	-9.39114
▁late	-9.39248
▁persona	-9.39496
▁prove	-9.39909
▁semana	-9.39918
▁side	-9.40016
▁kapitan	-9.40016
▁door	-9.40112
▁semos	-9.40443
▁captain	-9.40591
▁brother	-9.40723
▁espanto	-9.40931
▁pensi	-9.41022
▁puerta	-9.41046
▁baby	-9.41195
▁ue	-9.41244
▁less	-9.41345
▁legal	-9.41433
▁deal	-9.4146
▁free	-9.41792
▁drink	-9.41805
▁vista	-9.42083
▁eat	-9.42161
▁odren	-9.42168
dos	-9.42304
▁married	-9.42397
▁bit	-9.4249
▁et	-9.42852
▁kambio	-9.43075
▁mezes	-9.43129
▁iva	-9.43223
▁wants	-9.43426
▁ok	-9.43475
▁saying	-9.43502
▁fight	-9.43507
▁york	-9.43526
▁die	-9.43661
is	-9.43664
▁suerte	-9.43912
▁ojos	-9.44151
▁chance	-9.44153
▁vyene	-9.44201
▁bastante	-9.4429
▁upon	-9.44438
▁makes	-9.44478
▁ninguna	-9.44584
▁answer	-9.44644
▁words	-9.44697
▁unidos	-9.44847
▁areas	-9.45048
▁largo	-9.45057
▁umanos	-9.4515
▁sujeto	-9.45173
▁problems	-9.45193
▁close	-9.4535
▁srta	-9.45417
▁almost	-9.4546
▁anyone	-9.45468
▁nuestras	-9.45697
▁line	-9.45797
▁city	-9.45885
▁months	-9.45959
▁action	-9.45982
▁minutes	-9.46001
▁comes	-9.46319
▁necessary	-9.46362
▁mansevo	-9.46533
▁town	-9.46561
▁united	-9.46714
▁light	-9.46717
na	-9.46764
▁killed	-9.46792
▁week	-9.46897
sh	-9.46924
ria	-9.47049
▁marido	-9.47066
▁kid	-9.47351
▁million	-9.47454
▁asperar	-9.47474
▁hands	-9.47531
▁pregnta	-9.476
▁thinking	-9.47656
▁waiting	-9.47773
▁everybody	-9.47819
▁asigun	-9.47965
▁happen	-9.48007
▁risk	-9.4802
▁lavorar	-9.4825
▁sigue	-9.48357
▁prinsipio	-9.48549
▁hours	-9.48702
▁kree	-9.48808
▁trouble	-9.48992
▁easy	-9.49052
▁global	-9.49092
▁manos	-9.49198
▁others	-9.49232
▁watch	-9.49262
▁nesesito	-9.49298
▁person	-9.4935
▁kedar	-9.49439
▁seems	-9.49455
▁ladies	-9.49458
▁husband	-9.49477
▁korva	-9.49511
▁dyo	-9.49578
das	-9.49857
yo	-9.49997
▁huh	-9.50137
▁media	-9.50181
▁korason	-9.50328
▁grande	-9.50333
▁everyone	-9.50383
▁ermano	-9.50454
▁papel	-9.50461
▁desha	-9.50585
▁sleep	-9.50648
u	-9.50704
▁simple	-9.50908
▁fundamental	-9.50964
▁puedia	-9.5098
▁vino	-9.51188
▁nobody	-9.51199
▁bivir	-9.51232
▁ultima	-9.51293
▁avria	-9.5147
van	-9.51506
▁alto	-9.51509
▁joe	-9.51555
▁send	-9.51556
▁diferentes	-9.51681
▁aya	-9.51731
▁toma	-9.51762
▁measures	-9.51784
▁puevlo	-9.51854
▁majorita	-9.51934
▁particular	-9.51951
▁syendo	-9.52063
▁sinyifika	-9.52082
ko	-9.52161
▁resultados	-9.52189
▁dad	-9.52225
▁among	-9.52256
▁siudadanos	-9.52357
▁repuesta	-9.52508
▁avra	-9.5273
▁brought	-9.52735
▁aren	-9.52813
▁minutos	-9.52822
▁story	-9.52893
▁either	-9.52961
▁buy	-9.53208
em	-9.53472
▁members	-9.53649
▁six	-9.53795
ta	-9.53841
▁looks	-9.53876
▁himself	-9.53892
▁estuvo	-9.53955
▁mar	-9.54045
▁vinir	-9.54068
▁somebody	-9.54407
▁karinyo	-9.54609
▁probably	-9.54659
▁uso	-9.54844
▁gotta	-9.54909
▁guys	-9.55019
▁demandar	-9.55113
▁objektivo	-9.55274
▁penso	-9.55719
▁security	-9.55786
▁per	-9.55797
▁needs	-9.55839
▁kondisiones	-9.56019
▁aserka	-9.56091
▁nesesita	-9.56152
▁cut	-9.56224
ers	-9.56336
▁white	-9.56364
▁par	-9.56515
▁financial	-9.56589
▁shef	-9.56636
▁biervo	-9.56866
▁sufisiente	-9.56884
▁wanna	-9.57051
▁tuve	-9.57063
▁egziste	-9.57085
▁patient	-9.57106
▁karta	-9.57215
▁biervos	-9.57336
▁goes	-9.57377
▁kontente	-9.57517
▁certainly	-9.5753
▁body	-9.57588
▁longer	-9.57737
?"""""""	-9.57762
▁blood	-9.57864
▁riziko	-9.57894
▁results	-9.57903
▁aga	-9.57974
▁air	-9.58164
or	-9.58186
▁respect	-9.5832
▁paris	-9.58336
f	-9.58423
▁oportunidad	-9.58524
▁sit	-9.58694
▁kavzos	-9.58697
ka	-9.5876
▁chiko	-9.58876
▁cases	-9.58883
▁komisario	-9.59236
▁adios	-9.59261
▁decision	-9.59339
▁konsegir	-9.59411
▁agreement	-9.59428
▁using	-9.5959
▁sort	-9.59654
▁djuntos	-9.59668
▁office	-9.59887
▁kizas	-9.59929
▁adelante	-9.60046
▁due	-9.60046
▁apoyo	-9.60089
▁behind	-9.60277
▁table	-9.60314
▁ayego	-9.60367
▁often	-9.60375
▁worry	-9.60472
▁eran	-9.60489
▁book	-9.60493
▁g	-9.605
▁finally	-9.60717
▁yama	-9.60993
▁supozo	-9.61226
▁keda	-9.61503
▁datos	-9.61554
▁leson	-9.61752
▁citizens	-9.61827
▁auto	-9.6187
▁estuve	-9.6205
▁vina	-9.62153
▁direktiva	-9.62183
▁directive	-9.62373
▁tuvo	-9.62395
sion	-9.62449
▁pasensia	-9.62475
▁further	-9.62551
▁keremos	-9.62643
▁started	-9.62672
▁importansia	-9.6287
▁third	-9.62937
▁sense	-9.6308
▁living	-9.63205
▁fuerte	-9.63242
▁darling	-9.63597
▁natural	-9.63605
▁supuesto	-9.63632
▁lost	-9.63844
▁large	-9.63978
▁glad	-9.64251
▁entrar	-9.6429
▁entendo	-9.64481
▁posision	-9.64505
▁court	-9.64639
▁past	-9.64663
▁figure	-9.64738
▁especially	-9.64919
▁normal	-9.65072
▁serious	-9.65089
▁tenga	-9.65118
ian	-9.65147
▁vale	-9.65449
▁terms	-9.65451
▁otomobil	-9.65552
▁valor	-9.65666
▁baza	-9.65847
▁oe	-9.65913
▁avla	-9.66085
▁espesial	-9.6615
▁bed	-9.66294
▁difficult	-9.66322
▁azen	-9.66352
▁fire	-9.66449
▁yamar	-9.66771
▁major	-9.66914
▁although	-9.67056
▁sent	-9.67095
▁boys	-9.6729
▁age	-9.67557
▁fasil	-9.67753
▁puesto	-9.67804
▁noches	-9.67939
▁according	-9.6797
▁evening	-9.68197
▁sikiera	-9.68299
▁efekto	-9.6843
▁excuse	-9.68436
▁poblasion	-9.68441
▁truth	-9.68459
▁m	-9.68496
▁based	-9.68567
oh	-9.68738
▁serio	-9.6882
▁welcome	-9.68951
▁act	-9.68963
▁libre	-9.69136
▁entender	-9.69372
▁luz	-9.69374
what	-9.69387
▁bushkar	-9.69586
▁step	-9.696
▁mas	-9.69631
▁following	-9.69748
▁short	-9.69759
▁livro	-9.69869
▁mil	-9.70002
▁matar	-9.70018
?"""	-9.70087
▁pre	-9.70189
▁outside	-9.70234
▁sister	-9.70276
he	-9.70368
▁known	-9.70388
▁rules	-9.7039
▁sometimes	-9.70454
▁san	-9.70514
▁suppose	-9.708
▁""	-9.70821
▁madam	-9.70878
▁sola	-9.70894
▁nesesidad	-9.70934
▁field	-9.7099
▁material	-9.70994
▁peace	-9.71008
▁sesh	-9.71026
ro	-9.71355
▁"""-	-9.71392
▁keren	-9.71428
▁sektor	-9.71457
▁tried	-9.71487
▁yeva	-9.71499
▁edad	-9.71514
▁politikas	-9.71527
▁servisios	-9.71784
▁dechizion	-9.71817
▁enfrente	-9.71859
▁dan	-9.71968
▁justo	-9.72344
us	-9.72365
▁kamareta	-9.72384
▁result	-9.72387
▁cooperation	-9.72388
▁pesar	-9.72567
▁vote	-9.72724
▁hurt	-9.72801
▁yevo	-9.73155
▁internasyonal	-9.73176
▁komida	-9.73222
▁role	-9.73223
▁murir	-9.73335
▁break	-9.73487
▁forward	-9.73569
▁hi	-9.73583
▁anyway	-9.73623
▁dubio	-9.73682
▁partikular	-9.73703
▁questions	-9.73741
▁subject	-9.73751
▁amendments	-9.73909
▁puerpo	-9.73981
ya	-9.74005
▁entreprisas	-9.74059
▁saven	-9.74101
▁kaye	-9.74211
▁avlando	-9.74358
▁chika	-9.7439
▁company	-9.7445
▁indeed	-9.74501
▁particularly	-9.74505
▁hour	-9.74518
▁senyorita	-9.74566
am	-9.74601
▁desho	-9.74672
▁energy	-9.74777
▁exactly	-9.7481
▁walk	-9.74848
▁ideas	-9.74904
▁issues	-9.74939
▁arriva	-9.74943
▁hit	-9.74985
▁muerto	-9.75131
▁terreno	-9.75268
▁diez	-9.75293
▁sosiedad	-9.75536
▁special	-9.75553
▁front	-9.75597
ted	-9.75625
▁black	-9.75669
▁land	-9.75777
▁kalidad	-9.75833
▁leshos	-9.75871
▁bar	-9.75892
▁greater	-9.76147
▁conditions	-9.76228
▁meeting	-9.76233
▁attention	-9.76294
▁couple	-9.76632
▁ka	-9.76695
▁low	-9.76795
▁protecsion	-9.76915
▁society	-9.76916
▁unika	-9.77043
▁early	-9.77106
▁proyekto	-9.77116
▁american	-9.77154
▁tiene	-9.77314
▁stuff	-9.77568
▁follow	-9.77873
v	-9.77993
▁paper	-9.78167
we	-9.78178
▁itself	-9.78242
▁miles	-9.78277
▁king	-9.78413
▁trade	-9.78581
▁enmiendas	-9.78629
▁muncha	-9.7877
▁ambito	-9.79133
▁materia	-9.79145
▁anybody	-9.7922
▁wonderful	-9.79293
▁safety	-9.79554
▁allow	-9.79649
▁inside	-9.79723
▁prezente	-9.79778
▁loko	-9.79854
▁estudios	-9.79967
▁game	-9.80113
▁buro	-9.80167
▁empleo	-9.80216
▁animal	-9.80276
▁u	-9.80372
▁aksion	-9.80444
▁america	-9.8056
▁seem	-9.80621
▁continue	-9.80785
▁regard	-9.80831
▁finalmente	-9.80926
▁increase	-9.81044
▁via	-9.81083
▁account	-9.8111
▁kavo	-9.81264
up	-9.81366
go	-9.81579
▁topo	-9.81598
▁ensure	-9.81644
▁propya	-9.81654
▁treatment	-9.81688
▁return	-9.81756
▁cold	-9.8177
▁ermana	-9.81794
▁knows	-9.81868
▁jack	-9.81941
▁espesialmente	-9.81955
▁artikolo	-9.82066
▁mesaje	-9.82181
▁mediante	-9.82227
▁pagar	-9.82227
▁crazy	-9.82273
▁partir	-9.82304
▁kuarto	-9.82314
▁hell	-9.82327
▁type	-9.82332
▁anti	-9.82586
▁analisis	-9.82627
▁services	-9.82811
▁sien	-9.82857
▁dishites	-9.8287
▁buenos	-9.82967
▁lives	-9.83008
▁responsabilitad	-9.83052
▁savemos	-9.83156
▁enerjia	-9.83172
▁gun	-9.83176
▁aid	-9.83192
▁eskapar	-9.83216
▁single	-9.83272
▁ahead	-9.83416
▁ves	-9.83512
▁dicho	-9.83599
▁radio	-9.83631
▁prinsipal	-9.83674
▁daughter	-9.83732
▁environment	-9.83766
▁estavan	-9.83773
▁dever	-9.83777
▁sitio	-9.83838
▁yamo	-9.83842
▁h	-9.83855
▁kalmo	-9.83985
▁interest	-9.83998
▁azes	-9.84015
▁ambiente	-9.84155
▁population	-9.84201
▁key	-9.84232
▁tio	-9.84425
▁road	-9.84438
▁nesesitamos	-9.84515
▁akabo	-9.84588
▁studies	-9.84602
▁check	-9.84649
▁hurry	-9.8469
▁towards	-9.84743
▁propyo	-9.84877
▁minor	-9.84883
▁fuerza	-9.8489
▁konoso	-9.84897
▁lord	-9.84898
▁izites	-9.85092
un	-9.85164
▁pedrer	-9.85218
▁agree	-9.85224
▁ley	-9.85258
▁main	-9.85432
▁kids	-9.85452
▁several	-9.85543
▁mantener	-9.85545
▁kooperasion	-9.85591
▁whatever	-9.85965
▁approach	-9.86028
▁fun	-9.86042
▁juego	-9.86043
▁eskola	-9.86382
▁ponente	-9.86526
▁valutozaes	-9.86685
▁current	-9.86697
▁dinner	-9.86712
▁french	-9.86868
▁bank	-9.86995
▁consider	-9.87067
▁ayer	-9.87093
▁budget	-9.87182
▁letter	-9.87246
ado	-9.87272
▁nasional	-9.87488
▁mundial	-9.87494
▁sean	-9.87525
▁procedure	-9.87541
▁pregntas	-9.87548
▁force	-9.87553
▁model	-9.87557
▁top	-9.87621
▁sigunda	-9.87715
▁konsekuensa	-9.87724
▁sangre	-9.8774
▁specific	-9.87915
▁service	-9.87989
▁including	-9.88032
▁kulpa	-9.88039
▁master	-9.88043
▁ship	-9.88072
▁prekosion	-9.88183
▁pie	-9.88242
▁asperando	-9.88253
▁trokar	-9.88264
▁aplikasion	-9.88268
▁education	-9.88326
▁demanda	-9.8834
▁vapor	-9.88442
▁john	-9.88482
▁dizen	-9.88501
▁form	-9.88506
ness	-9.88838
▁durmir	-9.88897
▁sala	-9.8895
▁lead	-9.89148
▁pick	-9.8931
▁test	-9.89347
but	-9.89565
▁news	-9.89765
▁strong	-9.8981
▁concerned	-9.89829
▁sigiente	-9.90106
▁kama	-9.90211
▁dizi	-9.90271
▁co	-9.90347
▁till	-9.90415
▁similar	-9.9048
▁protection	-9.905
▁leaving	-9.90501
▁themselves	-9.90587
▁dame	-9.90654
▁quality	-9.9067
▁frank	-9.9072
▁learn	-9.90751
▁sound	-9.90815
▁eksito	-9.90823
▁debido	-9.91042
▁inglez	-9.91048
▁dolor	-9.91117
▁above	-9.91179
▁post	-9.91195
▁dog	-9.91215
▁espasio	-9.91226
▁servisio	-9.91235
▁euro	-9.91275
x	-9.91366
▁sielo	-9.91432
▁resultado	-9.91703
▁individual	-9.91733
▁nor	-9.91779
▁bivo	-9.91786
▁konoser	-9.91821
▁shot	-9.91894
▁akel	-9.91924
mo	-9.91967
▁abajo	-9.92107
▁yesterday	-9.92207
▁entereso	-9.92493
▁basis	-9.92497
▁period	-9.92549
▁looked	-9.92554
▁pensa	-9.92625
▁involved	-9.9263
▁phone	-9.92688
▁street	-9.92729
▁komunidad	-9.92735
able	-9.92798
▁libertad	-9.92817
▁empesar	-9.93022
▁trust	-9.93058
▁torna	-9.93064
▁grupos	-9.93106
▁shut	-9.93126
▁expect	-9.93201
▁music	-9.93201
▁evitar	-9.93233
▁resulta	-9.93328
▁died	-9.93353
▁parti	-9.93363
▁progress	-9.93388
▁earth	-9.93397
▁mom	-9.9351
▁rekursos	-9.93516
▁jon	-9.9358
▁non	-9.93601
▁ijos	-9.93656
▁rey	-9.93678
por	-9.93683
▁clearly	-9.93695
▁pronta	-9.93728
▁access	-9.93792
▁programme	-9.93818
▁thus	-9.94122
▁telling	-9.9423
▁history	-9.94249
▁hate	-9.9426
▁uzar	-9.9435
▁groups	-9.94422
ma	-9.94427
▁institutions	-9.94431
▁disease	-9.94474
▁pain	-9.94637
▁fall	-9.94684
▁honey	-9.94711
▁amendment	-9.94742
▁girls	-9.94922
▁wonder	-9.95015
▁experience	-9.95075
▁proposed	-9.95245
tu	-9.9528
▁management	-9.95323
▁sick	-9.95337
▁write	-9.95465
▁cost	-9.95644
▁viaje	-9.95675
▁kontrario	-9.95675
▁kreer	-9.95697
▁marry	-9.95705
▁rapporteur	-9.95706
▁resto	-9.95727
▁accept	-9.95779
▁vuelta	-9.95825
▁decided	-9.95862
▁bill	-9.95891
▁considered	-9.95994
▁presidensia	-9.95999
mi	-9.96002
▁fondo	-9.961
▁normas	-9.96168
▁needed	-9.96273
▁mia	-9.96325
▁whose	-9.96332
▁malo	-9.96364
▁partes	-9.96398
▁sur	-9.96449
▁provide	-9.96522
▁hospital	-9.96536
▁knowledge	-9.9654
▁across	-9.96566
▁solusion	-9.96607
▁interior	-9.96622
▁trato	-9.96625
▁date	-9.967
▁diga	-9.96751
▁listo	-9.96761
▁ought	-9.968
▁modelo	-9.9686
▁felt	-9.96867
▁institusiones	-9.96877
▁nasionales	-9.97028
▁instead	-9.97064
▁prova	-9.97129
▁lose	-9.97141
▁sido	-9.9728
▁sosyales	-9.97303
▁kresimiento	-9.97351
▁effect	-9.97406
▁resolusion	-9.97449
▁importance	-9.9747
w	-9.9756
▁penserios	-9.97565
▁growth	-9.97576
▁local	-9.97659
▁djunto	-9.97816
▁topa	-9.97839
▁dejame	-9.97843
▁sector	-9.97915
▁periodo	-9.97974
▁oye	-9.98086
▁ekipo	-9.98113
▁oi	-9.98116
▁devamos	-9.98136
▁analysis	-9.98198
▁merkar	-9.9827
▁madame	-9.98303
▁semanas	-9.98305
▁sign	-9.98398
▁eyas	-9.98454
▁picture	-9.9846
▁provas	-9.98465
▁article	-9.98483
▁project	-9.98538
▁cause	-9.9859
▁paul	-9.98654
▁tratamiento	-9.98671
▁n	-9.98769
▁posibilidad	-9.98804
▁adreso	-9.98905
▁framework	-9.98956
▁hazinura	-9.98989
▁weeks	-9.98997
z	-9.99045
▁mach	-9.99052
▁prosedimiento	-9.99165
▁echos	-9.99175
▁anymore	-9.99201
▁linea	-9.99252
▁vido	-9.99264
▁met	-9.99273
▁aumento	-9.99344
▁io	-9.99352
▁lucha	-9.99434
▁ultimos	-9.99445
▁giving	-9.99496
▁higher	-9.99523
▁kausa	-9.99543
▁aktual	-9.99548
ton	-9.9963
▁akeyos	-9.99718
▁opportunity	-9.99785
▁positive	-9.99837
▁train	-9.99857
▁alta	-9.99908
▁mala	-9.99934
ie	-9.99964
▁resources	-9.99978
▁universidad	-10.0016
▁propozisions	-10.0017
▁feeling	-10.0025
(	-10.0029
▁hot	-10.0029
▁nature	-10.0031
▁f	-10.0049
▁kontar	-10.0068
▁akontese	-10.0071
▁muryo	-10.0084
▁voz	-10.0107
▁produktos	-10.0127
▁kafe	-10.0143
▁transport	-10.0157
▁profesor	-10.0176
▁mez	-10.018
▁muzika	-10.0195
▁armas	-10.0215
▁enmienda	-10.0217
▁worth	-10.0231
ting	-10.0232
▁izyeron	-10.0233
ne	-10.0239
▁ekonomia	-10.0245
▁simply	-10.0247
▁plazer	-10.0252
▁building	-10.0257
▁permite	-10.0261
▁supposed	-10.0262
▁presensia	-10.0274
▁club	-10.0278
▁funny	-10.0286
▁share	-10.0288
▁hair	-10.0288
▁uncle	-10.029
▁running	-10.0293
▁ko	-10.0296
sen	-10.0299
▁atras	-10.0305
▁dizes	-10.031
▁affairs	-10.031
nos	-10.0316
▁kosta	-10.0316
▁ayre	-10.0327
▁europeos	-10.0328
▁avian	-10.0337
yes	-10.0339
co	-10.0341
▁safe	-10.0344
▁explain	-10.0352
▁fellow	-10.0359
▁acseso	-10.0365
▁relasiones	-10.0374
▁negro	-10.0378
▁objektivos	-10.0407
ada	-10.0415
▁krear	-10.042
▁ambos	-10.042
▁mansevoes	-10.0425
be	-10.0433
▁points	-10.0446
▁shouldn	-10.0455
▁tratado	-10.0463
▁fast	-10.047
▁pan	-10.0475
▁proposals	-10.0477
▁rejion	-10.0482
▁david	-10.0484
▁beginning	-10.0493
▁industry	-10.0496
▁practice	-10.0509
▁sentro	-10.0532
▁animales	-10.0543
▁resolution	-10.0552
▁evidence	-10.0553
▁behalf	-10.0553
▁avlo	-10.0557
▁bovo	-10.0558
▁presidency	-10.0559
▁akaba	-10.0562
▁pase	-10.0569
▁dechiziones	-10.0574
▁naturalmente	-10.0574
▁happens	-10.0576
▁kompetensia	-10.0578
▁prezentar	-10.0594
▁value	-10.0598
ity	-10.0608
▁rate	-10.0614
▁feet	-10.0614
▁jim	-10.0636
▁kapachedad	-10.0639
▁figra	-10.0656
▁edukasion	-10.066
▁eksperiensia	-10.0663
▁konose	-10.0667
▁zona	-10.0669
▁mejorar	-10.067
▁voice	-10.0692
▁djuzgo	-10.0694
▁adopted	-10.0696
▁puedyo	-10.0697
▁tratar	-10.07
▁region	-10.0702
▁politiko	-10.0703
▁ampliasion	-10.0711
▁amo	-10.0714
▁rio	-10.0719
▁espozorio	-10.0722
▁near	-10.073
▁india	-10.073
▁kriza	-10.0752
▁various	-10.0757
▁serve	-10.0759
▁self	-10.076
▁banko	-10.076
▁south	-10.0773
▁space	-10.0776
▁komunikasion	-10.0777
▁responsibility	-10.0784
▁george	-10.0791
▁private	-10.0792
▁dance	-10.0798
▁permitir	-10.0799
▁doubt	-10.0805
!"""""""	-10.0806
▁significant	-10.0812
▁monsieur	-10.0825
▁reglamento	-10.0834
▁foreign	-10.0838
▁meza	-10.0845
▁fair	-10.0855
that	-10.0857
▁musyu	-10.0859
▁diferensya	-10.0859
▁middle	-10.0861
▁charlie	-10.0864
ten	-10.0865
▁regulation	-10.0877
▁telefon	-10.0879
▁central	-10.0911
▁environmental	-10.0919
▁valores	-10.0925
▁djugar	-10.0926
▁lie	-10.0932
▁stage	-10.0932
▁horse	-10.0933
▁justisia	-10.0945
▁kineza	-10.095
▁padres	-10.0954
▁akodrar	-10.0954
▁metyo	-10.0955
▁drive	-10.0958
▁perro	-10.0959
▁ospital	-10.0959
▁quiet	-10.0967
▁praktika	-10.0984
▁justice	-10.0987
▁sub	-10.0996
▁estableser	-10.1
▁producsion	-10.103
▁obstante	-10.1037
▁changed	-10.1065
▁win	-10.1071
▁alive	-10.1071
▁basta	-10.1075
▁ekonomika	-10.1076
▁fear	-10.1077
▁minimum	-10.1084
▁principle	-10.1086
▁transporte	-10.1095
▁sam	-10.1097
▁playing	-10.11
▁puntos	-10.1103
▁reform	-10.1104
▁available	-10.1107
▁boat	-10.111
▁turned	-10.1118
▁production	-10.1122
▁verlo	-10.1125
▁changes	-10.1127
▁dvrias	-10.1132
▁bushkando	-10.1136
▁presidenta	-10.1141
▁preto	-10.1148
▁probablemente	-10.1155
▁egzisten	-10.116
▁difference	-10.1165
▁legislation	-10.1168
▁asking	-10.1181
▁eksaktamente	-10.1182
▁k	-10.1183
▁carry	-10.1184
▁plazo	-10.1186
▁station	-10.1196
▁treno	-10.1198
ic	-10.1201
▁fish	-10.1206
▁ganar	-10.1214
▁shit	-10.1215
▁vete	-10.122
▁mark	-10.1226
▁diferente	-10.1231
▁eye	-10.1242
▁kestiones	-10.1244
▁djestion	-10.1255
▁medios	-10.126
▁akodro	-10.1262
▁fransez	-10.1267
▁r	-10.1275
les	-10.1278
▁create	-10.1282
well	-10.1294
▁refere	-10.1303
▁mijores	-10.1312
▁anoche	-10.133
son	-10.134
j	-10.1344
▁coffee	-10.1349
▁pass	-10.1353
▁ensima	-10.1361
▁kept	-10.1395
▁responsible	-10.1398
▁garantisar	-10.14
▁professor	-10.1402
▁grave	-10.1407
▁english	-10.1416
▁completely	-10.1422
▁systems	-10.1422
los	-10.1422
▁dizirle	-10.1425
▁china	-10.1426
ga	-10.1432
▁simplemente	-10.1442
▁luck	-10.1447
▁aspektos	-10.1451
▁catch	-10.1455
▁touch	-10.1456
▁month	-10.1462
▁vites	-10.1462
rse	-10.148
▁takes	-10.1481
▁quickly	-10.1485
▁aseptar	-10.1487
▁economy	-10.149
▁nuclear	-10.149
▁pensando	-10.1494
▁employment	-10.1496
▁stupid	-10.1506
▁totalmente	-10.1516
▁promise	-10.1516
▁strange	-10.1558
▁norte	-10.156
▁irse	-10.1562
▁aspekto	-10.1563
▁recent	-10.1566
▁sentral	-10.1568
▁oir	-10.1575
▁mitad	-10.1585
▁duro	-10.1591
▁policies	-10.1592
▁puederian	-10.1595
▁senyorias	-10.1599
▁sol	-10.1603
▁sweet	-10.1605
▁gsto	-10.161
▁boka	-10.1611
▁reunion	-10.1623
▁gets	-10.1627
▁internal	-10.1633
▁interesting	-10.1643
▁dizyendo	-10.1645
ja	-10.1648
▁seven	-10.1653
▁worked	-10.1655
▁dime	-10.167
▁konjunto	-10.167
▁mayores	-10.1676
▁realisar	-10.1679
""""."""	-10.168
▁maria	-10.1694
▁puederiamos	-10.1694
▁mm	-10.1695
▁piece	-10.1701
▁achieve	-10.1703
▁tired	-10.1712
▁seeing	-10.1736
▁treaty	-10.1737
▁bob	-10.1742
▁carried	-10.1745
▁tomo	-10.176
▁rich	-10.1794
pa	-10.18
▁offer	-10.181
▁sakar	-10.1816
▁ha	-10.1816
▁dream	-10.1821
▁blanko	-10.1825
▁detras	-10.1832
▁fool	-10.1837
▁tribunal	-10.184
▁meta	-10.1845
▁inter	-10.1846
▁companies	-10.1851
▁paid	-10.1851
▁vision	-10.1859
▁echar	-10.1869
▁related	-10.1871
pe	-10.1875
▁art	-10.1879
▁except	-10.1884
▁lack	-10.1906
▁presupuesto	-10.1912
▁ourselves	-10.1919
▁alderredor	-10.1929
▁cross	-10.1934
▁kompanyia	-10.1942
▁danyo	-10.1945
▁lower	-10.1949
▁eks	-10.1952
▁biy	-10.1955
▁torne	-10.1959
▁products	-10.1962
▁crime	-10.1966
li	-10.198
▁medical	-10.1988
ando	-10.1989
▁shoot	-10.1995
▁afternoon	-10.1997
▁motivo	-10.2009
▁kavayo	-10.2013
▁mentioned	-10.2015
▁yours	-10.2019
▁whom	-10.202
▁reading	-10.2021
▁kolegos	-10.2023
▁green	-10.2026
dor	-10.2027
▁round	-10.2027
▁murder	-10.2031
▁sistemas	-10.2038
▁regarding	-10.2047
▁imagine	-10.2049
▁muchacho	-10.2053
▁concern	-10.2058
▁ekonomiko	-10.2062
▁pressure	-10.207
▁sujetos	-10.2075
▁varios	-10.2089
▁mad	-10.2091
▁fuego	-10.2103
▁sinyoos	-10.2108
▁fostan	-10.2109
▁born	-10.2111
▁favour	-10.2118
▁eight	-10.2119
▁freedom	-10.2122
▁amerikano	-10.2128
▁areria	-10.2133
▁chief	-10.2141
▁worse	-10.2142
▁puedan	-10.2144
▁reach	-10.2153
▁parents	-10.2162
▁kedo	-10.2166
▁none	-10.2169
▁throw	-10.2183
my	-10.2185
▁politikos	-10.2191
▁sake	-10.2193
▁minuto	-10.2199
▁menudo	-10.2206
▁sitting	-10.2209
▁interested	-10.2209
▁values	-10.221
▁peter	-10.2215
▁lograr	-10.222
▁akontesyo	-10.2225
▁emposivle	-10.2244
▁sale	-10.2267
▁regions	-10.227
▁dizia	-10.2273
▁bive	-10.2278
▁maldicho	-10.2281
▁familiar	-10.2281
▁aware	-10.2297
▁variables	-10.2301
▁intento	-10.2303
▁count	-10.2314
▁programas	-10.2315
▁effective	-10.232
▁presented	-10.2326
▁azia	-10.2327
▁interesante	-10.2327
▁aksiones	-10.2329
▁akeya	-10.2339
▁solution	-10.2339
▁akodra	-10.2347
▁showed	-10.2348
▁devan	-10.2356
▁extremely	-10.2358
▁medra	-10.2358
▁shows	-10.2368
▁oil	-10.2376
▁decisions	-10.2378
▁konosimiento	-10.239
▁join	-10.2394
▁ground	-10.2403
▁pro	-10.2409
▁military	-10.2413
▁west	-10.2419
▁vyeron	-10.2423
▁price	-10.243
▁brain	-10.2433
▁clean	-10.2442
▁fe	-10.2445
▁extranyo	-10.2447
▁crisis	-10.2464
▁perikolo	-10.2469
▁ey	-10.248
▁enlargement	-10.2482
ley	-10.2485
▁presence	-10.2494
▁serie	-10.25
▁obtener	-10.2503
▁anna	-10.2509
▁internet	-10.2518
▁team	-10.2518
▁disheron	-10.2523
▁careful	-10.2527
▁drop	-10.2529
▁laboriozoes	-10.2535
▁secret	-10.2551
▁bebe	-10.256
▁held	-10.256
▁puedi	-10.2568
▁goodbye	-10.2569
▁meldar	-10.2571
▁workers	-10.2577
▁armada	-10.2579
▁umano	-10.2581
▁topi	-10.2584
▁gold	-10.2585
▁lucky	-10.2593
▁temo	-10.2609
▁levels	-10.262
▁amable	-10.2625
▁konstrucsion	-10.2628
▁impact	-10.263
huenyo	-10.2637
▁pleasure	-10.2642
▁oro	-10.2645
▁rejiones	-10.2648
▁superior	-10.265
▁sun	-10.2653
▁unless	-10.2657
▁partisipasion	-10.266
▁eskala	-10.2664
▁fondos	-10.2677
idad	-10.2677
▁natura	-10.2678
▁reasons	-10.268
▁authorities	-10.269
▁defensa	-10.2699
▁azemos	-10.2701
▁mete	-10.2701
sa	-10.2705
▁interests	-10.2709
▁damn	-10.272
▁movimiento	-10.2721
▁north	-10.2731
▁calling	-10.2732
▁quick	-10.2733
▁hotel	-10.2736
▁factors	-10.2745
▁alkansar	-10.2748
▁intentar	-10.275
▁blue	-10.2753
▁presion	-10.2755
▁relationship	-10.2757
▁siete	-10.2762
▁language	-10.2774
▁received	-10.2777
▁beat	-10.2785
▁pozitivo	-10.2786
▁absolutely	-10.2787
▁djeordje	-10.279
%,	-10.2793
▁formasion	-10.28
▁address	-10.2806
"""""""	-10.2811
▁pull	-10.2823
ge	-10.2825
▁bet	-10.2833
▁remain	-10.284
▁message	-10.2841
▁east	-10.2844
▁essential	-10.2845
▁industria	-10.2846
fue	-10.2846
▁kreasion	-10.2852
▁rule	-10.2859
▁komersio	-10.2862
▁works	-10.2863
▁negosio	-10.2866
▁convention	-10.2867
▁class	-10.2873
▁success	-10.2878
kon	-10.2878
▁protect	-10.288
▁uvo	-10.2882
▁razones	-10.289
▁otel	-10.2894
▁floor	-10.2907
▁formas	-10.2907
▁darle	-10.2925
▁konfiensa	-10.2939
▁context	-10.2941
▁ei	-10.2941
ca	-10.2942
▁marcha	-10.2943
▁ran	-10.2946
▁solamente	-10.2967
▁sing	-10.2967
▁kera	-10.2969
▁france	-10.2975
▁began	-10.2978
▁kompletamente	-10.2983
▁honor	-10.2985
▁aktividades	-10.2986
▁island	-10.2986
▁prisa	-10.2987
▁loved	-10.2989
▁objective	-10.2992
▁chikas	-10.2999
je	-10.3007
ch	-10.3008
▁kambios	-10.3008
▁competition	-10.3014
▁straight	-10.3016
▁mire	-10.3022
▁training	-10.3024
▁kerer	-10.3029
▁hundred	-10.303
▁puedyera	-10.3041
▁terrible	-10.305
▁anterior	-10.3054
▁ocho	-10.3055
▁autoridades	-10.3058
▁enteresoes	-10.3063
▁oyir	-10.3064
▁j	-10.3066
ni	-10.3067
▁visit	-10.3075
▁resivir	-10.3081
▁prezento	-10.3084
▁neither	-10.3093
▁boss	-10.3095
▁steve	-10.3095
▁salyo	-10.3096
▁ofisial	-10.3098
▁faktores	-10.3118
▁konteksto	-10.3126
▁sancho	-10.3128
"""	-10.314
▁diputados	-10.315
▁begin	-10.315
▁fuck	-10.315
▁estratedjia	-10.3151
▁martin	-10.3154
▁waste	-10.3155
▁army	-10.3159
▁technology	-10.3178
▁kantidad	-10.3179
▁agas	-10.318
▁activities	-10.3193
▁addition	-10.3194
▁scientific	-10.3205
ling	-10.3211
▁yamada	-10.3219
▁evaluasion	-10.322
▁board	-10.3222
▁developed	-10.3222
▁improve	-10.3223
▁arms	-10.3228
▁associated	-10.323
▁ledjislasion	-10.3233
▁speaking	-10.324
▁spend	-10.3245
▁elevos	-10.3252
▁patin	-10.3255
▁onor	-10.3262
▁ambre	-10.3264
ter	-10.3267
▁moving	-10.3273
▁mistake	-10.3277
▁dado	-10.3291
▁"	-10.3298
▁krei	-10.3301
pero	-10.3312
▁karne	-10.3312
▁finished	-10.3312
▁foot	-10.3314
▁mato	-10.3315
▁objekto	-10.3331
▁ekselente	-10.3331
▁%	-10.3333
▁dark	-10.3336
▁ayega	-10.3336
ba	-10.3338
▁strategy	-10.3339
▁gas	-10.3347
ii	-10.3351
▁entire	-10.3359
▁dollars	-10.3359
di	-10.3364
ry	-10.3367
▁window	-10.3374
▁regional	-10.3378
▁eskapo	-10.3382
▁thousand	-10.3388
▁vemos	-10.3398
▁perfekto	-10.34
▁matters	-10.3403
▁asentir	-10.3418
▁digas	-10.3419
▁mostrar	-10.3423
▁students	-10.3423
▁x	-10.3431
▁fault	-10.3433
▁despite	-10.3434
▁nuvelas	-10.3442
▁pensava	-10.3443
▁karga	-10.3443
▁mouth	-10.345
▁kiss	-10.3454
ismo	-10.3461
ble	-10.3467
▁dile	-10.3469
▁majority	-10.347
▁beyond	-10.3471
▁democracy	-10.3475
▁organizasion	-10.3481
▁complete	-10.3483
▁dangerous	-10.3484
▁paresia	-10.3488
▁lovely	-10.3491
▁apartamento	-10.3494
▁st	-10.3501
▁fostano	-10.3503
▁piesa	-10.3507
▁asamblea	-10.3507
▁excellent	-10.3514
by	-10.3521
▁costs	-10.3529
▁design	-10.3533
▁ambezar	-10.3534
▁pishin	-10.3536
▁reports	-10.3548
▁clothes	-10.3571
izo	-10.3577
▁increased	-10.3578
▁miembro	-10.3579
▁juisio	-10.3582
▁riko	-10.3584
▁minister	-10.3584
▁immediately	-10.3588
▁choice	-10.3592
▁supoza	-10.3594
▁con	-10.3604
▁pies	-10.3618
▁efektos	-10.3624
▁required	-10.3639
▁kapachi	-10.3639
▁hang	-10.3641
▁impossible	-10.3648
▁olvidar	-10.367
▁demokrasia	-10.3681
▁list	-10.3682
▁camara	-10.3689
▁busy	-10.3691
▁teniente	-10.3696
las	-10.3697
▁senyores	-10.3701
ran	-10.3706
ista	-10.3709
ku	-10.371
▁efforts	-10.3719
▁niveles	-10.3729
▁besides	-10.3732
▁aun	-10.3735
▁lavorando	-10.3737
▁estaria	-10.3745
▁mention	-10.3746
ce	-10.375
▁prevent	-10.3751
tion	-10.3755
▁susede	-10.3757
if	-10.3757
▁yamado	-10.376
▁response	-10.3762
ri	-10.3764
▁somewhere	-10.3764
▁perfect	-10.3767
▁arma	-10.3778
▁became	-10.3781
▁sal	-10.3785
▁included	-10.3791
▁democratic	-10.3792
▁river	-10.3793
ha	-10.3794
▁violensia	-10.3795
▁bear	-10.38
▁include	-10.3803
▁inisiativa	-10.3812
▁communication	-10.3817
▁publikos	-10.3831
▁fully	-10.3837
▁meant	-10.3842
▁reforma	-10.3842
▁build	-10.3844
▁presio	-10.3848
▁developing	-10.385
▁lieutenant	-10.3852
▁ring	-10.3854
▁shown	-10.3858
▁purpose	-10.387
▁joint	-10.3872
▁egzersis	-10.3876
est	-10.3883
▁avrir	-10.389
ados	-10.3895
▁dress	-10.3899
▁average	-10.39
▁wall	-10.3902
▁esforsos	-10.3905
▁karakter	-10.3905
▁relation	-10.3909
▁allowed	-10.3914
per	-10.3919
▁korrekto	-10.392
▁fransia	-10.3922
▁implementation	-10.3927
▁amount	-10.3927
il	-10.3932
▁capital	-10.3935
for	-10.3936
▁eksplika	-10.3939
▁apenas	-10.3945
▁salvo	-10.3958
▁africa	-10.3961
▁sekreto	-10.3963
▁ponte	-10.3967
▁clinical	-10.3971
▁akabar	-10.3973
▁violence	-10.3982
▁double	-10.3987
of	-10.3989
▁charge	-10.3991
▁tia	-10.4
▁duty	-10.4006
▁ride	-10.4022
▁prechizamente	-10.4026
▁declarasion	-10.4027
▁bought	-10.4032
▁maraviyoso	-10.4032
ist	-10.4033
▁eskrivir	-10.4036
▁tipos	-10.404
▁wear	-10.4047
▁truer	-10.4057
▁devias	-10.4059
▁condition	-10.4065
men	-10.4067
▁maksimo	-10.4067
▁planes	-10.4073
▁sena	-10.4073
▁puederias	-10.4076
▁tv	-10.4081
▁forgive	-10.4083
▁asuntos	-10.4086
▁terrivle	-10.4094
▁voluntad	-10.4108
▁hasn	-10.4108
▁sinyor	-10.4111
▁conference	-10.4113
▁intervension	-10.4121
fa	-10.4123
▁alegro	-10.4126
▁muchachos	-10.4126
▁teksto	-10.4131
▁konferensia	-10.4133
▁terminos	-10.4152
za	-10.4154
▁mirar	-10.4155
▁ball	-10.4159
▁derecha	-10.4174
▁pezgo	-10.4175
▁claramente	-10.4178
▁lamento	-10.4181
▁animals	-10.4182
▁eddie	-10.4185
▁appropriate	-10.4192
▁trip	-10.4194
▁filmo	-10.4195
▁ee	-10.4201
▁weren	-10.421
▁deep	-10.4227
▁spent	-10.4234
▁aktividad	-10.4236
▁sezon	-10.4241
▁konsekuensas	-10.4241
fe	-10.4247
▁spanish	-10.4249
▁luna	-10.4255
ah	-10.4257
▁effects	-10.4265
io	-10.4268
▁equal	-10.4272
▁mike	-10.4275
▁scared	-10.4277
▁michael	-10.4284
▁popular	-10.4292
▁amerika	-10.4294
▁yelado	-10.43
▁fell	-10.43
▁agreed	-10.4304
▁varias	-10.4305
▁kualkiera	-10.4308
▁fucking	-10.4312
artagnan	-10.4313
▁alma	-10.4314
▁siedra	-10.4314
▁proves	-10.4316
▁concerns	-10.4318
▁park	-10.4322
▁officer	-10.4323
▁pasando	-10.4329
▁ed	-10.433
▁caught	-10.4334
▁nick	-10.4335
▁frekuensia	-10.4342
▁demandi	-10.4348
▁mostra	-10.4357
▁topamos	-10.4358
▁lived	-10.4358
▁seemed	-10.4359
one	-10.4365
▁song	-10.4367
▁stick	-10.437
▁sounds	-10.4373
▁reported	-10.4373
▁lavoro	-10.4374
▁funds	-10.4375
▁asente	-10.4375
▁ben	-10.4376
▁peska	-10.4378
▁marriage	-10.4385
▁followed	-10.4386
▁size	-10.4386
ment	-10.4391
▁finish	-10.44
▁term	-10.4401
▁washington	-10.4413
adas	-10.4415
ation	-10.4417
ti	-10.4429
▁fundamentales	-10.443
▁passed	-10.4437
▁kontinuar	-10.4442
▁euros	-10.4449
▁irme	-10.445
▁reina	-10.4459
▁revision	-10.4465
sido	-10.4467
▁aktualmente	-10.4468
▁note	-10.447
▁pelo	-10.4471
▁prepared	-10.4478
▁eksterior	-10.4496
▁israel	-10.4505
▁established	-10.4525
▁plazen	-10.4528
▁jerry	-10.4538
▁box	-10.4539
▁proyektos	-10.4539
▁recently	-10.4541
▁kolorado	-10.4545
▁draw	-10.4546
com	-10.4551
▁fonksion	-10.4555
▁charles	-10.4561
▁prezenta	-10.4566
▁summit	-10.4572
▁meoyo	-10.4574
▁larga	-10.4576
▁unfortunately	-10.4584
▁ermoza	-10.4589
▁karrera	-10.4596
▁treser	-10.4601
▁percent	-10.4602
▁wake	-10.4609
▁doble	-10.461
▁rural	-10.4612
▁dezeya	-10.4612
don	-10.4613
▁demand	-10.4621
▁ministro	-10.4634
▁um	-10.4635
▁dizirlo	-10.464
▁nave	-10.4647
▁criminal	-10.4647
▁reached	-10.4651
▁provided	-10.4651
▁realize	-10.4657
▁asimismo	-10.4658
▁deseo	-10.467
▁delantre	-10.467
▁parties	-10.4671
▁diria	-10.4675
▁relations	-10.4682
▁avoid	-10.4684
▁cat	-10.4685
▁ira	-10.4691
▁alright	-10.4706
▁wind	-10.4707
▁responder	-10.471
▁cover	-10.4716
▁nesesarios	-10.4717
▁mente	-10.4719
▁tecnologia	-10.4721
▁aktuar	-10.4737
▁seas	-10.4753
▁negosios	-10.4754
▁tony	-10.4757
▁koronel	-10.4758
▁adonde	-10.4759
▁tales	-10.4759
▁aspects	-10.4764
▁judge	-10.4772
▁reino	-10.4775
▁kapital	-10.4779
▁botika	-10.4784
▁method	-10.4789
▁kazar	-10.4796
ido	-10.48
▁entreprisa	-10.4801
▁negosiasiones	-10.4804
ism	-10.4806
▁protedjer	-10.4819
izasion	-10.4829
▁kondision	-10.4833
▁tendrian	-10.484
▁estavas	-10.4841
▁preokupes	-10.4841
▁jane	-10.4848
▁moral	-10.4853
▁silensio	-10.4857
▁sinyal	-10.4858
▁arm	-10.4861
▁avion	-10.4864
▁orejas	-10.4865
▁press	-10.4868
▁kumbre	-10.4869
▁smart	-10.487
▁kurto	-10.4873
▁currently	-10.4878
▁previous	-10.4879
▁colonel	-10.4885
▁espesie	-10.4885
▁kargo	-10.489
▁usually	-10.4895
▁accident	-10.4896
▁empeso	-10.4898
▁referensia	-10.49
▁federal	-10.4908
▁record	-10.4911
▁enchikeser	-10.4913
po	-10.4915
▁rozas	-10.4923
▁observed	-10.4939
▁kazamiento	-10.494
▁pareser	-10.4941
▁basic	-10.4943
▁hat	-10.4944
▁ventana	-10.4951
▁speed	-10.4954
▁fix	-10.4959
▁soul	-10.496
▁asperava	-10.4972
she	-10.4972
▁science	-10.4975
▁saverlo	-10.4976
▁kumplir	-10.4979
▁university	-10.4982
▁sell	-10.4987
▁books	-10.5005
▁potential	-10.5008
▁esforso	-10.5012
ks	-10.5013
▁stopped	-10.5027
▁doc	-10.5031
▁prinsipales	-10.5032
▁funsiona	-10.5043
▁diferensyas	-10.5047
▁film	-10.5054
▁dimension	-10.5066
▁civil	-10.5068
▁embiar	-10.5068
▁tax	-10.507
▁mac	-10.5072
▁attack	-10.5073
▁procedures	-10.5077
▁dis	-10.5079
▁lunch	-10.5083
▁esperansa	-10.5084
▁pop	-10.5085
▁ca	-10.51
▁foto	-10.5101
▁santa	-10.5101
▁militar	-10.5102
▁aksidente	-10.5107
▁caused	-10.5108
▁vedradero	-10.5114
▁grado	-10.5116
▁mg	-10.5116
▁led	-10.5117
▁elementos	-10.5129
▁rezolver	-10.5133
▁okazion	-10.5136
▁kasha	-10.5139
▁gentleman	-10.514
▁talked	-10.5141
su	-10.5141
▁initiative	-10.5143
▁influence	-10.5145
▁entrada	-10.5146
▁created	-10.5148
▁komisaria	-10.5157
▁bio	-10.516
▁plans	-10.5163
▁program	-10.5164
▁construction	-10.5176
fuitesh	-10.5177
▁viejos	-10.5178
▁visita	-10.5183
▁expected	-10.519
▁aim	-10.5192
▁okupado	-10.5192
▁negotiations	-10.5193
esta	-10.5207
▁star	-10.521
▁estruktura	-10.5215
▁perikolozo	-10.5217
▁direct	-10.5223
▁komite	-10.5223
▁vash	-10.5225
▁london	-10.5226
▁text	-10.5228
▁tenian	-10.5234
▁cultural	-10.5238
▁odrenes	-10.524
▁robert	-10.5244
▁prinsipios	-10.5246
▁reality	-10.5249
▁lokal	-10.5251
ye	-10.5254
bo	-10.5259
▁achieved	-10.5268
▁pa	-10.5271
▁umana	-10.5277
▁culture	-10.5278
▁idiota	-10.5283
ina	-10.5296
▁christmas	-10.5301
nte	-10.5301
▁servir	-10.5305
▁broke	-10.532
▁entende	-10.5322
▁avokato	-10.5322
▁strength	-10.5323
▁deshe	-10.5324
che	-10.5331
▁bus	-10.5335
▁kullanear	-10.5343
▁raise	-10.5346
amos	-10.5352
▁wedding	-10.5359
▁korte	-10.5359
▁avre	-10.536
▁izimos	-10.5361
▁gato	-10.5363
▁siglo	-10.5364
▁tenyendo	-10.5368
▁fuerzas	-10.5368
▁grand	-10.5369
▁turkey	-10.5373
▁majesty	-10.5376
land	-10.538
▁konoses	-10.538
▁levin	-10.5382
▁komandante	-10.5391
▁projects	-10.5392
▁places	-10.5392
▁fly	-10.5406
▁enjoy	-10.541
kar	-10.5412
▁administrasion	-10.5414
▁objectives	-10.542
▁grow	-10.5423
▁pleased	-10.5435
fueron	-10.5435
▁metodo	-10.5448
less	-10.5459
▁wine	-10.5463
▁pedrida	-10.5469
▁tea	-10.5471
▁fighting	-10.5474
▁closed	-10.5477
▁direktor	-10.5485
▁estuvites	-10.5492
ito	-10.5493
▁honest	-10.5496
▁adoptar	-10.5501
▁livros	-10.5501
▁promised	-10.5505
▁kuantos	-10.5505
▁rock	-10.5508
▁nesesitan	-10.551
▁develop	-10.5513
▁reducsion	-10.5519
▁surprise	-10.5522
▁ways	-10.5523
▁duke	-10.5524
▁vieja	-10.5525
▁djenial	-10.5528
▁permiso	-10.5531
▁computer	-10.5531
▁bruido	-10.5537
fuimos	-10.5538
dje	-10.5544
▁afrika	-10.5546
▁pensas	-10.5549
▁worried	-10.555
ci	-10.5566
▁herself	-10.5572
▁super	-10.5572
ki	-10.5575
let	-10.5581
▁add	-10.5582
▁eur	-10.5587
▁direction	-10.5593
▁structure	-10.5594
chi	-10.5598
▁salvar	-10.5601
▁technical	-10.5605
▁daddy	-10.5608
▁march	-10.5612
▁komportamiento	-10.5612
▁bever	-10.5613
▁agenda	-10.5615
▁balance	-10.5623
▁sonya	-10.5625
▁dialogo	-10.5635
▁arrimar	-10.5635
▁search	-10.5635
ros	-10.5636
▁plane	-10.5643
▁standing	-10.5644
▁asasino	-10.5645
▁proposito	-10.5648
▁kontakto	-10.5654
▁external	-10.5658
▁entision	-10.5659
▁activity	-10.5663
▁zonas	-10.5668
▁direkto	-10.5671
▁obtained	-10.5671
▁gives	-10.5673
▁written	-10.5676
▁asia	-10.5677
▁discuss	-10.5678
▁tarea	-10.5679
▁forgot	-10.5679
▁dezeyo	-10.5681
▁maestro	-10.5683
▁greatest	-10.5684
▁movement	-10.5686
▁v	-10.5689
▁realizo	-10.5689
▁store	-10.5697
▁verte	-10.5704
vo	-10.5704
▁asosiasion	-10.571
cha	-10.5711
▁decide	-10.5711
▁investment	-10.5719
▁content	-10.5722
▁starting	-10.5725
▁blow	-10.5728
▁hardly	-10.5729
▁tough	-10.5733
▁events	-10.5734
▁prosedimientos	-10.5735
▁puedamos	-10.5738
▁ice	-10.574
▁governments	-10.5741
▁sita	-10.5748
this	-10.5752
▁topan	-10.5752
▁version	-10.5755
▁concerning	-10.5756
▁physical	-10.5757
▁frente	-10.576
▁majestad	-10.5766
▁huge	-10.5767
▁konsidera	-10.5769
▁learned	-10.577
▁sad	-10.5772
▁tokar	-10.5776
▁putting	-10.5777
▁arrived	-10.5778
▁cool	-10.5782
que	-10.5789
▁kriters	-10.5791
how	-10.5794
▁differences	-10.5804
ras	-10.5808
▁disenyo	-10.5814
▁built	-10.5815
▁aunt	-10.5819
▁bag	-10.5821
▁kolego	-10.5823
▁express	-10.5824
▁weight	-10.5832
▁proud	-10.5834
▁votasion	-10.5841
▁nesesitas	-10.5842
▁authority	-10.5842
▁aspere	-10.5855
▁standards	-10.5856
▁rise	-10.586
▁enorme	-10.5862
▁jimmy	-10.5863
▁kandidatos	-10.5866
dijo	-10.5867
▁espiritu	-10.5867
▁kompleto	-10.5869
vi	-10.5871
▁handle	-10.5871
▁tamanyo	-10.5872
▁statement	-10.588
▁danger	-10.5886
iko	-10.589
▁konsumo	-10.5894
▁queen	-10.5895
▁actions	-10.5897
▁vuestra	-10.5898
▁agradable	-10.5898
▁prechizo	-10.5904
▁arrest	-10.5906
▁effort	-10.5907
▁summer	-10.5909
para	-10.5915
▁fishing	-10.5916
▁izla	-10.5919
▁lugares	-10.5922
▁entendes	-10.5933
▁util	-10.5946
▁happening	-10.5946
▁capacity	-10.5952
▁church	-10.5956
▁task	-10.5958
▁billion	-10.5961
▁brown	-10.5966
▁understanding	-10.597
▁londres	-10.5974
▁ku	-10.5976
▁depende	-10.5982
dores	-10.5985
▁calm	-10.599
▁pais	-10.5992
▁discussion	-10.5995
ad	-10.5995
▁spirit	-10.5999
▁diagnostiko	-10.6002
▁oyo	-10.6007
at	-10.6009
▁absoluto	-10.6014
▁keras	-10.6015
▁guarantee	-10.602
▁tirar	-10.6028
▁criteria	-10.603
▁profesional	-10.6039
▁er	-10.6051
▁fat	-10.6052
▁vd	-10.6061
▁imediatamente	-10.6063
▁structural	-10.6066
▁heaven	-10.6067
▁konta	-10.6075
▁dialogue	-10.6077
▁responsable	-10.608
▁vital	-10.6087
term	-10.6092
▁request	-10.6095
▁preokupa	-10.6096
▁tuvimos	-10.61
▁reglas	-10.61
▁konsidero	-10.6102
▁throughout	-10.6104
▁rapidamente	-10.6105
jo	-10.6112
▁asegrar	-10.6126
▁chris	-10.6133
tiko	-10.6134
▁series	-10.6136
▁fresh	-10.6137
▁destino	-10.614
▁james	-10.6146
▁nevertheless	-10.6151
▁velosidad	-10.6151
▁orders	-10.6164
▁ishalla	-10.6171
▁factor	-10.6179
▁alegra	-10.6183
▁broken	-10.619
▁entra	-10.6192
▁agricultural	-10.6193
▁spain	-10.6194
rs	-10.6194
▁kantika	-10.6196
bye	-10.6201
▁baylar	-10.6208
▁pago	-10.6212
▁amiga	-10.6219
▁internasyonales	-10.6219
▁subir	-10.622
▁surgery	-10.622
▁representa	-10.622
▁temprano	-10.6221
▁establese	-10.6231
▁asesinato	-10.6237
▁espanya	-10.6244
▁raised	-10.6248
▁video	-10.6249
▁tratando	-10.6257
▁dichas	-10.6261
▁proper	-10.6271
▁hide	-10.6274
▁karakteristikas	-10.6275
▁suggest	-10.6282
▁glass	-10.6283
▁focus	-10.6283
▁principles	-10.6286
line	-10.6291
▁plenty	-10.6293
▁lukar	-10.6294
▁german	-10.6294
▁yelada	-10.6295
▁sight	-10.6295
▁estavamos	-10.6297
▁review	-10.6299
▁prison	-10.6308
▁noel	-10.6313
▁imaje	-10.6313
ji	-10.6317
▁pardon	-10.6319
▁oridjen	-10.632
▁fund	-10.6324
▁fit	-10.6327
▁kreia	-10.6328
▁wrote	-10.633
ir	-10.6334
▁moon	-10.6334
▁dyeron	-10.6337
▁conflict	-10.6341
▁quit	-10.6342
▁enter	-10.6355
▁pedron	-10.6358
uu	-10.6359
▁kolor	-10.636
▁twenty	-10.6363
▁calls	-10.6367
▁estuvyera	-10.6368
▁ogar	-10.6374
▁inkreible	-10.6375
▁ban	-10.6375
▁cry	-10.6377
▁ted	-10.6378
▁dando	-10.638
▁possibility	-10.6388
▁dicha	-10.6393
!"""	-10.6397
▁interesa	-10.6399
▁urban	-10.6403
▁propoze	-10.6404
▁suyo	-10.6405
▁played	-10.6411
▁kitty	-10.6413
▁receive	-10.6413
▁kontenido	-10.6417
▁carsel	-10.6418
▁papers	-10.6421
▁admit	-10.6427
▁konosido	-10.6428
▁tengan	-10.6429
▁industrial	-10.6435
▁venir	-10.6437
▁teach	-10.6442
▁applied	-10.6443
▁oral	-10.6444
▁suddenly	-10.6449
▁direktamente	-10.6452
▁nesesidades	-10.6457
▁benefit	-10.6465
▁chay	-10.6467
▁jean	-10.6472
▁flako	-10.6473
▁lying	-10.6477
▁organizasiones	-10.6478
▁tree	-10.6491
▁compared	-10.6492
▁dare	-10.6502
▁vyenen	-10.6511
▁lay	-10.6514
ion	-10.6518
▁mental	-10.6525
▁trans	-10.6529
▁chi	-10.6536
▁rusia	-10.6538
▁poverty	-10.6545
▁siensias	-10.6547
▁extra	-10.6558
▁century	-10.6569
▁nations	-10.6574
▁application	-10.6574
▁candidate	-10.6575
▁damage	-10.6577
▁banyo	-10.6582
▁kultura	-10.6586
▁mexico	-10.6592
▁directly	-10.6592
▁konsumidores	-10.6597
▁sex	-10.66
▁otherwise	-10.66
▁kartas	-10.6604
▁failure	-10.6611
▁fraguar	-10.6616
▁tuvyera	-10.6619
▁absolutamente	-10.6624
▁desire	-10.6627
▁aygan	-10.6627
▁staff	-10.6631
▁complex	-10.6632
▁speech	-10.6634
▁hazino	-10.6635
▁kuentas	-10.6638
▁nine	-10.6638
▁watching	-10.6642
▁tuyo	-10.6649
▁boston	-10.6649
▁konsepto	-10.6652
▁noise	-10.6665
ine	-10.6666
▁range	-10.6669
▁w	-10.6675
▁posibilidades	-10.6676
▁border	-10.668
▁pal	-10.6681
▁ex	-10.6683
▁konsiderar	-10.6684
▁scale	-10.6686
▁increasing	-10.6686
▁relativa	-10.669
▁medicine	-10.6699
▁kije	-10.67
▁inyervozo	-10.6702
▁susedyo	-10.6702
▁sivil	-10.6706
▁professional	-10.6712
▁terrorism	-10.6717
▁charsis	-10.6719
▁akaso	-10.6719
▁notice	-10.6719
▁ama	-10.6719
miento	-10.672
▁konstitue	-10.672
der	-10.6728
▁stone	-10.6733
▁pat	-10.6738
▁aumentar	-10.6743
▁ensenyar	-10.6743
▁milk	-10.6744
▁enfoke	-10.675
▁likely	-10.6752
▁umo	-10.6753
▁holding	-10.6753
▁moved	-10.6753
▁mision	-10.6754
▁voted	-10.6756
▁reduce	-10.6758
▁russia	-10.6762
▁usual	-10.6764
▁obviously	-10.6774
▁estabilidad	-10.6776
▁hall	-10.6787
▁mirando	-10.6792
▁aplikar	-10.6802
▁consumer	-10.6804
▁degree	-10.6809
▁presios	-10.6813
▁writing	-10.6827
▁performed	-10.6832
cause	-10.6833
▁drunk	-10.684
▁informes	-10.6841
▁circumstances	-10.6842
▁terrorismo	-10.6851
▁divertido	-10.6854
ey	-10.6856
▁preokupasion	-10.6857
▁department	-10.6859
▁manejo	-10.6864
▁base	-10.6864
▁triste	-10.6877
▁pobreza	-10.6884
▁orivle	-10.6886
▁impakto	-10.6886
▁eskuze	-10.6892
▁stability	-10.6894
▁planeta	-10.6899
▁shara	-10.6899
era	-10.6903
▁coat	-10.6905
▁etc	-10.6906
▁boda	-10.6909
▁growing	-10.691
▁administration	-10.691
▁laugh	-10.6914
▁anywhere	-10.692
▁tanta	-10.6922
▁awful	-10.6939
▁kedan	-10.694
▁swear	-10.6942
▁contact	-10.6944
▁ja	-10.6944
▁latin	-10.6961
▁evidente	-10.6963
▁commander	-10.6965
ida	-10.6966
▁kuidar	-10.6971
▁blame	-10.6972
▁distansia	-10.6986
▁sekso	-10.6988
▁performance	-10.6988
▁moreover	-10.699
▁useful	-10.699
▁senyoria	-10.6992
▁confidence	-10.6996
▁concrete	-10.6998
ita	-10.7
yendo	-10.7002
▁sorpresa	-10.7004
id	-10.7012
▁spot	-10.702
▁arte	-10.7023
▁nesesitar	-10.7027
▁secondly	-10.7029
▁abashar	-10.7029
▁raro	-10.7032
ho	-10.7038
▁bridge	-10.7039
▁pedri	-10.704
▁tuvyeron	-10.7046
▁komensar	-10.7049
▁johnny	-10.7055
▁smoke	-10.7056
▁understood	-10.7058
▁vine	-10.7061
▁hazinuraes	-10.7062
▁autoridad	-10.7062
▁propyos	-10.7062
▁ermozos	-10.7066
▁estudiar	-10.7067
▁establish	-10.707
▁jail	-10.707
▁toparon	-10.7078
asion	-10.708
▁intelijente	-10.7088
▁medisina	-10.7088
▁motor	-10.7096
▁apartment	-10.7097
▁akodras	-10.7097
▁england	-10.7103
▁ayege	-10.7105
▁apply	-10.7113
▁difikultades	-10.7117
▁bo	-10.7117
▁ones	-10.7119
▁meaning	-10.7121
▁lu	-10.7127
▁novia	-10.7128
▁inglaterra	-10.7131
ng	-10.7132
▁orozo	-10.7135
▁perfectly	-10.7137
▁jobs	-10.715
▁resistensia	-10.7152
▁silly	-10.7152
▁linda	-10.7153
▁konvension	-10.7157
▁sierta	-10.716
▁fuites	-10.7161
▁status	-10.7173
▁sombrero	-10.7176
all	-10.7177
▁desarroyar	-10.7182
▁meksiko	-10.7183
▁esa	-10.7183
▁earlier	-10.7187
▁ayudas	-10.7188
▁advice	-10.719
ste	-10.7191
▁rekonoser	-10.7198
▁planet	-10.72
▁shoes	-10.7205
▁commitment	-10.7208
▁loka	-10.7209
▁described	-10.7217
ika	-10.7229
zo	-10.7234
▁surprised	-10.7242
▁appear	-10.7242
▁jesus	-10.7243
▁charter	-10.7245
▁liked	-10.7247
▁dulse	-10.7251
▁probar	-10.7255
ler	-10.7259
▁kontinua	-10.726
▁ekonomikos	-10.7264
▁fase	-10.7264
con	-10.7267
▁challenge	-10.7291
▁teacher	-10.7292
▁rose	-10.7298
▁lavora	-10.7298
▁espanyol	-10.7301
▁arreglar	-10.7302
▁kayntor	-10.7302
▁elements	-10.7304
▁vyendo	-10.7305
▁hadn	-10.7315
▁instrumento	-10.7319
▁exist	-10.732
▁supe	-10.7323
▁epoka	-10.7324
▁prosesos	-10.7326
▁learning	-10.733
▁germany	-10.7335
▁regalo	-10.7337
▁breakfast	-10.7338
▁opening	-10.7338
▁evolusion	-10.7342
."	-10.7348
▁faktor	-10.735
▁machine	-10.7351
fi	-10.7353
▁consequences	-10.7358
▁konosi	-10.7359
▁marka	-10.7359
▁atake	-10.7361
▁participation	-10.7367
▁agan	-10.7371
▁dizirme	-10.7373
▁siguen	-10.7383
▁programmes	-10.7383
▁adesion	-10.7385
▁correct	-10.7387
▁british	-10.7389
▁dama	-10.7399
▁mejora	-10.74
▁vedre	-10.7404
▁du	-10.7409
year	-10.7411
▁markets	-10.7413
▁jo	-10.7415
▁vender	-10.7415
▁center	-10.7418
▁kayer	-10.7422
▁kreen	-10.7428
▁concept	-10.743
▁unido	-10.7432
▁bush	-10.7434
rio	-10.7439
▁toka	-10.744
▁kura	-10.7445
▁species	-10.7447
▁forever	-10.7449
ias	-10.7452
▁rain	-10.7458
▁teeth	-10.746
rme	-10.746
?""""	-10.7462
▁promedio	-10.7463
▁na	-10.7463
▁perspektiva	-10.7463
▁race	-10.7464
▁prinsipalmente	-10.7467
▁iran	-10.7468
▁rizikos	-10.7471
▁alemania	-10.7471
▁missing	-10.7472
▁produce	-10.7472
▁verme	-10.7474
▁rid	-10.7477
▁mando	-10.7479
▁slow	-10.748
▁remains	-10.7484
▁jurnal	-10.7485
▁expressed	-10.7485
ster	-10.7488
▁iraq	-10.749
▁mo	-10.7496
▁village	-10.75
ized	-10.7506
▁willing	-10.7507
▁neck	-10.7508
▁bayle	-10.7515
▁spoke	-10.7516
▁highly	-10.752
▁paresen	-10.7522
▁tabla	-10.7522
▁harry	-10.7531
▁negative	-10.7532
▁pedryo	-10.7535
▁kantar	-10.7537
▁push	-10.7541
▁aca	-10.7543
▁wild	-10.7545
▁entro	-10.7547
▁prefer	-10.7557
▁mismos	-10.7557
▁association	-10.7558
▁viktimas	-10.756
echo	-10.7564
▁forms	-10.7565
▁suya	-10.7574
▁turkia	-10.7575
▁sepa	-10.7581
▁unidas	-10.7585
▁ne	-10.7588
▁sustainable	-10.7588
▁mupak	-10.7593
▁tersera	-10.7593
▁connection	-10.7595
▁iglesia	-10.7596
▁algno	-10.7597
▁lt	-10.7599
▁eleksiones	-10.7603
▁rekere	-10.7606
▁salida	-10.7611
▁eksistensia	-10.7611
▁warm	-10.7612
▁zapatos	-10.7616
▁piano	-10.7619
gar	-10.7625
▁enverano	-10.7626
▁choose	-10.7629
▁climate	-10.7631
▁lies	-10.7635
▁item	-10.7636
▁affected	-10.7636
▁seriously	-10.7636
▁aprobasion	-10.7637
▁asperamos	-10.7652
▁bushka	-10.766
▁paga	-10.766
▁adopt	-10.7663
▁redjimen	-10.7666
▁modern	-10.7667
▁angry	-10.7681
fuistes	-10.7683
▁eating	-10.7683
▁tome	-10.7686
▁card	-10.769
▁produced	-10.7692
▁adjente	-10.7696
▁kodjer	-10.7699
▁congratulate	-10.7702
▁universal	-10.7705
▁edifisio	-10.7707
▁profesionales	-10.7707
▁chile	-10.7708
▁jonny	-10.7714
▁walking	-10.7718
▁igaldad	-10.7721
▁leche	-10.7722
▁zirugia	-10.7722
▁clave	-10.7731
▁pen	-10.774
▁forces	-10.7744
▁kosto	-10.7749
▁trial	-10.7752
▁bother	-10.7753
▁monitoring	-10.7753
▁demandarle	-10.776
▁closer	-10.776
▁alimentos	-10.7764
▁deshi	-10.7768
▁cancer	-10.7768
▁tommy	-10.7773
▁campo	-10.7775
▁existing	-10.7777
▁esten	-10.778
▁escape	-10.7791
▁limited	-10.7794
▁ideal	-10.7796
▁standard	-10.7796
▁blu	-10.7805
pi	-10.781
▁nasiones	-10.7814
▁ekspresion	-10.7814
▁hungry	-10.7817
▁winter	-10.7818
▁punta	-10.7829
▁komunitario	-10.7831
▁introduce	-10.7832
www	-10.7832
▁twice	-10.7832
▁apart	-10.7834
▁baron	-10.7834
▁furthermore	-10.7842
▁adekuado	-10.7842
▁sardjento	-10.7843
▁contribution	-10.7846
▁manner	-10.7846
▁stress	-10.7853
▁feed	-10.7855
▁propios	-10.7855
ize	-10.7856
▁sheriff	-10.7858
▁komersial	-10.7859
▁mueve	-10.7864
▁kalma	-10.7869
▁viento	-10.7869
▁reference	-10.7875
▁folks	-10.7876
▁estupido	-10.7876
▁vini	-10.7879
▁enkanta	-10.7879
▁roza	-10.7881
▁drugs	-10.7883
▁influensa	-10.7885
▁event	-10.7889
▁jump	-10.7896
▁beauty	-10.79
▁veyga	-10.79
▁agreements	-10.7901
ty	-10.7902
▁aluenga	-10.7914
kom	-10.7916
▁kasado	-10.7921
▁driving	-10.7922
▁esensial	-10.7926
▁measure	-10.7933
▁motivos	-10.7943
▁evidensia	-10.7945
tas	-10.7947
▁individuals	-10.7947
▁liberal	-10.7949
▁probable	-10.7958
▁naturally	-10.796
▁agrikultura	-10.796
▁teatro	-10.796
▁pedrido	-10.7966
▁famous	-10.7966
▁nearly	-10.7968
▁income	-10.7974
▁korre	-10.7975
▁tests	-10.7976
▁kupa	-10.7988
▁ambas	-10.8
▁guard	-10.8001
▁require	-10.8006
time	-10.8006
▁covered	-10.8012
▁preokupado	-10.8014
▁prensa	-10.8014
▁devil	-10.8014
▁monton	-10.8027
▁priority	-10.8032
▁owe	-10.8032
▁smit	-10.8036
▁ana	-10.8037
▁code	-10.8037
▁empesa	-10.8038
▁processes	-10.8039
▁haz	-10.8044
▁suit	-10.8051
://	-10.8055
▁forgotten	-10.8063
▁lokales	-10.8064
▁drug	-10.8069
▁trafiko	-10.8074
▁sold	-10.808
▁momentos	-10.8081
▁exchange	-10.8084
▁creation	-10.8085
ise	-10.8086
▁mass	-10.8091
▁original	-10.8092
▁eleksion	-10.8094
▁requires	-10.8099
▁doktoos	-10.8104
▁pleno	-10.8113
▁assessment	-10.8113
▁kuantas	-10.8113
▁detener	-10.8115
▁emergency	-10.8116
▁daily	-10.8116
▁arry	-10.8117
▁gay	-10.8119
▁missed	-10.8119
▁former	-10.8121
▁heavy	-10.8122
▁unidad	-10.8125
▁promote	-10.8126
▁krimen	-10.8128
▁braso	-10.8134
▁europeas	-10.8138
▁lots	-10.8138
▁weapons	-10.8141
▁perfektamente	-10.8143
▁integrasion	-10.8147
▁setting	-10.8149
▁satisfacsion	-10.815
▁yeno	-10.8159
▁oa	-10.8163
istas	-10.8167
▁ofrir	-10.8168
▁inmediato	-10.8169
▁dokumento	-10.8173
▁bi	-10.8176
▁planning	-10.8178
▁sky	-10.8179
▁ekseptado	-10.8181
▁konkreto	-10.8193
▁treated	-10.8194
▁helped	-10.8195
▁treat	-10.8198
▁sektores	-10.8205
▁smell	-10.8209
▁practical	-10.821
▁kedate	-10.821
▁finansiasion	-10.8211
▁partner	-10.8214
▁spring	-10.8215
▁bottle	-10.8216
▁smile	-10.8219
▁produkto	-10.8221
▁easily	-10.8224
▁operation	-10.8224
▁larry	-10.8224
▁primeros	-10.8225
▁happiness	-10.8227
▁pelea	-10.8228
▁committed	-10.8228
▁signal	-10.8228
office	-10.8232
▁felisidad	-10.8236
ner	-10.8238
▁regret	-10.8239
▁manka	-10.824
▁nuvela	-10.8248
▁firstly	-10.825
▁pekado	-10.8251
▁korso	-10.8253
▁adekuada	-10.8256
▁wearing	-10.8257
▁tiempos	-10.8258
▁named	-10.8265
▁becoming	-10.8265
▁dying	-10.8267
▁amenaza	-10.827
▁partisipar	-10.8271
▁parts	-10.8273
▁formal	-10.8273
▁berlin	-10.8273
▁kolaborasion	-10.8275
▁powers	-10.8275
pocos	-10.8276
▁methods	-10.8283
▁merese	-10.8288
▁lines	-10.8291
▁golpe	-10.8291
▁vedradera	-10.8293
▁behavior	-10.8293
▁families	-10.8294
▁sat	-10.8294
▁chair	-10.8295
▁instrument	-10.8298
▁belong	-10.8299
▁remind	-10.8308
▁fisheries	-10.8313
▁surely	-10.8314
▁opera	-10.8319
▁ability	-10.8319
▁beg	-10.8322
▁colombia	-10.8323
nes	-10.8326
▁akordos	-10.8327
▁komunes	-10.833
▁tino	-10.8332
▁killing	-10.8338
▁college	-10.8341
▁kostum	-10.8342
▁inisio	-10.8351
▁clinika	-10.8351
▁lawyer	-10.8351
▁returned	-10.8351
▁intenta	-10.8355
una	-10.8356
▁logro	-10.8364
▁kavayos	-10.837
▁possibly	-10.8372
▁materiales	-10.8374
▁product	-10.8379
▁dirty	-10.8381
imos	-10.8382
▁below	-10.8386
▁guilty	-10.8397
▁lock	-10.8399
▁tri	-10.8401
▁integration	-10.8401
▁evil	-10.8404
▁voto	-10.8406
▁serrar	-10.8413
▁saved	-10.8414
▁network	-10.8415
▁compromise	-10.8427
▁appreciate	-10.8428
▁puestos	-10.8435
▁characteristics	-10.8443
▁departamento	-10.8444
▁movie	-10.8444
▁sigua	-10.8448
▁ba	-10.8455
▁sako	-10.8455
▁konto	-10.8456
▁finding	-10.8457
▁shop	-10.8458
▁innocent	-10.8459
▁accepted	-10.8464
▁ray	-10.847
▁sergeant	-10.8471
tro	-10.8472
▁vide	-10.8473
▁sinema	-10.8473
▁abierta	-10.8477
bar	-10.8481
▁failed	-10.8482
▁metros	-10.8483
▁attempt	-10.8483
▁opened	-10.8491
▁skin	-10.8493
▁gastos	-10.8496
pre	-10.8502
▁bottom	-10.8503
▁critical	-10.8504
▁jeff	-10.8504
▁flowers	-10.8508
▁chinese	-10.8511
out	-10.8516
▁instrumentos	-10.8525
▁draft	-10.8525
min	-10.8526
▁labour	-10.8527
▁dokumentos	-10.8527
▁steps	-10.853
led	-10.8535
▁listening	-10.8537
▁opportunities	-10.8543
▁septiembre	-10.8543
▁oportunidades	-10.8543
▁votar	-10.8554
▁crucial	-10.8555
▁plant	-10.8557
▁wood	-10.8559
▁older	-10.8565
▁ande	-10.8572
▁sirkunstansias	-10.8574
▁bye	-10.8581
▁das	-10.8582
ous	-10.8582
▁assistance	-10.8583
▁li	-10.8583
▁fa	-10.8588
lin	-10.859
tal	-10.8592
▁saveslo	-10.8592
▁bodies	-10.8593
▁utilizasion	-10.8599
▁kompleta	-10.8602
▁advantage	-10.8604
▁thousands	-10.8604
▁keeping	-10.8605
▁dientes	-10.861
▁dick	-10.861
▁manage	-10.861
▁demostrar	-10.8615
can	-10.8616
▁egzamen	-10.8628
▁travel	-10.8628
ana	-10.863
▁surface	-10.8633
▁efikaz	-10.8641
▁finansieros	-10.8643
▁regulations	-10.8647
▁conclusion	-10.865
▁september	-10.8651
▁telephone	-10.8656
den	-10.8658
▁determine	-10.866
ies	-10.866
there	-10.8661
▁solia	-10.8662
▁pishkado	-10.8662
▁suffering	-10.8665
▁command	-10.8675
▁successful	-10.8678
▁tuya	-10.8679
▁relevant	-10.8681
tika	-10.8686
▁komenzo	-10.8692
▁meat	-10.8692
▁consumers	-10.8694
▁wide	-10.8697
au	-10.8697
▁credit	-10.8698
▁meldadura	-10.8704
▁replied	-10.8704
▁aktitud	-10.8705
▁traffic	-10.8706
▁rates	-10.8706
▁governos	-10.8707
▁section	-10.871
▁represent	-10.8719
▁redjional	-10.8719
▁muertos	-10.872
▁ganas	-10.8723
▁komunitaria	-10.8724
▁inspector	-10.8728
▁farmers	-10.8732
▁inversion	-10.8739
▁upset	-10.8741
▁debates	-10.8751
▁agriculture	-10.8753
▁forced	-10.8755
sia	-10.8756
tic	-10.8756
▁kayyo	-10.8766
▁yave	-10.8766
▁selo	-10.8768
gan	-10.8769
▁leading	-10.8776
▁alarm	-10.8779
▁additional	-10.8781
ful	-10.8781
▁brasos	-10.8791
▁chan	-10.8791
▁meti	-10.8793
▁ekspresar	-10.8793
▁independent	-10.8796
▁vaygas	-10.88
▁canser	-10.88
▁yaman	-10.8801
▁document	-10.8801
▁harm	-10.8801
mar	-10.8801
old	-10.8807
they	-10.8817
▁spread	-10.8821
▁block	-10.8823
▁faith	-10.8824
▁kolombia	-10.8825
▁veygamos	-10.8826
▁broad	-10.8827
▁bringing	-10.8832
▁risks	-10.8834
▁modos	-10.8843
▁mainly	-10.8845
▁character	-10.8846
▁asentes	-10.8848
▁totally	-10.885
▁segramente	-10.8851
▁morgan	-10.8868
▁blind	-10.8868
▁prision	-10.8869
▁leaders	-10.8871
▁konsensya	-10.8872
▁feelings	-10.8872
day	-10.8874
▁alkanse	-10.8876
▁memory	-10.8876
▁gramama	-10.8884
▁mono	-10.8885
▁prince	-10.8889
▁limit	-10.889
▁victims	-10.8895
▁beer	-10.8898
▁ingresos	-10.8901
▁granpapa	-10.8904
ier	-10.8908
▁fr	-10.8909
▁patron	-10.8915
▁placed	-10.8919
vamos	-10.8919
▁tasa	-10.8921
▁finansiera	-10.8923
▁bira	-10.8928
▁superfisie	-10.8933
▁desidir	-10.8934
▁worst	-10.8938
▁leader	-10.8939
▁battle	-10.8941
ization	-10.8942
▁korea	-10.8942
um	-10.8943
▁labor	-10.8945
▁evaluation	-10.8952
ndose	-10.8952
▁seat	-10.8952
▁benefisios	-10.8954
▁extent	-10.8955
▁square	-10.8958
▁active	-10.8961
▁transparensia	-10.8963
▁designed	-10.8964
▁puta	-10.8965
▁ho	-10.8968
▁japon	-10.8968
▁yevava	-10.8969
▁makina	-10.897
▁considering	-10.897
▁cell	-10.8972
▁com	-10.8975
▁nervous	-10.8976
▁mountain	-10.8979
▁contrary	-10.898
▁arbol	-10.8982
▁distintos	-10.8984
▁added	-10.8987
▁object	-10.8987
▁birthday	-10.9005
▁bay	-10.9013
▁empty	-10.9018
ber	-10.9026
▁pasada	-10.9027
▁kreemos	-10.9031
▁fuimos	-10.9036
▁teoriya	-10.9043
off	-10.9044
▁laid	-10.9047
▁beyeza	-10.9047
▁theory	-10.9048
▁camp	-10.9051
▁pictures	-10.9053
▁function	-10.9056
▁drinking	-10.9057
▁causes	-10.9059
▁mission	-10.9062
▁kontrato	-10.9064
▁repeat	-10.9065
▁leyes	-10.9065
▁defence	-10.9068
▁abandonar	-10.9077
▁enemy	-10.9077
▁shaka	-10.9079
▁dejeme	-10.9081
!""""	-10.9088
▁kayente	-10.9088
▁avlamos	-10.9089
▁stories	-10.9089
▁sensible	-10.9097
▁prime	-10.9098
▁debt	-10.9101
▁disposision	-10.9112
▁apuesto	-10.9114
▁djenerales	-10.9118
▁ce	-10.9118
▁medium	-10.9119
ff	-10.9119
▁respekta	-10.9123
▁japan	-10.9123
▁prefero	-10.9124
▁pon	-10.9128
▁redes	-10.913
▁verle	-10.9134
▁colleagues	-10.9135
▁published	-10.9135
▁piel	-10.9138
▁cash	-10.9145
▁limite	-10.9151
▁pete	-10.9152
▁vidas	-10.9153
▁korrer	-10.916
▁precisely	-10.916
et	-10.916
▁toward	-10.9163
▁diagnosis	-10.9163
izimos	-10.9169
▁determined	-10.9169
▁powerful	-10.9175
▁defined	-10.9176
▁shape	-10.9179
▁division	-10.9179
talks	-10.9183
▁joke	-10.9188
▁determinar	-10.9188
▁regards	-10.9198
▁conducted	-10.9199
ek	-10.9199
▁weather	-10.9202
▁agradesko	-10.9204
▁propose	-10.9204
▁sivdades	-10.9208
djer	-10.9209
▁praktikas	-10.921
▁espalda	-10.9211
▁prodi	-10.9212
▁reduction	-10.9216
▁fred	-10.9221
▁inspektor	-10.9223
▁tira	-10.9226
▁metodos	-10.9228
ck	-10.9228
▁metyendo	-10.9231
▁nursing	-10.9234
▁kodo	-10.9236
▁sostenible	-10.9243
▁initial	-10.9245
▁sufisientemente	-10.9245
why	-10.9247
▁troko	-10.9247
▁korresponde	-10.9251
▁bone	-10.9253
▁sientate	-10.9253
▁ekilibrio	-10.9255
▁diskutir	-10.9256
▁inclusion	-10.9256
▁televizyon	-10.9257
▁virus	-10.9257
▁molesta	-10.926
▁manziya	-10.9268
▁source	-10.9271
▁akto	-10.9282
▁student	-10.9285
▁kontrolar	-10.9287
ken	-10.9287
▁pistola	-10.9288
▁mirada	-10.9293
▁signed	-10.9298
▁upstairs	-10.9299
▁miren	-10.9302
▁konflikto	-10.9305
▁vuestro	-10.9312
▁bushkida	-10.9313
dr	-10.9313
▁kulpable	-10.9317
▁fortune	-10.932
▁sample	-10.9329
▁prezentan	-10.9331
▁ojo	-10.9333
▁strike	-10.9334
▁prepare	-10.9343
▁picked	-10.9349
▁farm	-10.9349
▁henry	-10.935
▁perspective	-10.9351
▁kijo	-10.9353
dy	-10.9355
▁cup	-10.9358
▁intervention	-10.9362
▁avle	-10.9362
▁sentimientos	-10.9362
▁entero	-10.9366
▁austria	-10.9371
▁heads	-10.9373
▁julie	-10.9374
▁cm	-10.9374
▁azerse	-10.9376
▁luvya	-10.9378
▁overall	-10.9382
▁guidelines	-10.9384
▁implement	-10.9384
▁female	-10.9389
▁enfirmeria	-10.939
▁rekonosimiento	-10.939
▁carefully	-10.939
▁path	-10.9392
▁frontieras	-10.9394
▁requirements	-10.9395
▁specifically	-10.9403
▁sesion	-10.9406
▁blanka	-10.9406
▁hearing	-10.9416
mas	-10.9416
▁expression	-10.9416
▁yevan	-10.9416
▁distribusion	-10.9417
▁parar	-10.942
▁okaziones	-10.9422
▁horses	-10.9428
▁ekstra	-10.9432
▁konveniente	-10.9432
▁paresyo	-10.9433
▁aparejar	-10.9437
▁prevension	-10.9438
▁darme	-10.944
▁mister	-10.9444
▁tecnika	-10.9446
▁damas	-10.9447
du	-10.945
isar	-10.9451
ate	-10.9451
▁everywhere	-10.9457
▁felisitar	-10.946
▁estilo	-10.9461
▁que	-10.9461
▁official	-10.9461
▁entirely	-10.9464
▁abrigo	-10.9464
▁resientemente	-10.9465
▁destroy	-10.9467
▁appears	-10.9467
▁june	-10.9468
▁kedarme	-10.9474
▁motion	-10.948
▁kosovo	-10.949
▁distribution	-10.9491
age	-10.9492
▁mess	-10.9494
▁dale	-10.9497
▁creating	-10.9506
▁defend	-10.9511
pro	-10.9512
im	-10.9513
▁knowing	-10.9518
▁espektakolo	-10.9521
▁instance	-10.9524
▁fuera	-10.9529
▁cop	-10.953
▁veras	-10.9532
▁niza	-10.9536
▁consumption	-10.9536
▁orkestra	-10.9538
▁grateful	-10.9539
▁turning	-10.954
▁ivan	-10.954
▁grant	-10.9542
▁italian	-10.9548
▁primary	-10.9552
lar	-10.9556
▁kedarse	-10.9557
▁western	-10.9557
▁yeve	-10.9558
▁snow	-10.9558
▁instruments	-10.9564
▁italia	-10.9565
▁distance	-10.9569
▁leg	-10.9582
tiva	-10.9587
▁materials	-10.9589
▁thou	-10.9589
▁diskurso	-10.9592
ven	-10.9593
clock	-10.9594
ur	-10.9594
.""""	-10.9595
▁funding	-10.9602
▁fixed	-10.9603
▁propiedad	-10.9603
▁tomas	-10.9606
▁soldados	-10.9612
wood	-10.9615
▁lesion	-10.9619
▁illegal	-10.9621
▁stock	-10.9622
▁variable	-10.9631
▁budgetary	-10.9632
▁krea	-10.9633
▁biven	-10.9633
▁tenias	-10.9639
▁amplia	-10.9641
▁konformidad	-10.9641
▁korriente	-10.9642
djen	-10.9644
▁approved	-10.9647
▁siguros	-10.9648
▁segimiento	-10.965
hi	-10.9653
▁managed	-10.9654
▁lineas	-10.9656
▁grasioso	-10.9659
▁pedrone	-10.9663
▁bart	-10.9664
▁exercise	-10.9668
▁cap	-10.9668
▁famiyas	-10.967
▁deuda	-10.967
▁louis	-10.9681
▁okupar	-10.9681
▁graves	-10.9683
▁staying	-10.9684
▁grab	-10.9684
▁easier	-10.9686
▁identified	-10.9686
tra	-10.9686
▁supply	-10.9691
▁modelos	-10.9693
▁discussed	-10.9696
▁holy	-10.9699
▁pack	-10.9702
▁cook	-10.9703
▁seek	-10.9708
▁bud	-10.971
▁kansado	-10.971
▁rekuperar	-10.9711
▁kontribuir	-10.9711
▁implemented	-10.9712
▁ekonomikas	-10.9723
▁abierto	-10.9723
▁pe	-10.9724
▁oja	-10.9725
▁dispuesto	-10.9737
▁rekor	-10.9745
▁igalmente	-10.9748
▁dealing	-10.9751
▁cells	-10.9754
▁legislative	-10.9755
▁privado	-10.9756
▁afford	-10.9758
▁dave	-10.9761
▁refero	-10.9762
ales	-10.9763
dji	-10.9767
▁fuente	-10.977
▁demostra	-10.9772
▁avlas	-10.9777
▁kuras	-10.9778
▁asleep	-10.9779
▁felizes	-10.978
▁gadria	-10.9781
▁recognize	-10.9783
▁amplio	-10.9789
▁goal	-10.979
▁fotos	-10.9792
q	-10.9794
▁letters	-10.9795
▁band	-10.9796
▁surgical	-10.9799
▁kijote	-10.9801
▁asentia	-10.9802
izyeron	-10.9803
▁thinks	-10.9804
▁corner	-10.9805
▁firme	-10.9807
izites	-10.9807
▁immigration	-10.9812
▁burn	-10.9812
▁truly	-10.9813
▁koodrinasion	-10.9813
fu	-10.9816
▁milyon	-10.9819
▁prices	-10.9819
▁kitchen	-10.9821
▁susan	-10.9829
▁property	-10.9831
▁sa	-10.9839
▁senyalar	-10.9847
▁studied	-10.9848
tor	-10.9849
▁intend	-10.9854
▁evaluar	-10.9854
▁demands	-10.9854
▁impresion	-10.9857
▁quixote	-10.9858
▁enemigo	-10.9861
▁kick	-10.9862
▁volar	-10.9862
izitesh	-10.9863
▁dry	-10.9864
▁match	-10.9866
way	-10.9869
cho	-10.9871
▁impuestos	-10.9876
▁dates	-10.9883
▁consideration	-10.9886
▁benefits	-10.9886
▁types	-10.9886
como	-10.9887
san	-10.9888
▁kritika	-10.9891
▁soft	-10.9893
▁inkremento	-10.9894
▁organisations	-10.9896
▁definision	-10.9896
▁urgent	-10.9898
▁oya	-10.9898
▁enable	-10.9903
▁stuck	-10.9903
▁aktuales	-10.9903
▁visitar	-10.9911
▁sentado	-10.9914
▁kave	-10.9916
▁operasion	-10.992
▁kultural	-10.9921
▁roma	-10.9922
▁republika	-10.9926
▁guerta	-10.9927
▁revista	-10.9927
bi	-10.993
▁celulas	-10.9932
▁career	-10.9934
▁entendido	-10.9934
▁karl	-10.9943
gi	-10.995
▁ejekusion	-10.9956
▁politics	-10.9959
▁taksi	-10.9963
▁oo	-10.9968
▁convinced	-10.9969
▁continued	-10.9973
▁tantas	-10.9974
▁listos	-10.9979
▁maintain	-10.9979
▁communities	-10.9986
iza	-10.9987
▁merely	-10.9987
des	-10.9988
▁unit	-10.9988
▁models	-10.9989
▁highest	-10.9989
iamos	-10.9992
▁je	-10.9993
▁pension	-10.9996
▁midi	-10.9997
▁oferta	-11.0002
▁intended	-11.0004
▁implika	-11.0004
▁distintas	-11.0006
▁reduced	-11.0006
▁fig	-11.0012
▁artikolos	-11.0019
▁desk	-11.0019
▁informed	-11.0021
▁konfiar	-11.0023
▁estreya	-11.0024
▁legs	-11.0026
▁kingdom	-11.0028
asi	-11.0031
▁commercial	-11.0035
▁taste	-11.004
▁offered	-11.0042
▁diavlos	-11.0042
▁laboral	-11.0046
▁conduct	-11.0049
▁kome	-11.0056
▁alternative	-11.0058
▁thomas	-11.0064
▁secretary	-11.007
▁male	-11.0071
▁investigasiones	-11.0072
▁regreso	-11.0074
▁cayate	-11.0077
▁leaves	-11.0085
▁laws	-11.0089
▁asenti	-11.009
▁tomando	-11.0092
▁bodro	-11.0093
mer	-11.0096
▁stood	-11.0102
▁desidyo	-11.0102
▁plenamente	-11.0103
▁coast	-11.0106
▁siya	-11.0111
▁diseases	-11.0117
▁shame	-11.012
▁difficulties	-11.0122
▁personally	-11.0125
▁avagar	-11.0126
▁inutil	-11.0131
▁kede	-11.0132
▁azerle	-11.0134
▁inmigrasion	-11.0135
▁desiembre	-11.0135
▁courage	-11.0136
▁eksplia	-11.0145
not	-11.0146
▁considerable	-11.0146
▁laboratorio	-11.0148
▁djuro	-11.0149
▁oites	-11.0151
▁becomes	-11.0152
ez	-11.0153
▁russian	-11.0155
▁provisions	-11.0156
▁djenero	-11.0163
▁rome	-11.0179
▁partners	-11.0182
▁documents	-11.019
▁december	-11.0193
▁rikos	-11.0194
▁aproksimativa	-11.0196
▁kuales	-11.0198
▁segndos	-11.02
▁map	-11.0203
▁sunday	-11.0206
▁elevo	-11.0209
▁wise	-11.0212
▁acting	-11.0214
▁asistensia	-11.0219
▁po	-11.0225
▁garden	-11.0227
▁institutional	-11.0231
▁inisiativas	-11.0234
▁reformas	-11.0239
▁konduzir	-11.0239
▁proof	-11.0239
▁weak	-11.0246
▁finansiero	-11.0249
▁ermanos	-11.025
▁truyo	-11.0258
▁ta	-11.0259
▁autores	-11.026
▁gee	-11.0261
▁trees	-11.0261
▁vaygan	-11.0263
▁lokura	-11.0266
▁depends	-11.0266
▁ocean	-11.0266
▁technique	-11.0273
▁opsion	-11.0275
▁bird	-11.0277
▁danny	-11.0278
▁italy	-11.0278
▁gano	-11.0283
▁shena	-11.0286
▁walked	-11.0286
▁asylum	-11.0291
▁santo	-11.0292
yera	-11.0295
▁suffer	-11.0303
▁tabled	-11.0305
▁showing	-11.0305
▁transparency	-11.0305
▁veinte	-11.0306
▁figures	-11.0307
▁fu	-11.031
▁cousin	-11.0312
▁mostro	-11.0312
▁efikasia	-11.0315
▁funsionamiento	-11.0315
▁sube	-11.0316
▁paseo	-11.0319
▁defender	-11.0321
▁loves	-11.0323
▁posta	-11.0328
▁alegriya	-11.0329
▁repuestas	-11.0332
▁plano	-11.0333
▁buz	-11.0334
▁gana	-11.0335
▁afekta	-11.0337
▁banks	-11.034
▁bitch	-11.0346
▁konkluzion	-11.0347
▁bala	-11.0349
▁ph	-11.035
▁eskapa	-11.035
aron	-11.0351
▁unikamente	-11.0355
▁situasiones	-11.036
▁vamonos	-11.0361
▁metas	-11.0364
▁flat	-11.0367
▁torni	-11.0368
ese	-11.0368
▁baja	-11.0368
ger	-11.0369
▁sugar	-11.037
▁director	-11.037
dia	-11.0374
▁avyo	-11.0377
▁akeyas	-11.0384
▁konkluziones	-11.0384
▁silver	-11.039
▁wishes	-11.0393
▁supported	-11.0399
▁adentro	-11.0399
▁trago	-11.04
▁image	-11.0408
▁initiatives	-11.0409
▁length	-11.041
▁obvious	-11.0414
▁ekivokado	-11.0415
▁kar	-11.0417
▁lisa	-11.0418
▁amazing	-11.0426
▁dancing	-11.0426
▁knife	-11.043
▁chanta	-11.0435
▁ayegi	-11.0437
▁uniform	-11.0439
▁yorar	-11.044
▁formula	-11.0443
▁limites	-11.0444
ero	-11.0447
▁complications	-11.0447
▁benefisio	-11.0452
▁fill	-11.0455
▁properly	-11.0458
▁pedro	-11.046
▁target	-11.046
▁tiro	-11.0461
▁scene	-11.0463
▁em	-11.0463
▁investigation	-11.0463
▁ausensia	-11.0464
▁kereria	-11.0466
▁diversos	-11.0466
▁relativo	-11.0468
▁tengas	-11.0469
▁cities	-11.048
▁detalyoes	-11.0483
▁deshes	-11.0484
▁relasionados	-11.0485
▁yame	-11.0486
▁konfliktos	-11.0493
▁resiente	-11.0494
▁believed	-11.0495
▁regular	-11.0496
▁diario	-11.0497
▁shock	-11.0502
▁konvertir	-11.0506
▁eksteriores	-11.0506
vido	-11.0506
▁salon	-11.0506
▁oriente	-11.051
▁practices	-11.0512
▁phase	-11.0513
▁vronsky	-11.0518
▁birth	-11.0518
▁tension	-11.0522
▁oido	-11.0523
▁multi	-11.0524
▁spending	-11.0526
▁rapid	-11.0529
bra	-11.0529
▁asistir	-11.053
▁agent	-11.0531
▁crew	-11.0532
▁taught	-11.0532
este	-11.0533
▁uza	-11.0534
▁stated	-11.054
▁nurse	-11.0541
▁campaign	-11.0542
▁affect	-11.0544
▁gang	-11.0547
▁basura	-11.0552
▁ruego	-11.0553
▁lindo	-11.0553
▁julio	-11.0557
▁nose	-11.056
▁track	-11.0561
vyeron	-11.0561
▁sigientes	-11.0562
▁heat	-11.0562
▁steal	-11.0563
▁idiot	-11.0566
▁pedra	-11.057
▁uds	-11.0571
who	-11.0572
▁flying	-11.0573
ant	-11.0575
▁solve	-11.0575
▁uzando	-11.0577
▁fabrika	-11.0579
▁inosente	-11.0582
▁dreams	-11.0585
▁asilo	-11.0588
▁dosis	-11.059
▁watson	-11.0591
▁contract	-11.0591
▁eksaminar	-11.0591
▁teniamos	-11.0599
▁introduced	-11.0601
▁lise	-11.0602
▁ayegaron	-11.0604
▁territory	-11.0606
▁potensial	-11.0607
▁dura	-11.061
▁prevention	-11.0611
▁intentando	-11.0613
▁identifikar	-11.0615
▁elemento	-11.0615
▁kaminar	-11.0619
▁anne	-11.0621
▁kazarse	-11.0625
▁attitude	-11.0627
..."""	-11.0629
▁altura	-11.0632
▁amar	-11.0633
▁bokal	-11.0635
▁luses	-11.0636
▁identify	-11.0636
▁seres	-11.0639
▁fail	-11.064
▁crying	-11.0642
▁disposisiones	-11.0643
▁helping	-11.0645
▁suma	-11.0645
▁authors	-11.0646
▁brasil	-11.065
▁emerdjensia	-11.0652
▁transfer	-11.0652
▁verguenza	-11.0657
▁pretende	-11.0658
▁cheap	-11.0658
▁gasto	-11.0658
tan	-11.0659
▁clark	-11.0661
▁aniversaryo	-11.067
▁partikularmente	-11.0671
▁ju	-11.0673
▁generally	-11.0674
▁insurance	-11.0675
▁noticed	-11.0677
▁bound	-11.0679
▁soldiers	-11.068
▁witness	-11.068
▁youth	-11.0681
▁funeral	-11.0685
▁eskuro	-11.0687
▁palasio	-11.069
▁carrying	-11.0695
▁permita	-11.0696
rri	-11.0696
ze	-11.0698
▁sand	-11.0716
▁izyera	-11.0716
▁adjentes	-11.072
▁estrukturas	-11.0721
▁agradeser	-11.0722
▁cops	-11.0723
▁inferior	-11.0724
▁coordination	-11.0725
▁existence	-11.0725
▁kidding	-11.0725
▁komplikasiones	-11.0726
▁refer	-11.0728
▁beach	-11.0728
▁bread	-11.0729
ul	-11.0731
▁aguas	-11.0731
▁discovered	-11.0732
▁indisio	-11.0732
▁romper	-11.0733
▁pity	-11.0737
▁estrukturales	-11.0739
▁soldado	-11.0742
▁pakete	-11.0742
▁pensamos	-11.0747
▁dressed	-11.0749
▁preokupe	-11.0752
▁favorite	-11.0753
yeron	-11.0753
▁traditional	-11.0755
▁guns	-11.0755
huenyos	-11.0755
▁bat	-11.0756
▁buck	-11.0757
▁enry	-11.0761
▁temperatura	-11.0773
▁seconds	-11.0773
▁improvement	-11.0773
vide	-11.0777
▁enkantado	-11.0778
▁define	-11.0778
▁pocas	-11.0779
▁fortuna	-11.0784
▁temperature	-11.0784
▁institution	-11.0785
▁mayo	-11.0785
▁kerias	-11.0785
▁yena	-11.0789
▁estupendo	-11.0789
▁conclusions	-11.0791
sin	-11.08
▁digame	-11.08
▁web	-11.0807
▁firm	-11.0807
▁release	-11.0807
▁institusion	-11.0813
▁silence	-11.0813
▁elijir	-11.0817
▁healthy	-11.0818
▁demonios	-11.0818
ay	-11.0826
▁pig	-11.0833
▁conversation	-11.0834
▁republic	-11.0841
▁olvido	-11.0845
bles	-11.0845
▁kontinuasion	-11.0846
▁sufficient	-11.0847
▁prens	-11.0847
▁funsionar	-11.0851
▁tratados	-11.0853
▁sientifikos	-11.0854
▁termino	-11.0854
▁petrolio	-11.0855
▁enamorado	-11.086
▁definition	-11.0862
▁load	-11.0863
▁sensasion	-11.0864
▁expensive	-11.0865
▁lesones	-11.0867
▁diavlo	-11.087
▁komunidades	-11.0872
▁drawing	-11.0873
▁""""""""	-11.0876
▁namely	-11.0877
▁selebrar	-11.0877
▁trick	-11.0877
▁avansar	-11.0878
▁allows	-11.0878
siones	-11.0883
▁threat	-11.0883
▁sleeping	-11.0885
▁teknisyen	-11.0885
▁knock	-11.0885
▁inkluir	-11.0885
▁siertamente	-11.0898
▁annual	-11.09
▁contribute	-11.0904
par	-11.0907
▁devyo	-11.091
rd	-11.0911
▁upper	-11.0911
▁avli	-11.0912
▁dole	-11.0915
▁drogas	-11.0916
▁kompartir	-11.0919
▁akonteser	-11.092
▁averlo	-11.0924
▁maraviyoza	-11.0926
▁respond	-11.0928
▁severe	-11.0931
▁biggest	-11.0936
▁kompanyero	-11.0942
▁ireland	-11.0947
▁agency	-11.0956
▁km	-11.096
▁kliente	-11.0962
nse	-11.0964
▁relax	-11.0966
her	-11.0968
▁alimentaria	-11.0969
▁deskuvrir	-11.0982
▁informar	-11.0985
▁mostran	-11.0986
▁structures	-11.0988
▁hole	-11.099
▁ministros	-11.0993
▁konsumidor	-11.0993
▁representantes	-11.0993
▁tope	-11.0995
▁combat	-11.1006
▁porsentaje	-11.1009
▁package	-11.101
▁honour	-11.1013
▁iron	-11.1013
▁changing	-11.1013
▁batalia	-11.1014
bueno	-11.1018
fer	-11.1025
ary	-11.1029
▁gender	-11.103
▁konsulta	-11.1033
▁abodrar	-11.1035
▁literature	-11.1038
▁sosio	-11.1039
▁serra	-11.1046
▁breve	-11.1054
ish	-11.1055
▁minores	-11.1057
ante	-11.1058
▁juan	-11.1061
▁posivles	-11.1062
▁capable	-11.1064
kas	-11.1067
▁indika	-11.1068
▁nariz	-11.1069
▁tomi	-11.107
▁mensionar	-11.1072
head	-11.1074
▁evidentemente	-11.1076
▁maximum	-11.1084
▁oeste	-11.1092
▁tie	-11.1092
▁providing	-11.1095
▁referred	-11.1095
▁pachas	-11.1097
▁flota	-11.1097
▁entered	-11.11
▁puevlos	-11.1107
▁sosh	-11.1108
▁moneda	-11.1108
▁ga	-11.1109
▁brand	-11.1113
▁essenario	-11.1113
vimos	-11.1115
▁organisation	-11.1116
▁konvertyo	-11.112
▁perros	-11.1123
▁agrikola	-11.1124
▁pared	-11.1127
▁gapa	-11.1128
▁resistance	-11.1131
▁pertenese	-11.1136
▁intra	-11.1136
▁christian	-11.1137
▁millions	-11.1139
just	-11.1141
▁kayes	-11.1142
▁razonable	-11.1148
▁ticket	-11.1151
▁driver	-11.1152
▁komersiales	-11.1156
ren	-11.1157
▁observar	-11.116
▁montanya	-11.1161
▁inversiones	-11.1165
▁reacsion	-11.1166
▁kampanya	-11.1166
▁inklue	-11.1169
cy	-11.1177
▁settle	-11.1177
▁pointed	-11.1178
▁aspect	-11.118
▁prestar	-11.1183
▁pretend	-11.1185
▁lois	-11.1187
▁vakansas	-11.1188
▁paying	-11.1196
▁pasos	-11.1198
▁indian	-11.1198
▁sensitive	-11.1199
▁konsiste	-11.1202
▁prioridad	-11.1202
▁invited	-11.1203
▁cards	-11.1212
▁konversasion	-11.1213
▁regime	-11.1213
▁realizado	-11.1218
▁voting	-11.1219
▁increasingly	-11.1223
▁elections	-11.1224
▁ganado	-11.1227
▁marie	-11.1228
▁equipment	-11.123
▁television	-11.123
▁vesinos	-11.1231
▁origin	-11.1235
nd	-11.1235
▁joy	-11.1238
izing	-11.1238
▁propozo	-11.124
▁ra	-11.1243
▁clima	-11.1245
▁siertas	-11.1246
ac	-11.1254
▁permiten	-11.1255
▁representatives	-11.1259
▁mismas	-11.1265
▁tabako	-11.1267
▁eskrivyo	-11.1268
▁insist	-11.1268
ser	-11.1268
ring	-11.1272
▁piedra	-11.1274
▁von	-11.1274
▁oyi	-11.1276
▁sientifiko	-11.1277
▁provides	-11.1278
▁aktualidad	-11.1278
▁desidi	-11.1282
▁muerta	-11.1283
are	-11.1284
▁vengo	-11.1287
▁novio	-11.1289
▁frontiera	-11.129
▁garganta	-11.1293
▁chamber	-11.1295
▁istorias	-11.1298
▁intention	-11.1303
▁mustn	-11.1306
ally	-11.1308
▁fenomeno	-11.131
▁observasion	-11.1321
▁truck	-11.1322
▁estuvyeron	-11.1323
▁ned	-11.1326
▁ministers	-11.1326
▁improved	-11.1329
▁monitor	-11.133
▁symptoms	-11.1332
▁articles	-11.1332
▁brothers	-11.1334
▁accordance	-11.1335
▁mantene	-11.1336
making	-11.1337
▁mc	-11.1337
▁governor	-11.1339
▁accession	-11.1339
▁ultimas	-11.1339
▁basically	-11.1341
▁max	-11.1341
▁efektivamente	-11.1341
▁daria	-11.1345
▁arboles	-11.1349
▁adjenda	-11.1351
▁partida	-11.1351
▁figured	-11.1359
▁eliminar	-11.136
▁journey	-11.1361
▁dogs	-11.1362
▁miserable	-11.1363
▁reir	-11.1364
▁azerme	-11.1366
▁kapachies	-11.1371
▁ekspertos	-11.1373
▁pareja	-11.138
▁portugal	-11.1383
▁sectors	-11.1383
▁buddy	-11.1383
▁organization	-11.139
▁senyoras	-11.1392
▁storm	-11.1392
▁destruir	-11.1393
dra	-11.1395
▁scope	-11.1402
▁cars	-11.1407
▁representative	-11.1407
▁miro	-11.1407
▁penal	-11.1409
▁wash	-11.1414
▁mesajes	-11.1414
▁comment	-11.1419
mon	-11.142
▁bigger	-11.142
▁prenses	-11.1422
▁domestic	-11.1422
▁provision	-11.1425
▁monetary	-11.1425
▁preparativos	-11.1425
▁finger	-11.1427
▁secsion	-11.1431
▁unable	-11.1431
▁brazil	-11.1435
▁jenerasion	-11.1437
▁junio	-11.1437
▁inyeve	-11.1442
▁link	-11.1444
▁kompanyeros	-11.1451
▁smith	-11.1453
ible	-11.1456
▁rovar	-11.146
▁assure	-11.146
▁empedir	-11.1464
bu	-11.1465
▁markar	-11.1468
▁pishkados	-11.1469
▁produzir	-11.1471
▁singing	-11.1472
▁produze	-11.1476
▁eksselensia	-11.1484
▁prioridades	-11.1491
▁borders	-11.1491
mp	-11.1491
▁responsables	-11.1495
▁bovedaas	-11.1495
▁engaged	-11.1495
ensia	-11.1498
ol	-11.15
▁empesijo	-11.1501
▁sooner	-11.1501
▁analisar	-11.1509
▁shooting	-11.1516
▁vyenes	-11.1517
▁deserve	-11.1518
▁eksplikasion	-11.1522
▁puedido	-11.1524
▁brandon	-11.1524
▁flow	-11.1524
▁frakaso	-11.1527
▁permanente	-11.1528
▁pieces	-11.1532
▁olvidi	-11.1533
▁impression	-11.1533
▁nation	-11.1538
▁ridikulo	-11.1538
▁djugando	-11.1541
▁princess	-11.1546
ase	-11.1554
▁asegro	-11.1554
▁adjensia	-11.1555
▁solusiones	-11.1555
vites	-11.1557
▁swell	-11.156
▁kostes	-11.1561
▁teaching	-11.1561
▁eskape	-11.1563
▁oridjinal	-11.1564
▁vigor	-11.1566
▁korrekta	-11.157
▁deliver	-11.1573
▁richard	-11.1575
▁names	-11.1575
▁occurred	-11.1576
▁flight	-11.1581
▁page	-11.1587
▁closely	-11.1589
▁yamas	-11.159
▁vuelo	-11.1592
▁kola	-11.1599
▁encourage	-11.1602
▁color	-11.1603
▁absence	-11.1603
▁korrespondiente	-11.1614
▁gal	-11.1618
▁adopsion	-11.1625
▁sara	-11.1627
ial	-11.163
▁sudden	-11.1631
▁diversas	-11.1634
▁personalmente	-11.1635
▁konstitusion	-11.1636
▁claim	-11.164
▁ross	-11.1642
lu	-11.1642
▁jones	-11.1645
▁tuvites	-11.1646
▁improving	-11.1647
▁madera	-11.1647
▁numbers	-11.165
▁kompetensias	-11.1654
▁chicken	-11.1656
▁actual	-11.1656
▁locked	-11.1657
▁avanses	-11.1659
▁aleman	-11.166
▁terror	-11.1663
▁resivyo	-11.1663
▁yevas	-11.1664
▁debashos	-11.1667
▁deprisa	-11.1668
▁tenido	-11.1671
tri	-11.1676
▁irlanda	-11.1679
▁located	-11.168
▁crowd	-11.1687
▁milady	-11.1687
▁despuess	-11.169
▁juridiko	-11.1692
▁imajes	-11.1692
▁turns	-11.1697
▁reasonable	-11.1699
▁indise	-11.1705
▁viktoria	-11.1708
▁finales	-11.1709
▁beso	-11.171
▁feels	-11.1711
▁vistazo	-11.1714
▁klientes	-11.1717
▁primavera	-11.1718
▁testigo	-11.1725
▁parliamentary	-11.1725
▁australia	-11.1727
▁urdjente	-11.1729
▁espozorios	-11.173
▁konsiderando	-11.1732
▁regla	-11.1738
▁dropped	-11.174
▁comfortable	-11.174
▁planned	-11.174
▁troka	-11.1743
▁apartado	-11.1743
▁breath	-11.1746
▁cute	-11.1749
car	-11.1751
▁leads	-11.1751
▁ladron	-11.1757
▁kitar	-11.1758
▁temporal	-11.1759
▁komparasion	-11.1761
tin	-11.1764
▁diskusion	-11.1772
▁priorities	-11.1779
▁hill	-11.1779
▁lane	-11.1779
▁newspaper	-11.178
now	-11.1783
▁konsegyo	-11.1784
▁dezeyaria	-11.1785
▁sexual	-11.1786
▁protokolo	-11.1787
▁lights	-11.1789
▁lider	-11.1794
▁ears	-11.1809
▁obtain	-11.1809
▁gift	-11.1811
▁monte	-11.1814
▁tecnologias	-11.1816
rian	-11.1816
▁plus	-11.1821
▁prior	-11.1826
▁inform	-11.1826
▁briyante	-11.1826
▁residuos	-11.1828
▁details	-11.1829
▁nesesitava	-11.183
▁estash	-11.1833
▁borracho	-11.1837
▁fisika	-11.1841
▁kayentura	-11.1845
selo	-11.1845
▁pair	-11.1845
▁separate	-11.1845
▁appeared	-11.1846
▁multiple	-11.1849
▁espesies	-11.185
▁outcome	-11.1851
▁drawn	-11.1852
▁protocol	-11.1854
▁fueran	-11.1858
▁row	-11.1859
▁lesiones	-11.1861
▁bankos	-11.1865
▁impulso	-11.1866
▁autor	-11.1867
▁relating	-11.1867
▁min	-11.1868
▁serlo	-11.1868
▁destroyed	-11.1872
▁cast	-11.1873
▁adequate	-11.1876
▁profitar	-11.1877
▁inferno	-11.1879
▁suggested	-11.188
▁akompanyar	-11.1884
▁kam	-11.1885
▁postura	-11.1885
law	-11.1885
▁demandando	-11.1888
lia	-11.1894
▁reply	-11.1896
▁alkalde	-11.1901
▁pedaso	-11.1905
▁answered	-11.1906
▁charming	-11.1908
▁enormous	-11.191
▁kinze	-11.1912
▁solutions	-11.1919
▁viajar	-11.192
▁puerto	-11.1934
▁visual	-11.1937
▁suzio	-11.1937
▁mapa	-11.1938
▁bienestar	-11.194
▁faltaes	-11.1948
▁grown	-11.1948
▁networks	-11.1952
▁pozitivos	-11.1953
ny	-11.1953
▁neuro	-11.1953
▁planta	-11.1953
ikos	-11.1954
when	-11.1955
▁ofisiales	-11.1957
▁arto	-11.1957
▁ashamed	-11.1957
▁literatura	-11.1957
▁losing	-11.1958
▁anestesia	-11.1958
▁bucks	-11.196
▁pensan	-11.1962
▁forest	-11.1962
▁marina	-11.1962
▁akeyo	-11.1962
▁quarter	-11.1963
▁waited	-11.1965
▁wilson	-11.1968
▁alkol	-11.1969
▁soldier	-11.1972
▁friday	-11.1974
▁demostro	-11.1974
▁iii	-11.1974
▁individuos	-11.1974
▁whenever	-11.1977
▁eskrito	-11.1978
ney	-11.1983
▁bid	-11.1983
▁ordered	-11.1984
▁korryendo	-11.1985
▁doctors	-11.1991
▁ajeno	-11.1991
▁sword	-11.1991
▁dekada	-11.1991
gra	-11.1992
▁metal	-11.1997
ver	-11.1997
▁replikar	-11.2001
▁explanation	-11.2005
▁detail	-11.2005
▁djuzgoes	-11.2006
▁tongue	-11.2008
▁ships	-11.201
cu	-11.2011
sie	-11.2016
▁koledjio	-11.202
▁mata	-11.202
▁laughing	-11.2023
▁expecting	-11.2028
▁fasilitar	-11.2029
▁election	-11.2029
▁tendensia	-11.2031
▁reforms	-11.2031
▁faster	-11.2032
▁tools	-11.2034
▁ayude	-11.2045
▁mate	-11.2046
▁plasma	-11.2051
▁seksual	-11.2051
▁lucy	-11.206
fo	-11.2062
▁stayed	-11.2066
▁explained	-11.2077
▁tool	-11.2078
▁masa	-11.2086
kin	-11.2086
▁partisipantes	-11.2086
▁desert	-11.2087
▁lake	-11.2091
▁ci	-11.2093
▁leon	-11.2094
▁depend	-11.2096
▁definitely	-11.2099
▁bright	-11.21
▁arena	-11.21
▁constitution	-11.2104
▁volumen	-11.2105
▁bunch	-11.2106
▁aktuasion	-11.2109
▁monday	-11.211
▁brings	-11.2114
▁fourth	-11.2114
▁bomba	-11.2115
▁progreso	-11.2118
▁konde	-11.2118
▁sar	-11.212
▁asentar	-11.2121
▁items	-11.2121
▁embio	-11.2122
▁walter	-11.2122
▁sintomas	-11.2124
▁ear	-11.2125
ava	-11.2125
▁dental	-11.2126
▁camera	-11.2132
▁fate	-11.2135
▁january	-11.2139
▁bleeding	-11.214
▁uniforme	-11.214
▁ferido	-11.214
▁devi	-11.2144
▁remove	-11.2145
▁kong	-11.2149
▁christ	-11.2149
▁claridad	-11.215
▁lunes	-11.2151
▁vias	-11.2152
▁umor	-11.2153
▁professionals	-11.2154
▁royal	-11.2156
▁discrimination	-11.2161
▁generation	-11.2161
▁thy	-11.2161
eo	-11.2162
▁refuse	-11.2165
▁realizasion	-11.2166
▁consensus	-11.2167
▁ridiculous	-11.2167
▁honourable	-11.2168
▁komenza	-11.2175
▁salt	-11.2178
▁pensada	-11.2178
▁administrative	-11.2179
▁ambitos	-11.218
▁fired	-11.2181
▁presiosa	-11.2185
▁lisboa	-11.2185
▁teknisyens	-11.2185
▁altos	-11.2186
▁ritmo	-11.2191
▁forsar	-11.2193
▁sufisientes	-11.2193
▁devolver	-11.2194
▁entorno	-11.2196
▁konosia	-11.2199
..."""""""	-11.2199
▁mail	-11.22
▁suicide	-11.2202
▁lisbon	-11.2202
▁genuine	-11.2205
▁congratulations	-11.2208
▁anyadir	-11.2208
▁sientifika	-11.2212
▁site	-11.2213
vas	-11.2213
▁machs	-11.2213
▁disminusion	-11.2214
▁represents	-11.2214
sis	-11.2215
▁vaygamos	-11.2218
▁ovligasion	-11.2219
▁smoking	-11.2219
▁yellow	-11.2219
▁grace	-11.2222
▁angel	-11.2224
▁relativas	-11.2226
▁pounds	-11.223
▁marko	-11.223
tar	-11.2235
▁tobacco	-11.2237
▁centre	-11.224
ive	-11.224
▁assume	-11.2241
▁bienvenida	-11.2242
▁pelear	-11.2246
▁kresiente	-11.2248
eks	-11.2249
▁dodje	-11.2249
visto	-11.2251
▁granted	-11.2254
▁nurses	-11.2254
ut	-11.2256
▁japanese	-11.2259
▁titolo	-11.2259
▁sensiyo	-11.226
▁somehow	-11.2265
▁vengan	-11.2266
▁sirkulasion	-11.2266
▁excited	-11.2273
▁konsiderasion	-11.2278
▁spoken	-11.2279
▁stole	-11.2282
▁avyertura	-11.2283
▁asenta	-11.2285
dis	-11.2286
▁alhad	-11.2288
▁miyas	-11.2289
▁viernes	-11.2289
▁invierno	-11.2295
▁estuvimos	-11.2299
▁strategies	-11.2301
arse	-11.2301
▁poli	-11.2304
▁immediate	-11.2304
▁roll	-11.2307
▁deskansar	-11.2307
▁jenero	-11.2312
▁kaza	-11.2313
▁cried	-11.2313
▁savelo	-11.2315
▁tim	-11.2316
▁onto	-11.2316
▁demasiada	-11.2318
▁konsenso	-11.2318
▁diskriminasion	-11.232
▁difisiles	-11.2322
▁situations	-11.2323
▁espera	-11.2324
▁limits	-11.2328
▁hazina	-11.233
▁roof	-11.2331
▁meten	-11.2331
▁jackson	-11.2331
▁estreyas	-11.2334
▁praktikamente	-11.2335
▁profundo	-11.2335
▁valiente	-11.2335
▁goin	-11.2338
▁nena	-11.2338
▁koste	-11.2339
▁fruit	-11.2345
ries	-11.2346
▁infrastructure	-11.2347
▁diversidad	-11.2347
▁lewis	-11.2348
called	-11.2352
▁mekical	-11.2353
▁oktubre	-11.2353
▁q	-11.2353
▁signs	-11.2357
▁clever	-11.2359
▁tadrar	-11.2363
▁educational	-11.2366
▁wondering	-11.2368
▁mentira	-11.2371
▁nonsense	-11.2371
▁umanidad	-11.2371
▁sides	-11.2372
▁chronic	-11.2372
▁kortar	-11.2372
▁sport	-11.2379
▁pense	-11.238
▁plants	-11.2381
▁perform	-11.2384
▁dig	-11.2385
▁satisfied	-11.2386
▁zone	-11.2386
▁inisial	-11.239
▁tape	-11.2393
▁burden	-11.2393
▁roy	-11.2396
▁hiding	-11.2402
▁sales	-11.2406
▁arrested	-11.2408
▁aniyo	-11.2411
▁jenny	-11.2412
ud	-11.2413
▁pocket	-11.2418
▁meldi	-11.242
▁avran	-11.2421
▁uk	-11.2423
▁merko	-11.2424
gas	-11.2427
▁california	-11.243
▁delighted	-11.2431
▁kay	-11.2432
▁challenges	-11.2433
▁siguo	-11.2435
▁lift	-11.2437
▁mensionado	-11.244
▁citizen	-11.2441
▁southern	-11.2441
▁facts	-11.2445
▁reales	-11.2448
▁bath	-11.2451
▁includes	-11.2459
▁audience	-11.2459
ex	-11.246
▁parko	-11.2461
▁venta	-11.2463
▁plantas	-11.2463
▁stars	-11.2464
▁intenti	-11.2464
▁prosede	-11.247
▁konsentrasion	-11.247
▁hmm	-11.2472
▁maraviya	-11.2472
▁konosemos	-11.2477
▁solidarity	-11.2477
▁etapa	-11.2479
▁sentence	-11.2479
▁records	-11.2481
esto	-11.2483
▁arrive	-11.2484
▁deseos	-11.2488
▁handsome	-11.249
iya	-11.2491
▁antika	-11.2494
▁advance	-11.2496
▁efficient	-11.2497
▁kausas	-11.25
▁esperta	-11.2501
▁espada	-11.2502
▁militares	-11.2503
▁heading	-11.2505
▁molestar	-11.2506
▁noviembre	-11.2507
▁sonete	-11.2508
▁plazyo	-11.2513
▁konosen	-11.2513
▁establishing	-11.2514
▁pin	-11.2514
▁jake	-11.2514
▁otomobiles	-11.2516
▁jurnals	-11.2517
▁cab	-11.252
▁declaration	-11.2521
▁muro	-11.2523
▁eras	-11.2531
▁pasaron	-11.2532
where	-11.2532
▁terseros	-11.2532
▁alan	-11.2534
▁steel	-11.2541
▁software	-11.2542
▁prezentes	-11.2544
▁reaction	-11.2545
▁naturales	-11.2548
▁experts	-11.255
▁rent	-11.255
▁liver	-11.2553
▁october	-11.2554
▁ekstraodrinaria	-11.2554
▁anual	-11.2558
▁plaza	-11.2558
▁venia	-11.2565
▁aktores	-11.2565
▁superar	-11.2569
▁mekanismos	-11.2569
▁karas	-11.2569
▁victim	-11.2571
▁siguyendo	-11.2572
▁averigar	-11.2575
▁anteriores	-11.2578
▁kanal	-11.2579
▁kolay	-11.2589
▁pi	-11.259
vitesh	-11.2591
▁pure	-11.2591
▁mon	-11.2592
kri	-11.2597
▁gain	-11.2598
▁recognition	-11.2598
▁occasion	-11.2598
▁percentage	-11.26
▁delay	-11.2604
▁fresko	-11.2606
▁phil	-11.2608
▁meterse	-11.2609
▁puertas	-11.2609
▁streets	-11.261
▁permission	-11.2614
▁tantos	-11.2615
▁fields	-11.2616
▁dumb	-11.2617
▁tight	-11.262
▁meto	-11.262
▁maks	-11.2626
▁aparese	-11.2626
▁micro	-11.2627
▁presentasion	-11.2633
ena	-11.2638
▁fantastiko	-11.2638
▁majiya	-11.2638
▁asepto	-11.2642
▁kadena	-11.2642
▁fuentes	-11.2644
▁fines	-11.2645
▁mixed	-11.2647
▁disaster	-11.2651
▁counter	-11.2652
▁digale	-11.2658
▁buska	-11.266
▁saturday	-11.2662
▁kontinuo	-11.2664
▁ojas	-11.2664
▁ann	-11.2665
▁aimed	-11.2665
good	-11.2665
▁prometo	-11.2668
▁junior	-11.2671
▁avlava	-11.2673
▁sedro	-11.2674
▁espertar	-11.2675
▁eskuridad	-11.2687
gen	-11.2687
▁similares	-11.2689
▁insidensia	-11.2693
tz	-11.2696
▁estratedjias	-11.2698
▁reto	-11.2699
▁governador	-11.27
▁ong	-11.2704
▁reducing	-11.2705
ini	-11.2709
ham	-11.271
▁revolution	-11.2711
▁kalifornia	-11.2711
▁prize	-11.2715
▁mandar	-11.2718
▁margaret	-11.2725
zi	-11.2729
▁effectively	-11.273
▁patten	-11.273
▁november	-11.2735
▁peg	-11.2736
▁trenta	-11.2737
▁pilot	-11.2743
▁religious	-11.275
▁prezentaron	-11.2751
ino	-11.2751
▁volume	-11.2752
▁kontribusyon	-11.2753
▁okupa	-11.2757
▁gi	-11.2758
▁rat	-11.2758
▁pedrona	-11.2762
▁demandava	-11.2765
▁murdered	-11.2765
▁ole	-11.2769
▁norma	-11.2779
ps	-11.2782
▁reforsar	-11.2784
▁observa	-11.2785
▁cha	-11.2785
▁acceptable	-11.2786
▁tumor	-11.2789
▁opposite	-11.279
▁signifikativa	-11.2792
▁games	-11.2797
like	-11.2798
▁detective	-11.2799
▁americans	-11.2799
▁chest	-11.2803
▁ayudarme	-11.2803
▁constitutional	-11.2807
▁argument	-11.2808
▁eksistentes	-11.2809
▁refudjiados	-11.2812
▁aparte	-11.2812
▁solid	-11.2814
▁larger	-11.2815
▁tele	-11.2817
▁pantalon	-11.2821
▁score	-11.2822
▁stomach	-11.2827
▁participate	-11.2828
▁establishment	-11.2828
▁terrenos	-11.2829
▁threw	-11.2833
▁uvyeran	-11.2834
▁viktima	-11.2834
▁trampa	-11.2844
▁sending	-11.2845
▁mortality	-11.2846
▁premyo	-11.2846
▁saka	-11.2847
ating	-11.2849
▁answers	-11.2856
tos	-11.2857
▁filled	-11.2857
▁introduzir	-11.2858
▁pleasant	-11.2864
▁agrikultores	-11.2864
▁kontroles	-11.2865
▁emisiones	-11.2873
▁avanse	-11.2874
▁greek	-11.2877
▁grasia	-11.2877
▁soil	-11.2877
▁marzo	-11.2878
▁entrega	-11.288
▁kanada	-11.2883
▁independiente	-11.2884
ities	-11.2885
▁techo	-11.2886
▁shake	-11.2888
▁obviamente	-11.2889
▁ro	-11.289
▁permitanme	-11.2891
▁donna	-11.2894
▁guide	-11.2897
▁addressed	-11.2899
▁kan	-11.2899
▁champagne	-11.2901
▁rare	-11.2902
▁metyeron	-11.2902
▁ayegamos	-11.2903
▁realized	-11.2905
▁techniques	-11.2906
▁preokupasiones	-11.2907
▁promover	-11.2909
▁vaso	-11.2912
▁resien	-11.2915
▁entregar	-11.2919
▁badly	-11.2921
▁saint	-11.2921
idos	-11.2922
▁trauma	-11.2924
▁loose	-11.2926
▁interna	-11.2931
▁rekuperasion	-11.2933
▁taza	-11.2941
▁mardjen	-11.2942
op	-11.2943
▁bomb	-11.2944
▁northern	-11.2944
▁sero	-11.2947
▁sources	-11.2951
▁alternativa	-11.2951
▁alevantar	-11.2952
▁puesta	-11.2952
▁superman	-11.2953
▁kategoria	-11.2953
▁institute	-11.2956
▁jealous	-11.2959
▁kuriozo	-11.2959
▁godro	-11.2959
▁fonksiones	-11.296
▁ended	-11.2964
▁maid	-11.2965
▁solidaridad	-11.2975
▁vedraderamente	-11.2978
▁shared	-11.2979
▁tecnikas	-11.2979
▁preparado	-11.2979
▁kal	-11.298
▁subjects	-11.2981
▁fatal	-11.2986
▁pray	-11.2987
▁permanent	-11.2987
▁poblasiones	-11.2991
▁limpia	-11.2991
▁dava	-11.2993
▁stable	-11.2993
▁eve	-11.2996
▁kondukta	-11.2997
▁bull	-11.2998
▁malas	-11.2999
ola	-11.3
▁participants	-11.3003
▁strengthen	-11.3003
▁constant	-11.3004
▁false	-11.3004
▁dejalo	-11.3007
▁identidad	-11.3012
ue	-11.3014
▁tengamos	-11.3014
▁mekanismo	-11.3016
kan	-11.3017
▁z	-11.3018
▁housing	-11.3019
▁passing	-11.3021
▁entrevista	-11.3021
▁yevaron	-11.3025
▁whisky	-11.3026
▁primo	-11.3028
▁famozo	-11.3029
▁extranya	-11.3029
▁enkantadora	-11.303
▁otobus	-11.3031
▁eksidje	-11.3033
▁guevos	-11.3033
▁element	-11.3039
▁slowly	-11.3042
ig	-11.3044
▁lodr	-11.3048
▁hanging	-11.3048
▁discharge	-11.3052
▁brave	-11.3054
▁positions	-11.3054
▁muchachoa	-11.3058
sio	-11.3061
adr	-11.3062
melo	-11.3062
▁afghanistan	-11.3063
▁opiniones	-11.3064
▁polvo	-11.3069
▁establesimiento	-11.3069
over	-11.3071
▁relative	-11.3071
▁plain	-11.3071
▁identity	-11.3076
▁sp	-11.3077
▁thirty	-11.3078
▁aside	-11.308
▁kaya	-11.3083
▁yamava	-11.3087
kuando	-11.3089
▁acts	-11.3093
▁shabat	-11.3094
▁invite	-11.3096
▁sali	-11.3096
▁kor	-11.3097
▁therapy	-11.3098
▁usa	-11.3102
▁matt	-11.3102
▁starts	-11.3102
▁robo	-11.3106
▁abitantes	-11.3106
▁plaj	-11.3108
▁discussions	-11.3109
▁ri	-11.3115
▁host	-11.3116
▁proprietario	-11.3118
▁fan	-11.3119
▁tears	-11.3123
▁warning	-11.3123
▁petision	-11.3126
▁cream	-11.3126
▁kullaneando	-11.313
▁enfermera	-11.3133
▁theater	-11.3133
▁intervensiones	-11.3136
ntes	-11.3139
▁respetar	-11.3141
▁falling	-11.3142
back	-11.3143
▁giador	-11.3145
▁puedian	-11.315
▁observe	-11.3152
▁fuertes	-11.3154
▁reushir	-11.3155
▁ingreso	-11.3157
▁views	-11.3157
▁intelidjensia	-11.3158
▁lideres	-11.316
▁ppe	-11.3161
▁businesses	-11.3161
val	-11.3171
ap	-11.3172
▁imadjino	-11.3177
▁inkluyendo	-11.3177
▁sonrisa	-11.3177
▁urge	-11.3177
▁ru	-11.318
▁demandamos	-11.318
▁blankos	-11.3182
▁futbol	-11.3183
▁suspect	-11.3183
▁dinyidad	-11.3189
▁july	-11.3192
▁selecsion	-11.3194
▁adultos	-11.3198
▁imadjinar	-11.3203
▁technologies	-11.3205
▁unacceptable	-11.3209
wa	-11.3209
field	-11.321
ville	-11.321
▁rango	-11.3211
▁ilegal	-11.3212
▁ki	-11.3213
ated	-11.322
▁discussing	-11.3224
▁resivi	-11.3224
▁rough	-11.3226
▁promotion	-11.3228
▁danyos	-11.3228
oso	-11.323
▁programs	-11.323
▁previously	-11.3233
▁buenoes	-11.3233
▁weekend	-11.3235
rie	-11.3236
▁konvenser	-11.3237
▁introduction	-11.3241
▁walls	-11.3241
▁poca	-11.3249
▁smaller	-11.325
▁tareas	-11.3252
▁lavoran	-11.3253
▁holmes	-11.3253
▁lesson	-11.3256
▁castle	-11.3259
▁lengaje	-11.326
▁african	-11.3261
▁amas	-11.3261
▁stolen	-11.3263
▁judisial	-11.3266
▁gloria	-11.3266
▁ayegado	-11.3273
▁apparently	-11.3274
house	-11.328
▁estomago	-11.3281
▁sufrir	-11.3282
▁medioambiental	-11.3282
▁dignity	-11.3282
aes	-11.3282
▁kuida	-11.3285
▁dubios	-11.3286
▁bushko	-11.3287
▁sinyales	-11.3288
▁deshas	-11.3292
▁mortalidad	-11.3299
▁restaurant	-11.33
▁sentavos	-11.33
▁savias	-11.3303
▁gray	-11.3304
▁ekspozision	-11.3304
▁proibision	-11.3304
▁valuable	-11.3305
▁talks	-11.3312
▁partnership	-11.3313
▁removed	-11.332
▁someday	-11.332
▁kontene	-11.3321
ju	-11.3324
▁mechanisms	-11.3328
▁fuckin	-11.333
▁desayuno	-11.3331
▁expenditure	-11.3331
▁hundreds	-11.3335
▁fella	-11.3336
▁bastard	-11.3338
▁intestinal	-11.334
▁cu	-11.3342
▁highness	-11.3343
▁bobby	-11.3344
▁formar	-11.3359
▁belongs	-11.336
▁asentador	-11.3363
▁facing	-11.3364
▁merki	-11.3365
▁trap	-11.3365
▁occur	-11.3365
▁finansieras	-11.3365
▁linked	-11.3368
▁tratava	-11.3369
▁collection	-11.337
▁kontinente	-11.3372
▁murderer	-11.3372
▁bote	-11.3376
▁respondyo	-11.3376
▁ultimamente	-11.338
▁defense	-11.3383
▁mountains	-11.3384
▁involving	-11.3389
▁antonio	-11.3389
▁prima	-11.3394
▁afganistan	-11.3395
▁observasiones	-11.3397
▁kuchiyo	-11.3398
▁pratiko	-11.3398
ano	-11.34
▁alcohol	-11.3402
▁fi	-11.3402
▁kaida	-11.3403
▁asperan	-11.3406
nya	-11.3411
▁ajenos	-11.3415
▁puedas	-11.3417
▁serkano	-11.3421
▁april	-11.3421
ance	-11.3423
▁secure	-11.3423
▁birds	-11.3427
▁greece	-11.3428
bil	-11.3428
▁paresido	-11.3429
▁eggs	-11.3429
▁latter	-11.3431
▁spare	-11.3432
▁recovery	-11.3436
iva	-11.344
▁rechazo	-11.3441
▁olmes	-11.3442
ak	-11.3442
▁solar	-11.3443
▁asemejante	-11.3444
▁cigarette	-11.3444
▁trasero	-11.3448
▁proceed	-11.3456
▁irish	-11.3459
▁alteza	-11.3461
▁comments	-11.3464
▁kostumbre	-11.3464
▁ms	-11.3465
▁vinites	-11.3466
▁tissue	-11.3471
▁strategic	-11.3471
▁fomentar	-11.3473
▁bivos	-11.3476
▁ram	-11.3478
▁kinds	-11.3483
▁sitios	-11.3496
▁barrio	-11.3499
▁inisiar	-11.3503
▁declarasiones	-11.3504
▁rekomendasiones	-11.3506
▁magic	-11.3508
▁olvides	-11.3509
▁konvensido	-11.3511
tikos	-11.3511
▁dollar	-11.3513
▁soportar	-11.3515
▁limpiar	-11.3515
▁siudadano	-11.3518
▁killer	-11.3518
▁aktiva	-11.3519
ette	-11.352
▁ruin	-11.3521
▁ayegan	-11.3521
▁guadrar	-11.3526
your	-11.3528
▁pattern	-11.3531
▁tornando	-11.3532
▁manager	-11.3533
▁intelligence	-11.3535
▁chain	-11.3536
▁igales	-11.3539
▁plazia	-11.3544
▁fed	-11.3545
▁manejar	-11.3548
▁enfrentar	-11.3548
▁operasiones	-11.3549
▁enkargar	-11.355
▁orgyoso	-11.3551
▁desaparecyo	-11.3553
▁agamos	-11.3553
▁terroristas	-11.3555
▁simon	-11.3557
▁priest	-11.3558
bri	-11.356
▁yevamos	-11.3561
▁responde	-11.3562
▁helen	-11.3565
▁topava	-11.3567
▁experienced	-11.3572
▁tip	-11.3573
▁muestras	-11.3575
▁avlan	-11.3576
▁koesion	-11.3579
▁gate	-11.3579
▁albert	-11.358
▁familiares	-11.3587
based	-11.359
▁fancy	-11.3593
▁lonely	-11.3593
▁hoping	-11.3594
isation	-11.3595
▁propozar	-11.3597
tis	-11.3597
rias	-11.3599
▁komprobar	-11.3601
▁author	-11.3605
▁siertos	-11.3605
▁apologize	-11.3606
▁sientese	-11.3606
▁selling	-11.3611
▁universe	-11.3612
▁cake	-11.3613
▁indios	-11.3617
ear	-11.3619
▁throat	-11.3619
▁konsideramos	-11.3626
▁frequently	-11.3628
▁representante	-11.3628
▁decent	-11.3628
▁konstituen	-11.363
▁profunda	-11.363
▁pensado	-11.3631
▁espesiales	-11.3636
▁firmar	-11.3636
▁paro	-11.3639
▁bilateral	-11.3639
▁tierras	-11.3643
▁relasionadas	-11.3648
▁bloody	-11.3648
▁lee	-11.3652
▁efektivo	-11.3655
▁pet	-11.3655
▁skills	-11.3656
▁appeal	-11.3657
▁realiza	-11.3658
▁recommendations	-11.3658
▁kilometros	-11.3658
▁ec	-11.3659
sti	-11.3666
▁pot	-11.3667
▁option	-11.3672
▁deskanso	-11.3672
▁azlo	-11.3673
▁ventaja	-11.3673
▁siguimos	-11.3681
▁wealth	-11.3682
▁engineer	-11.3682
▁carta	-11.3683
▁emissions	-11.3683
▁restorante	-11.3686
▁liberalizasion	-11.3686
▁difficulty	-11.3687
▁profit	-11.369
▁contains	-11.369
▁ensayo	-11.3692
sito	-11.3693
▁indicated	-11.3695
▁suseder	-11.3696
▁extreme	-11.3697
▁advanced	-11.3698
▁asero	-11.37
▁echa	-11.3705
▁irte	-11.3705
▁contrast	-11.3706
▁recognise	-11.3708
▁daniel	-11.371
▁shirt	-11.3712
▁vistas	-11.3713
side	-11.3715
▁mure	-11.3718
▁incidence	-11.3719
ag	-11.3721
▁ayudo	-11.3721
▁erramientas	-11.3723
▁continent	-11.3723
▁salto	-11.3727
▁revisar	-11.3731
▁loud	-11.3733
▁profundamente	-11.3734
▁swim	-11.3737
▁sh	-11.3738
▁asumir	-11.3743
▁ur	-11.3746
▁pieza	-11.3749
▁armed	-11.3749
▁extraordinary	-11.3753
▁ab	-11.3753
▁season	-11.3754
▁rekonose	-11.3756
▁kredito	-11.376
▁consequently	-11.3761
▁livra	-11.3761
▁stands	-11.3761
▁guest	-11.3761
▁sinsero	-11.3762
▁seeking	-11.3765
▁enterprise	-11.3766
ador	-11.3767
▁annie	-11.3769
▁terribly	-11.3773
▁bivyendo	-11.3773
▁shadow	-11.3774
▁leo	-11.3776
▁gresia	-11.378
▁nuevamente	-11.378
▁dra	-11.3781
▁employees	-11.3781
▁frightened	-11.3781
▁identifikasion	-11.3781
▁promesa	-11.3781
▁odd	-11.3785
▁inevitable	-11.3791
▁elderly	-11.3794
▁thoughts	-11.3797
▁proporsionar	-11.38
▁magnifiko	-11.38
▁produktores	-11.3803
▁largest	-11.3804
▁konvenio	-11.3809
▁mechanism	-11.3809
▁sielos	-11.3813
▁jurado	-11.3815
▁primeras	-11.3816
▁divorce	-11.3816
▁kastiyo	-11.382
▁inglezes	-11.3829
▁samples	-11.3833
▁infecsion	-11.3833
▁spite	-11.3837
▁anunsio	-11.3838
▁klaros	-11.3838
▁fallen	-11.384
▁imbesil	-11.3841
▁realisaron	-11.3842
▁chosen	-11.3847
▁cohesion	-11.3854
▁goddamn	-11.3855
▁konstante	-11.3863
▁tall	-11.3867
▁paint	-11.3868
▁whoever	-11.3871
▁mantenimiento	-11.3875
ula	-11.3878
▁interview	-11.3881
▁tickets	-11.3883
▁served	-11.3884
▁ordinary	-11.3884
▁digamos	-11.3884
▁hero	-11.3888
▁warn	-11.3891
▁karajo	-11.3892
▁ob	-11.3892
▁unidades	-11.3892
▁konosimientos	-11.3894
▁concentration	-11.3895
▁mati	-11.3897
▁pulled	-11.39
▁muchisimo	-11.39
▁egzistir	-11.3902
▁incredible	-11.3902
▁kumplimiento	-11.3902
▁sentros	-11.3904
▁rail	-11.3905
▁apple	-11.3906
▁aktos	-11.3906
▁revolusion	-11.3908
▁younger	-11.391
▁suffered	-11.3914
▁lecsion	-11.3915
▁obama	-11.3916
▁describe	-11.3922
▁perfume	-11.3922
▁grew	-11.3923
▁normalmente	-11.3925
▁keeps	-11.3927
▁remained	-11.3927
▁universo	-11.3929
ping	-11.3931
▁mediterranean	-11.3932
▁kaves	-11.3934
▁horrible	-11.3936
▁opposition	-11.3936
▁wave	-11.394
▁eksepsion	-11.3943
▁richadr	-11.3943
▁attend	-11.3945
▁tumba	-11.3947
▁entendi	-11.3947
dro	-11.3948
▁sharp	-11.3949
sta	-11.3954
▁girlfriend	-11.3954
▁pacha	-11.3955
▁aye	-11.3958
aria	-11.3959
nt	-11.3961
▁aerea	-11.3961
▁tend	-11.3962
▁brief	-11.3962
▁golf	-11.3962
▁terapia	-11.3966
▁reunir	-11.3966
▁friendly	-11.3967
▁desastre	-11.3968
▁officers	-11.3972
▁alegre	-11.3974
▁movimiena	-11.398
ep	-11.3981
▁enkuentro	-11.3982
▁deshado	-11.3983
▁seno	-11.3988
▁studying	-11.3988
▁sugjera	-11.3994
▁disappeared	-11.3994
▁academic	-11.3998
▁dawn	-11.3999
▁core	-11.4
▁fifteen	-11.4007
▁latest	-11.4007
▁efficiency	-11.4008
▁net	-11.4011
▁infantil	-11.4011
▁eventually	-11.4013
▁publika	-11.4013
▁breaking	-11.4013
▁konvertirse	-11.4019
▁movimientos	-11.4019
▁pasta	-11.4023
▁pretos	-11.4025
▁basada	-11.4026
▁adam	-11.4029
▁akodre	-11.403
▁konforme	-11.4035
▁presioso	-11.4036
▁cho	-11.4038
▁kombatir	-11.4038
▁finance	-11.4039
▁djira	-11.4039
▁sosiedades	-11.404
our	-11.4044
▁vulnerable	-11.4045
▁siego	-11.4046
▁exciting	-11.4047
▁macleod	-11.4047
▁agradesimiento	-11.4047
▁fumar	-11.405
▁verse	-11.4056
▁frequency	-11.4059
▁demokratiko	-11.406
▁split	-11.406
▁permit	-11.406
▁vice	-11.406
▁sweetheart	-11.4061
▁ugly	-11.4062
▁demonstrated	-11.4063
sar	-11.4065
▁units	-11.4072
▁detektive	-11.4074
▁limpio	-11.4075
yeah	-11.4079
▁wherever	-11.4081
▁aboard	-11.4082
▁papeles	-11.4085
▁aygas	-11.4089
▁pride	-11.409
▁implementing	-11.4095
▁diversity	-11.4098
▁supyera	-11.4099
▁barbara	-11.4104
then	-11.4108
▁refleksion	-11.4112
▁palestinian	-11.4114
▁lamentablemente	-11.4117
▁filmos	-11.4123
tivo	-11.4125
▁nombres	-11.4128
▁nuts	-11.4128
▁pos	-11.4134
▁akontesimientos	-11.4135
▁brussels	-11.4137
▁findings	-11.4139
▁abril	-11.414
▁demokratika	-11.414
▁elected	-11.414
▁redjionales	-11.4142
▁complicated	-11.4149
▁yami	-11.4149
▁manda	-11.4154
▁institusional	-11.4157
komo	-11.416
▁kol	-11.4161
▁mushos	-11.4163
▁kate	-11.4164
▁location	-11.4165
▁kompanyias	-11.4165
▁supervision	-11.4165
▁conclude	-11.4169
▁acp	-11.4172
▁simpson	-11.4172
▁kansada	-11.4173
▁invitados	-11.4173
▁kostos	-11.4174
▁stronger	-11.4175
▁resulto	-11.4177
▁definir	-11.418
▁montanyas	-11.4181
ow	-11.4184
▁coach	-11.4186
▁fought	-11.4186
▁crack	-11.4189
▁aprendizaje	-11.4189
▁pakistan	-11.4192
▁affair	-11.4192
responsibilities	-11.4193
▁kombate	-11.4199
▁deeply	-11.42
▁kriminal	-11.42
▁publisidad	-11.42
▁boyfriend	-11.4201
rra	-11.4202
lang	-11.4203
▁focused	-11.4205
▁mighty	-11.4206
▁artist	-11.4206
▁phenomenon	-11.4207
▁colleague	-11.4209
yi	-11.421
▁gotten	-11.4213
▁rightly	-11.4217
▁introduksion	-11.4222
▁invito	-11.4222
▁tar	-11.4222
ec	-11.4223
▁anesthesia	-11.4223
▁iv	-11.4226
ph	-11.4228
▁establesyo	-11.4229
▁paragraph	-11.4232
▁solas	-11.4233
▁agents	-11.4236
▁israeli	-11.4238
▁kaveyo	-11.4238
▁oceano	-11.4239
▁elinor	-11.4243
▁vimos	-11.4243
▁empesi	-11.4246
▁kita	-11.4246
▁biblioteka	-11.425
▁karla	-11.425
▁preferaria	-11.4251
▁confirmed	-11.4253
▁instante	-11.4254
▁elaborasion	-11.4257
▁deshando	-11.4259
▁rezerva	-11.4259
▁unemployment	-11.4259
▁stranger	-11.4261
▁personales	-11.4261
▁bite	-11.4261
▁clock	-11.4262
▁saving	-11.4264
▁marianne	-11.4264
eta	-11.4264
▁desharon	-11.4267
▁empiegados	-11.4268
ru	-11.4269
▁tra	-11.4271
▁aclarar	-11.4271
▁pylori	-11.4271
▁lips	-11.4271
▁dough	-11.4272
▁burns	-11.4273
▁urdjensia	-11.4273
▁continues	-11.4274
▁temporary	-11.4278
▁aumenta	-11.4279
▁lately	-11.4282
▁nu	-11.4283
▁presents	-11.4284
▁echizo	-11.4286
▁permityo	-11.4286
▁lesions	-11.4286
▁kyoto	-11.4292
▁swedish	-11.4292
▁vapoos	-11.4292
ung	-11.4296
▁chicago	-11.4299
▁glasses	-11.43
▁averse	-11.4302
▁collective	-11.4304
▁juridikos	-11.4305
▁visible	-11.4308
▁rush	-11.4308
bro	-11.4314
▁bruselas	-11.4314
▁satisfaction	-11.4316
▁entera	-11.432
▁device	-11.432
▁madrid	-11.4321
▁basa	-11.4321
▁hence	-11.4323
pan	-11.4328
▁thief	-11.4328
▁delegasion	-11.4328
▁arrangements	-11.4333
▁juventud	-11.4335
▁editor	-11.4337
▁examination	-11.434
▁santiago	-11.4342
▁shi	-11.4343
▁territorial	-11.4343
▁secondary	-11.4344
▁sansiones	-11.4345
▁struggle	-11.4352
▁currency	-11.4354
▁funsionarios	-11.4354
▁proporsion	-11.4356
dyeron	-11.4361
▁konverte	-11.4363
▁informal	-11.4365
▁kontaminasion	-11.4365
▁fuel	-11.4365
▁mikro	-11.4366
▁decades	-11.4367
▁travo	-11.4369
▁ovligado	-11.4369
▁basado	-11.437
sky	-11.4372
▁favorable	-11.4372
▁significantly	-11.4373
▁libres	-11.4375
til	-11.4379
▁defisit	-11.4383
▁konfio	-11.4386
▁cheke	-11.4386
▁andy	-11.4387
▁flujo	-11.4389
▁bienvenido	-11.439
▁veygan	-11.4392
▁taylor	-11.4392
▁puederes	-11.4403
▁deshen	-11.4405
▁comprehensive	-11.4407
▁eksperiensias	-11.4411
idas	-11.4412
▁djenerar	-11.4413
ide	-11.4414
▁abdominal	-11.4415
▁arterial	-11.4415
tada	-11.4415
▁fraude	-11.4417
▁char	-11.4421
▁scheme	-11.4422
▁kamion	-11.4427
dan	-11.4431
▁multiples	-11.4431
▁divide	-11.4433
▁karo	-11.4435
▁plata	-11.4436
▁survey	-11.4437
▁silent	-11.4441
▁wiy	-11.4445
▁fifty	-11.4452
▁lin	-11.4453
▁enemigos	-11.4458
▁chikago	-11.446
▁estate	-11.4461
▁trezoro	-11.4462
▁posteriormente	-11.4465
▁soup	-11.4466
▁fond	-11.4469
▁sinkuenta	-11.4472
▁increases	-11.4472
ale	-11.4473
▁represented	-11.4473
▁julia	-11.4476
▁kodje	-11.4477
▁disponible	-11.4477
▁humanitarian	-11.4479
▁expert	-11.4484
▁religion	-11.4484
▁eroe	-11.4485
▁kamiza	-11.4485
▁organismos	-11.4486
▁tiny	-11.4488
kg	-11.4488
▁falls	-11.4489
▁enkantaria	-11.4491
▁index	-11.4492
▁football	-11.4494
▁rumbo	-11.4494
nce	-11.45
▁piloto	-11.4506
come	-11.4507
▁ventajas	-11.4508
▁prevalence	-11.4508
▁mercy	-11.4509
qui	-11.451
▁equality	-11.451
▁infection	-11.451
▁konssiente	-11.4512
▁andjelo	-11.4514
▁http	-11.4515
▁presupuestario	-11.4521
▁kullanea	-11.4528
▁district	-11.453
▁detalyo	-11.453
▁rezervas	-11.4535
▁treaties	-11.4537
▁sorprendente	-11.4538
▁unusual	-11.4542
▁electronic	-11.4543
▁burning	-11.4544
▁aw	-11.4545
▁downstairs	-11.4552
▁adoption	-11.4552
▁subrayar	-11.4554
▁chairman	-11.4554
▁djuga	-11.4554
▁privada	-11.4555
▁pensiones	-11.4556
▁lye	-11.4559
▁kanta	-11.456
▁deshan	-11.4564
▁fisiko	-11.4566
▁vaziyo	-11.4566
▁konsigo	-11.4566
▁ovligasiones	-11.4568
▁kondena	-11.4568
▁absolute	-11.4571
▁achieving	-11.4574
▁dutch	-11.4574
▁mutual	-11.4575
▁file	-11.4576
▁fraud	-11.4579
▁tender	-11.458
▁mood	-11.458
▁experiment	-11.458
▁pants	-11.458
▁epi	-11.4583
▁copy	-11.4583
▁grandfather	-11.4588
▁olvida	-11.4592
▁deshates	-11.4592
▁style	-11.4593
▁massive	-11.4596
▁irnos	-11.4598
▁argue	-11.4598
▁curious	-11.4603
▁appearance	-11.4603
dado	-11.4604
form	-11.4606
▁survive	-11.4606
ker	-11.4608
▁vinimos	-11.4608
▁definitiva	-11.4609
▁equally	-11.4609
▁attacks	-11.4609
▁juegos	-11.461
▁aviamos	-11.4611
▁konvene	-11.4611
▁crimes	-11.4614
▁representan	-11.462
▁komplejo	-11.4625
▁submitted	-11.4625
▁languages	-11.4627
ea	-11.4628
▁opsiones	-11.4628
▁ml	-11.463
▁siguyo	-11.4632
▁export	-11.4633
▁vaye	-11.4634
disho	-11.4635
ok	-11.4639
▁schools	-11.464
▁presupuestos	-11.4641
▁examine	-11.4641
▁libertades	-11.4642
▁lago	-11.4644
▁representasion	-11.4644
▁buildings	-11.4647
▁distinto	-11.4648
▁bivia	-11.4649
▁bride	-11.4649
▁fogg	-11.4654
▁tornen	-11.4656
▁marks	-11.4657
▁strongly	-11.4658
▁reflect	-11.4661
▁aldikera	-11.4662
▁temple	-11.4663
▁altas	-11.4665
▁reuniones	-11.4665
▁mum	-11.4666
▁za	-11.4667
▁gar	-11.4669
take	-11.467
▁sigues	-11.4675
▁mataron	-11.4676
dyo	-11.4676
▁independensia	-11.4676
▁recommendation	-11.4678
▁pecho	-11.468
▁modifikar	-11.4681
▁topado	-11.4684
▁delegation	-11.4685
▁tablo	-11.4687
▁difikultad	-11.4687
▁eksakto	-11.4691
▁fever	-11.4692
▁futura	-11.4693
▁kin	-11.4694
▁eksperimento	-11.4695
▁palace	-11.4699
▁nautilus	-11.4702
sha	-11.4703
▁junta	-11.4704
kul	-11.4706
▁applies	-11.4706
▁sekreter	-11.4707
▁yaves	-11.4707
▁ogares	-11.4707
▁oposision	-11.4708
▁replika	-11.4714
▁chiflik	-11.4714
▁interkambio	-11.4715
▁shift	-11.472
▁ensenyo	-11.4722
▁piesas	-11.4724
▁promosion	-11.4725
▁konsegi	-11.4727
▁ambassador	-11.4728
▁electricity	-11.4729
▁cement	-11.4729
ky	-11.4731
▁fifth	-11.4735
▁destrucsion	-11.4736
▁gra	-11.474
▁stake	-11.4741
▁avlemos	-11.4741
riko	-11.4741
▁tornes	-11.4742
▁observo	-11.4743
▁exists	-11.4747
▁succeed	-11.475
▁prisoner	-11.4752
▁nerve	-11.4754
▁chemical	-11.4755
▁vidjilansia	-11.4758
▁amistad	-11.4759
▁appointment	-11.476
▁kulo	-11.4761
▁talento	-11.4761
▁amy	-11.4763
▁opposed	-11.4764
▁supporting	-11.4764
▁espor	-11.4765
▁realise	-11.4765
▁meetings	-11.4768
▁charges	-11.4772
▁commitments	-11.4772
▁twelve	-11.4773
▁wow	-11.4774
▁sentimiento	-11.4776
▁frequent	-11.4778
▁chicolata	-11.478
▁analyzed	-11.4781
▁jury	-11.4781
▁breathe	-11.4781
▁collect	-11.4782
▁assess	-11.4783
▁weird	-11.4788
▁category	-11.4788
▁dylan	-11.4788
▁davis	-11.4789
▁faya	-11.4791
▁serbia	-11.4791
sos	-11.4794
▁kullaneo	-11.4795
▁basikamente	-11.4796
▁operate	-11.4798
▁drama	-11.48
ding	-11.4801
▁settled	-11.4804
▁climatiko	-11.4805
▁weapon	-11.4806
▁perspektivas	-11.4809
▁estatuto	-11.481
▁immigrants	-11.481
▁ensuring	-11.4811
▁kazarme	-11.4812
▁library	-11.4812
▁savor	-11.4813
▁persons	-11.4817
▁riding	-11.4819
▁comfort	-11.4821
▁innovation	-11.4821
▁resolved	-11.4821
emos	-11.4822
▁retardo	-11.4822
▁promoting	-11.4825
▁enamorada	-11.4827
▁aksidentes	-11.4831
▁client	-11.4835
▁confirm	-11.4839
▁usuarios	-11.4839
▁tenesh	-11.4841
▁tour	-11.4841
▁meal	-11.4843
▁fashion	-11.4844
▁vinyeron	-11.4846
▁doin	-11.4849
▁juridika	-11.485
▁extend	-11.4851
▁artisto	-11.4856
▁bivimos	-11.4857
with	-11.486
▁faces	-11.4861
▁genetic	-11.4861
▁solisitud	-11.4864
▁dishera	-11.4864
▁arrima	-11.4867
▁invitar	-11.4868
▁destakar	-11.4871
▁liar	-11.4873
▁babe	-11.4874
▁fingers	-11.4874
▁proved	-11.4879
▁fotografia	-11.4881
ones	-11.4882
▁consultation	-11.4882
▁lingua	-11.489
▁rap	-11.4893
▁officials	-11.4897
▁joey	-11.4899
▁bri	-11.49
▁operations	-11.49
▁piko	-11.4901
nta	-11.4901
▁lio	-11.4904
▁plato	-11.4906
▁struck	-11.4907
▁faced	-11.4907
▁balanse	-11.4908
▁metro	-11.4909
▁noble	-11.491
▁bless	-11.4913
▁dedos	-11.4916
▁plays	-11.4922
▁chocolate	-11.4923
▁rekomendasion	-11.4925
▁solombra	-11.4928
itis	-11.4929
▁olvidado	-11.493
▁eksplio	-11.4931
▁abuse	-11.4931
▁wa	-11.4933
nia	-11.4933
toria	-11.4936
▁produzyo	-11.4938
▁attractive	-11.4939
▁dispuestos	-11.4943
▁indispensable	-11.4943
▁averme	-11.4945
▁determinasion	-11.4947
izado	-11.4948
▁kapa	-11.4952
▁touched	-11.4954
▁rompyo	-11.4954
▁demande	-11.4955
▁organos	-11.4955
▁drag	-11.4956
▁billy	-11.4957
▁mostly	-11.4958
▁guests	-11.496
▁whereas	-11.4964
▁amongst	-11.4966
▁checked	-11.4966
▁consistent	-11.4967
▁atrapar	-11.4967
▁shoulder	-11.4967
▁cow	-11.4967
▁letting	-11.4969
▁fransisko	-11.4969
▁neighborhood	-11.4974
▁komputadora	-11.4977
▁alevanta	-11.498
▁recommended	-11.498
ple	-11.498
▁vol	-11.4981
▁djenio	-11.4981
▁refugees	-11.4984
▁background	-11.4985
▁meldo	-11.4986
▁completed	-11.4989
▁destruction	-11.4992
▁keys	-11.4992
▁cor	-11.4996
▁atakar	-11.4998
▁bow	-11.5001
▁sorprende	-11.5003
▁bazaes	-11.5004
▁sinken	-11.5004
rro	-11.5005
▁presupuestaria	-11.5005
viye	-11.5005
▁perikolozos	-11.5008
▁esperado	-11.5012
▁aereo	-11.5013
▁gritar	-11.5014
▁pool	-11.5016
▁flower	-11.5017
▁beings	-11.5017
▁reglasion	-11.5017
▁sekundaria	-11.5021
▁slip	-11.5022
▁imadjinasion	-11.5024
▁disponibles	-11.5024
▁ye	-11.5027
▁bearing	-11.5028
pla	-11.5029
▁wolf	-11.5031
▁ueyas	-11.5031
▁peaceful	-11.5032
▁worrying	-11.5034
▁commit	-11.5036
▁migration	-11.5038
▁yourselves	-11.5038
▁judy	-11.5039
ised	-11.5041
▁sustansias	-11.5043
▁arab	-11.5044
▁kim	-11.5048
▁preokupar	-11.505
▁unknown	-11.505
▁fraza	-11.5055
▁eastern	-11.5055
ou	-11.5056
▁grounds	-11.5057
medioambientales	-11.5057
▁refleja	-11.5058
▁araba	-11.506
ente	-11.5063
▁betty	-11.5063
▁resist	-11.5066
▁amante	-11.5067
▁amerikanos	-11.5067
▁eskalera	-11.5067
▁investigar	-11.5069
▁bravo	-11.507
▁runs	-11.5079
here	-11.5079
▁tadres	-11.5079
did	-11.508
▁delito	-11.5083
▁warrant	-11.5084
▁supper	-11.5086
▁mexican	-11.5091
▁orgolyo	-11.5091
ls	-11.5091
▁screen	-11.5094
▁pasan	-11.5095
▁violent	-11.5096
▁doors	-11.5097
▁komentarios	-11.5097
▁rikeza	-11.5099
▁chap	-11.5099
▁kreditos	-11.5099
▁fellas	-11.5102
▁etika	-11.5105
len	-11.5105
antes	-11.5105
▁golden	-11.5106
▁prevalensia	-11.5107
▁yevando	-11.5107
▁serrada	-11.5108
▁mina	-11.5108
▁concluded	-11.5111
▁kulturales	-11.5111
▁amava	-11.5112
▁mandato	-11.5112
▁ttp	-11.5114
▁puedyeron	-11.5114
▁koncluir	-11.5117
▁actors	-11.5118
▁refused	-11.5122
▁entitled	-11.5122
▁economies	-11.513
▁kapitulo	-11.513
▁laeken	-11.513
▁dekadas	-11.5133
▁fueras	-11.5134
▁posisiones	-11.5135
▁korona	-11.5136
▁ardjentina	-11.5138
▁lojika	-11.5138
▁rekuedro	-11.5138
▁hoped	-11.514
▁sonyar	-11.514
▁movies	-11.5143
▁attorney	-11.5145
▁invisible	-11.5145
▁britain	-11.5146
nie	-11.5151
cc	-11.5153
▁kelly	-11.5154
▁japonezo	-11.5154
▁pese	-11.5156
▁pasajeros	-11.5158
▁marked	-11.5165
▁prisoners	-11.5168
▁tornan	-11.5169
▁virtud	-11.517
▁mersed	-11.517
▁mortal	-11.517
▁deck	-11.5175
▁kubierta	-11.5177
▁assembly	-11.518
▁hidden	-11.5184
▁investigadores	-11.5187
▁wound	-11.5189
▁detailed	-11.5191
▁marta	-11.5195
▁integrated	-11.52
▁ferida	-11.5201
▁politicians	-11.5203
▁avryo	-11.5208
▁dekarselo	-11.5208
▁deny	-11.5208
▁desafio	-11.5209
▁tomamos	-11.521
▁ministerio	-11.521
▁operating	-11.5216
ent	-11.522
▁nasyo	-11.5223
▁poison	-11.5223
▁clasifikasion	-11.5226
▁foundation	-11.523
looking	-11.523
▁estrecha	-11.5231
▁controls	-11.5233
▁cattle	-11.5239
▁kasualidad	-11.5239
▁brains	-11.524
ura	-11.524
▁proportion	-11.5242
▁approve	-11.5243
▁diversion	-11.5244
▁kortijo	-11.5247
▁suele	-11.5247
▁manual	-11.5251
room	-11.5252
▁scientists	-11.5252
▁kuan	-11.5253
▁treasure	-11.5254
▁bedroom	-11.5255
▁users	-11.5256
▁aviones	-11.5258
▁overcome	-11.5259
▁indicate	-11.5261
▁technological	-11.5262
▁senyala	-11.5265
▁guadra	-11.5266
▁frankos	-11.5268
▁totalidad	-11.5268
▁welfare	-11.527
▁rovo	-11.527
▁somewhat	-11.5276
art	-11.5278
▁repente	-11.5278
▁nosotras	-11.5278
▁liberalisation	-11.5278
▁pakto	-11.5279
▁resulting	-11.5279
▁approximately	-11.528
▁sobre	-11.528
▁ambezi	-11.5282
▁sinyifikasion	-11.5283
▁title	-11.5285
▁elektrisita	-11.5286
▁ancient	-11.5287
▁relijion	-11.5287
▁indjeniero	-11.5288
▁plena	-11.529
▁gapo	-11.529
▁practically	-11.529
▁fuyir	-11.5294
▁sensibilidad	-11.5294
▁thursday	-11.5294
▁asukar	-11.5294
▁acid	-11.5294
▁tied	-11.5296
▁che	-11.53
fr	-11.5302
cher	-11.5304
▁intervenir	-11.5304
▁serian	-11.5311
▁buying	-11.5316
▁corn	-11.5316
▁william	-11.5316
ane	-11.5322
▁statements	-11.5325
▁transportes	-11.5325
▁innovasion	-11.5326
▁nasyon	-11.5327
▁lokos	-11.5329
▁diridjir	-11.5331
▁kruz	-11.5336
▁alice	-11.5337
▁brilliant	-11.5339
▁remaining	-11.5339
▁tempesta	-11.534
▁involve	-11.534
▁slightly	-11.5343
▁damos	-11.5343
▁afterwards	-11.5345
▁previsto	-11.5345
▁europol	-11.5348
▁sosios	-11.5348
▁pura	-11.5351
▁tejido	-11.5352
dimos	-11.5353
osa	-11.5355
▁sifras	-11.5363
▁watched	-11.5363
▁lagrimas	-11.5364
▁orientasion	-11.5366
▁barba	-11.5375
▁tornemos	-11.5377
▁outta	-11.5378
▁dealt	-11.5379
vis	-11.5381
▁profundidad	-11.5382
▁route	-11.5382
▁metes	-11.5383
▁agjero	-11.5383
▁ignore	-11.5385
▁kondesa	-11.5386
▁nonetheless	-11.5388
▁pensadas	-11.5388
eso	-11.5389
ee	-11.5392
▁cruel	-11.5396
ivo	-11.5396
▁djeneralmente	-11.5399
▁journal	-11.54
▁experiences	-11.54
▁kedi	-11.5401
▁inmigrantes	-11.5403
▁measured	-11.5404
nada	-11.5407
▁raises	-11.5407
▁serrado	-11.5407
net	-11.5411
▁fbi	-11.5413
▁konkretas	-11.5414
▁continuing	-11.5414
▁interpretasion	-11.5415
nder	-11.5415
▁enormes	-11.542
▁komunitarias	-11.542
▁taxi	-11.5421
▁taxes	-11.5423
▁terrorist	-11.5425
▁tornaron	-11.5427
▁pedryendo	-11.5428
▁ampliar	-11.543
▁dimensiones	-11.5431
▁lisensia	-11.5432
▁cure	-11.5433
▁izkiedro	-11.5436
▁recall	-11.5437
▁decade	-11.544
kal	-11.5441
▁turkish	-11.5444
▁sometime	-11.5445
▁dada	-11.5445
▁error	-11.5445
▁beve	-11.5447
▁victory	-11.5447
▁eva	-11.5448
eu	-11.5448
▁developments	-11.5454
▁lover	-11.5454
▁durasion	-11.5455
▁sheep	-11.5456
▁kadaver	-11.5459
▁buried	-11.546
▁evolution	-11.546
▁statistics	-11.5461
▁resientes	-11.5463
▁ghost	-11.5465
▁desharlo	-11.5467
▁maldision	-11.5468
▁involvement	-11.5468
▁movilidad	-11.5469
▁puedimos	-11.5472
solo	-11.5474
▁woods	-11.5475
▁passion	-11.5475
▁demandan	-11.5476
▁pregnant	-11.5476
▁empesando	-11.5481
▁pareses	-11.5483
▁sekretos	-11.5484
work	-11.5486
▁supa	-11.5487
▁excellency	-11.5492
▁malos	-11.5494
▁frame	-11.5495
▁abandono	-11.5495
▁propiedades	-11.5496
▁resolve	-11.5497
▁highlight	-11.5499
▁okultar	-11.55
▁gap	-11.55
▁follows	-11.5504
stra	-11.5505
▁infrastruktura	-11.5506
▁statistical	-11.5506
▁behaviour	-11.5508
▁cd	-11.5509
▁chapter	-11.5514
▁miel	-11.552
▁divided	-11.5521
die	-11.5521
▁ekstraodrinario	-11.5524
▁respektivamente	-11.5524
▁exact	-11.5528
lt	-11.5529
▁vivienda	-11.553
▁il	-11.5533
▁akabado	-11.5534
▁wire	-11.5534
▁beef	-11.5535
▁poder	-11.5535
▁nadar	-11.5537
▁servant	-11.5537
▁fundamento	-11.5543
▁wto	-11.5544
▁kubrir	-11.5544
ability	-11.5546
▁description	-11.5548
▁rais	-11.5549
▁yegada	-11.5549
▁kruel	-11.5551
▁connected	-11.5551
▁ron	-11.5554
▁estimated	-11.5555
▁limitar	-11.5556
itas	-11.5557
▁lastly	-11.556
▁facilitate	-11.5561
▁emosion	-11.5562
▁eskuza	-11.5563
▁siguan	-11.5574
▁degrees	-11.5578
▁historical	-11.5579
▁slept	-11.5581
▁sospeka	-11.5581
▁bathroom	-11.5581
▁waters	-11.5581
▁bushkan	-11.5581
▁goodness	-11.5584
▁owner	-11.5585
ense	-11.5587
▁komprension	-11.5589
▁license	-11.5589
ai	-11.5589
▁photo	-11.559
▁conflicts	-11.5594
▁ekipos	-11.5595
▁approval	-11.5597
▁kerian	-11.5598
▁behave	-11.5598
▁shore	-11.56
▁gozar	-11.5603
▁zero	-11.5604
▁senyalo	-11.5605
▁eksidjensias	-11.5608
▁extended	-11.5609
▁democrats	-11.561
▁windows	-11.561
▁teachers	-11.5611
▁accidents	-11.5611
▁rara	-11.5612
▁azete	-11.5613
▁pink	-11.5613
▁classification	-11.5613
▁meterme	-11.5621
▁manifiesto	-11.5621
▁papi	-11.5621
▁espantozo	-11.5624
▁researchers	-11.5626
▁resive	-11.563
▁unhappy	-11.563
pu	-11.5632
▁oliver	-11.5632
▁organised	-11.5634
▁dezeyan	-11.5636
▁kongreso	-11.5637
▁substantial	-11.5638
▁formed	-11.5639
▁producers	-11.564
pp	-11.5641
▁payments	-11.5644
▁emphasise	-11.5645
▁integral	-11.5645
▁dezierto	-11.5645
▁fleksibilidad	-11.5645
▁selected	-11.5647
ning	-11.5649
ario	-11.5653
▁enemies	-11.5654
▁foolish	-11.5654
▁estupida	-11.5654
▁prevenir	-11.5654
▁monkey	-11.5654
▁alemanes	-11.5656
▁),	-11.5656
▁desente	-11.566
▁emily	-11.5664
▁semi	-11.5666
▁accused	-11.5666
▁pit	-11.567
▁combination	-11.567
▁garantia	-11.567
▁ch	-11.5671
ture	-11.5674
▁sha	-11.5675
mis	-11.5675
▁muryeron	-11.5678
▁lou	-11.5682
▁awfully	-11.5684
tch	-11.5685
▁veikulos	-11.5686
▁midnight	-11.5686
▁komyendo	-11.5686
▁truko	-11.5687
kos	-11.5688
▁konsideran	-11.5689
▁images	-11.569
▁recognized	-11.569
▁chuck	-11.5691
▁profesion	-11.5694
▁mistress	-11.5694
▁konsege	-11.57
▁alliance	-11.5703
lan	-11.5704
▁thick	-11.5704
down	-11.5708
▁competitive	-11.5709
▁esperansas	-11.5709
▁rice	-11.571
▁lansar	-11.5711
▁relationships	-11.5714
▁kreerlo	-11.5717
▁rod	-11.5719
▁referendum	-11.5719
ford	-11.572
▁allowing	-11.572
▁resultar	-11.5721
▁engineering	-11.5722
▁demedio	-11.5724
sita	-11.5724
▁controlled	-11.5724
▁ekivokada	-11.5729
▁tin	-11.573
▁arkitektura	-11.5735
rate	-11.5735
▁judicial	-11.5736
▁utilidad	-11.5737
get	-11.5739
▁strict	-11.5739
▁suba	-11.5741
▁baker	-11.5742
▁thrown	-11.5743
▁nowhere	-11.5747
▁rejected	-11.5747
▁kreser	-11.5749
▁reward	-11.575
▁unique	-11.5752
▁cod	-11.5752
▁sobrevivir	-11.5752
▁ocsidental	-11.5753
▁oriental	-11.5755
▁eric	-11.5756
▁topates	-11.5758
▁estandar	-11.576
▁chase	-11.5763
▁dudo	-11.5764
▁animo	-11.5764
▁saltar	-11.5765
▁oyyendo	-11.5765
▁stanley	-11.5769
▁omc	-11.5769
▁siviles	-11.5769
▁sinyatura	-11.577
▁kinezo	-11.577
▁obtenidos	-11.5771
▁directives	-11.5772
▁contained	-11.5775
▁channel	-11.5778
▁numeros	-11.5779
▁pale	-11.5781
▁replace	-11.5781
▁launch	-11.5781
▁fur	-11.5784
▁grandmother	-11.5785
▁pare	-11.5788
▁engine	-11.579
▁joined	-11.5792
mann	-11.5792
▁tells	-11.5793
▁arraviado	-11.5793
▁valley	-11.5794
▁wing	-11.5796
▁afektados	-11.5796
▁terry	-11.5799
▁digital	-11.5801
▁pastor	-11.5804
▁dust	-11.5805
▁tasks	-11.5805
▁aktivo	-11.5806
▁hung	-11.5806
▁dispozar	-11.5808
▁comparison	-11.5812
▁dynamic	-11.5814
▁permitame	-11.5815
▁rob	-11.5816
▁dyera	-11.5818
▁ekstremo	-11.5819
▁crown	-11.5825
▁konseder	-11.5825
▁museum	-11.5826
▁payment	-11.5829
▁hacerlo	-11.583
▁organisar	-11.5836
▁akseptar	-11.5837
▁scare	-11.5838
▁habit	-11.5839
▁earn	-11.584
▁goals	-11.584
▁bra	-11.584
▁whoa	-11.5841
▁ambitious	-11.5843
▁mobility	-11.5843
▁substances	-11.5845
html	-11.5845
▁player	-11.5845
▁knight	-11.5846
yer	-11.5848
ntergbernamental	-11.5851
▁muzeo	-11.5851
▁reputation	-11.5851
▁acute	-11.5851
▁topic	-11.5851
▁desidido	-11.5851
▁pollution	-11.5859
▁mezcla	-11.5862
▁segida	-11.5864
▁consent	-11.5864
▁formation	-11.5865
▁wished	-11.5867
▁audiensia	-11.5868
▁modifikasion	-11.587
▁recommend	-11.5871
▁cabin	-11.5872
▁plastic	-11.5873
▁aims	-11.5876
▁indians	-11.5878
▁airport	-11.588
▁lab	-11.5882
pen	-11.5882
▁pagos	-11.5882
▁declaro	-11.5884
rin	-11.5885
▁permitan	-11.5887
▁mu	-11.5888
▁hunting	-11.5889
▁foster	-11.5889
▁involves	-11.5889
▁concentrate	-11.589
▁leadership	-11.5893
▁friendship	-11.5894
▁sanctions	-11.5894
▁thereby	-11.5894
▁elsewhere	-11.5894
▁root	-11.5895
▁marty	-11.5896
ab	-11.5902
▁confess	-11.5905
ard	-11.5909
▁barcelona	-11.5909
▁kastigo	-11.5909
▁afektan	-11.5913
▁ethical	-11.5913
▁height	-11.5916
▁francs	-11.5916
▁alimentasion	-11.5918
▁djenera	-11.5919
▁pasava	-11.5921
▁criticism	-11.5922
▁rooms	-11.5922
▁convince	-11.5923
ntergovernmental	-11.5925
▁reglar	-11.5925
▁andrew	-11.5926
▁ends	-11.5929
▁erramienta	-11.593
▁balanced	-11.5933
▁conscience	-11.5935
▁dozen	-11.5937
▁tone	-11.5939
▁solusionar	-11.5943
▁merkaras	-11.5944
▁household	-11.5949
▁lily	-11.5949
▁argentina	-11.5951
▁released	-11.5954
▁fran	-11.5955
▁tomado	-11.5956
▁mios	-11.5957
oo	-11.596
▁realizados	-11.5963
▁combined	-11.5966
▁del	-11.597
izada	-11.5974
▁testing	-11.5975
▁yamando	-11.5976
▁financing	-11.5976
▁rekuedros	-11.5985
▁barselona	-11.5985
▁rapidez	-11.5985
▁evaluated	-11.5986
▁ruined	-11.599
▁letra	-11.5992
▁tomaron	-11.5994
▁syndrome	-11.5995
▁aventura	-11.5998
▁sch	-11.5999
▁sailor	-11.5999
gg	-11.6
▁grass	-11.6004
king	-11.6006
▁architecture	-11.601
▁empire	-11.601
▁trate	-11.6011
▁bodre	-11.6011
▁eksclusion	-11.6012
▁painting	-11.6014
▁unfortunate	-11.6016
▁atensioos	-11.6019
▁effectiveness	-11.6021
▁komplikado	-11.6021
▁gene	-11.6022
▁embia	-11.6023
hey	-11.6023
▁diputado	-11.6024
▁ensenyanza	-11.6024
▁avles	-11.6024
▁drew	-11.6028
▁coal	-11.6032
▁portuguese	-11.6038
▁factory	-11.6038
▁retirar	-11.6038
▁konsiderable	-11.6039
▁fantasma	-11.6041
▁polisiyas	-11.6043
▁offers	-11.6044
▁alerta	-11.6045
▁kombinasion	-11.6046
▁observation	-11.6049
▁kriter	-11.6051
▁awake	-11.6052
▁alevanto	-11.6053
▁asepta	-11.6059
▁flexibility	-11.6061
▁societies	-11.6061
▁mademoiselle	-11.6063
▁noted	-11.6063
eros	-11.6072
dri	-11.6074
▁fiscal	-11.6078
oc	-11.6082
▁quarters	-11.6082
▁delivery	-11.6084
▁asperen	-11.6084
▁elegante	-11.6086
ara	-11.6086
rlo	-11.6086
▁imagination	-11.6086
▁djugeves	-11.6087
▁remarkable	-11.6087
ure	-11.6087
ala	-11.6091
▁enyega	-11.6092
▁direktivas	-11.6092
▁movements	-11.6094
▁burned	-11.6094
ov	-11.6099
▁narrow	-11.6104
▁komi	-11.6104
▁eramos	-11.6104
▁desempenyar	-11.6105
▁enganyar	-11.6109
▁routine	-11.611
▁seremonia	-11.6112
▁molesto	-11.6112
▁tourism	-11.6112
bel	-11.6114
▁transformasion	-11.6114
▁demandas	-11.6115
▁nucleares	-11.6116
▁golor	-11.6116
▁purposes	-11.6116
▁eskapado	-11.6118
sida	-11.6121
▁afekto	-11.6121
▁penny	-11.6129
▁enkargo	-11.6138
▁tank	-11.6138
▁meanwhile	-11.6138
ising	-11.614
▁revealed	-11.614
▁bezar	-11.6141
▁rechasar	-11.6144
▁salvaje	-11.6145
▁enkantador	-11.6149
▁generous	-11.6152
tml	-11.6153
ius	-11.6155
▁autentiko	-11.6155
▁posiblemente	-11.6155
▁drove	-11.6157
▁negosiasion	-11.6157
▁darse	-11.6158
▁recorded	-11.6158
▁duck	-11.6159
▁siclo	-11.6159
▁col	-11.6159
▁espasios	-11.6161
▁komponentes	-11.6162
▁countess	-11.6164
▁ligado	-11.6165
▁sports	-11.6172
▁jose	-11.6175
▁remembered	-11.6176
gue	-11.6178
▁kuriozita	-11.618
▁joan	-11.6183
▁indikadores	-11.6184
▁edge	-11.6185
▁obvio	-11.6189
▁cos	-11.6189
▁cr	-11.6192
▁telegrama	-11.6193
tive	-11.6194
▁dna	-11.6196
▁reputasion	-11.6198
▁extension	-11.6198
▁disappointed	-11.6199
▁kent	-11.62
▁nemo	-11.6202
▁proseder	-11.6204
▁announced	-11.6205
▁cesar	-11.6205
▁febrero	-11.6206
▁trajedia	-11.6206
▁liberar	-11.6207
▁sierre	-11.6207
▁aunar	-11.6209
▁dezeyamos	-11.6212
▁olvide	-11.6212
nas	-11.6214
▁konsiliasion	-11.6215
▁malorozamente	-11.6215
▁flag	-11.6221
▁eskrive	-11.6223
▁aeropuerto	-11.6223
▁mmm	-11.6225
berg	-11.6226
▁intelligent	-11.6227
▁argmento	-11.6232
▁obtenyo	-11.6232
tte	-11.6237
▁cents	-11.6239
▁aviso	-11.6241
▁francisco	-11.625
ete	-11.6251
▁sweden	-11.6251
▁egg	-11.6251
▁miralo	-11.6252
▁blokeo	-11.6253
eya	-11.6254
▁numerous	-11.6256
▁transision	-11.6258
▁lend	-11.6259
▁suave	-11.626
more	-11.6264
▁edifisios	-11.6266
▁laboratory	-11.6267
▁yerro	-11.6268
▁especifikas	-11.6268
▁dragon	-11.627
▁iria	-11.6273
▁residensia	-11.6275
▁necessarily	-11.6275
▁creature	-11.6276
▁tear	-11.6277
▁akaban	-11.6278
▁contributions	-11.6278
▁ancho	-11.6279
aki	-11.6281
▁testigos	-11.629
▁marino	-11.629
▁poezia	-11.6294
▁supo	-11.6296
▁protecting	-11.63
▁renal	-11.6302
▁relatively	-11.6305
▁adisionales	-11.6308
▁keresh	-11.6309
▁abitual	-11.631
▁miracle	-11.6312
ite	-11.6314
▁afrontar	-11.6315
▁yugoslavia	-11.6315
▁durme	-11.6316
▁demonstrate	-11.6318
):	-11.6318
▁bullet	-11.6318
▁kalendario	-11.6319
▁turismo	-11.6319
▁previa	-11.6322
▁produzen	-11.6324
▁paresa	-11.6329
▁presta	-11.6329
▁requested	-11.633
▁concert	-11.6332
hand	-11.6334
▁aparesyo	-11.6336
▁bisikleta	-11.6336
▁especifiko	-11.6338
▁rising	-11.6338
▁legitimate	-11.6338
ft	-11.634
▁judgment	-11.634
▁relasionado	-11.6345
▁rapidly	-11.6349
▁rekisitos	-11.6352
▁ze	-11.6357
▁begun	-11.6358
▁puro	-11.6359
▁useless	-11.6359
▁estimados	-11.636
▁survival	-11.6362
▁cheese	-11.6363
▁fleet	-11.6366
▁apareser	-11.6367
▁preparados	-11.6367
▁guards	-11.6369
▁tradision	-11.6371
▁transmision	-11.6371
▁ekstremadamente	-11.6371
▁ekstension	-11.6371
▁importaria	-11.6372
monos	-11.6373
▁monster	-11.6374
▁konsegimos	-11.6376
▁objektos	-11.6378
▁adult	-11.6379
▁arranged	-11.6381
▁negativo	-11.6382
▁jesse	-11.6388
▁azerias	-11.6388
▁pres	-11.6389
▁desempenyo	-11.6389
▁moda	-11.6389
▁constantly	-11.6392
▁brandy	-11.6395
▁begins	-11.6397
▁claims	-11.6397
▁identification	-11.6398
▁profile	-11.64
european	-11.6401
▁august	-11.6401
▁mistaken	-11.6402
▁rekompensa	-11.6402
▁mid	-11.6407
▁aktor	-11.6409
use	-11.6411
▁enfrenta	-11.6411
▁delivered	-11.6413
▁repetar	-11.6414
▁federation	-11.6415
▁fayo	-11.6415
▁ekonomias	-11.6416
""."	-11.6416
▁sensiyamente	-11.6416
bre	-11.6417
▁tornaria	-11.6423
▁february	-11.6424
▁pagan	-11.6425
▁espasial	-11.6425
▁monstruo	-11.6427
▁sentrales	-11.6428
▁forth	-11.6428
▁marine	-11.6431
▁aplika	-11.6432
▁monetaria	-11.6433
▁eskrivi	-11.6433
▁bell	-11.6434
cia	-11.6435
▁tail	-11.6435
▁obliged	-11.6435
▁yerva	-11.6436
▁gastar	-11.6443
▁circle	-11.6443
ris	-11.6445
▁lavorava	-11.6445
▁sepas	-11.6446
▁lied	-11.6446
▁decrease	-11.6449
▁primaria	-11.6453
▁preparing	-11.6459
▁prometyo	-11.6459
▁suitable	-11.646
▁avias	-11.6462
▁wheel	-11.6463
yen	-11.6465
▁determinados	-11.6465
boy	-11.6466
▁puedesh	-11.6467
sized	-11.6468
▁emperor	-11.6468
rado	-11.647
▁targets	-11.647
▁dispuesta	-11.6471
▁cliniko	-11.6473
▁sofa	-11.6474
▁torture	-11.6474
▁mix	-11.6475
▁profil	-11.6475
▁empesamos	-11.6476
▁emotional	-11.6479
chan	-11.6481
▁engagement	-11.6486
▁invitation	-11.6486
▁tripulasion	-11.6488
▁listened	-11.6489
▁magazine	-11.6489
▁sought	-11.649
▁drinks	-11.6494
▁carriage	-11.6495
▁nesesariamente	-11.6495
▁repeto	-11.6495
▁romantic	-11.6495
▁climb	-11.6495
▁interfere	-11.6495
▁atraktivo	-11.6503
▁respectively	-11.6505
▁grados	-11.6511
▁desempleo	-11.6512
pin	-11.6515
▁grito	-11.652
▁sum	-11.652
▁frankie	-11.6524
▁nothin	-11.6529
▁entry	-11.653
▁sinta	-11.653
▁ensupito	-11.653
▁mistakes	-11.6531
▁humans	-11.6532
▁trail	-11.6535
▁dji	-11.6536
pat	-11.6538
▁zimbabwe	-11.6539
▁genius	-11.6539
▁ronda	-11.6539
▁imperador	-11.6541
▁lento	-11.6543
▁akuedro	-11.6548
▁steady	-11.6548
▁pierre	-11.655
▁shoe	-11.6551
▁obstakolos	-11.6551
▁relativamente	-11.6552
▁anteriormente	-11.6554
▁latina	-11.6556
▁entrenamiento	-11.6557
▁rekonstrucsion	-11.6557
▁merry	-11.6557
▁applying	-11.6558
▁estima	-11.656
▁ratio	-11.6562
▁desapareser	-11.6564
▁entenderlo	-11.6564
▁options	-11.6565
▁eskapi	-11.6566
fodr	-11.6568
▁budgets	-11.6574
▁conciliation	-11.6575
hara	-11.6576
▁koneksion	-11.6577
▁onu	-11.6577
▁solana	-11.6577
▁savria	-11.6579
▁kategorias	-11.658
▁esensiales	-11.6582
▁thin	-11.6583
▁konversasiones	-11.6586
▁hook	-11.6588
▁kombustible	-11.6589
▁efektiva	-11.6591
▁konservar	-11.6592
▁examples	-11.6593
▁session	-11.6594
▁vedres	-11.6595
▁suesia	-11.6602
▁wong	-11.6603
brien	-11.6603
▁eventos	-11.6605
▁imperial	-11.6616
▁harder	-11.6617
▁ease	-11.6618
▁wayne	-11.6621
▁tradition	-11.6624
▁konsiderado	-11.6625
anos	-11.6625
▁reject	-11.6626
▁hyper	-11.6627
▁tragedy	-11.6628
▁inmediata	-11.6632
▁kompasion	-11.6638
▁toman	-11.664
▁pacifiko	-11.6646
▁biological	-11.6647
▁pearl	-11.6647
▁temor	-11.6647
▁interpretation	-11.6647
▁wiyiam	-11.6648
estado	-11.6649
▁mirakolo	-11.6653
▁egypt	-11.6654
▁distrito	-11.6655
▁eksidjir	-11.6655
▁tornates	-11.6657
dora	-11.666
▁kultivo	-11.6662
▁principal	-11.6662
ists	-11.6662
▁respaldo	-11.6664
▁peru	-11.6665
▁diet	-11.6667
▁especifikos	-11.6672
▁speakers	-11.6673
▁offering	-11.6675
▁protest	-11.6676
rk	-11.6678
▁rekurso	-11.668
▁prometi	-11.6684
ped	-11.6686
▁michel	-11.6689
▁transparent	-11.669
▁asenten	-11.6693
▁torre	-11.67
▁escaped	-11.6701
▁pedridas	-11.6701
▁clay	-11.6701
▁mirror	-11.6707
▁kausar	-11.6709
▁enyego	-11.671
▁disminuir	-11.671
▁aburrido	-11.671
▁bagaje	-11.671
dl	-11.6715
▁afirma	-11.6715
▁vacation	-11.6715
▁povereto	-11.6717
▁categories	-11.6719
▁whilst	-11.6719
▁tropas	-11.6719
gu	-11.672
▁chu	-11.6722
▁yevado	-11.6722
▁anxious	-11.6725
▁dispositivo	-11.6726
▁elaine	-11.6727
▁salyendo	-11.6728
▁konfirmar	-11.673
▁bovedad	-11.673
▁semento	-11.6732
▁estando	-11.6734
▁planteamiento	-11.6735
▁kuedra	-11.6735
sto	-11.6736
▁alas	-11.674
zu	-11.6742
▁edward	-11.6748
▁splendid	-11.6749
▁rayos	-11.6751
▁freedoms	-11.6752
▁worthy	-11.6754
▁temporada	-11.6755
tur	-11.6758
▁tradisional	-11.6759
▁kedaron	-11.6764
▁diabetes	-11.6764
▁estruktural	-11.6764
▁hearts	-11.6768
lon	-11.6771
▁congress	-11.6772
▁kra	-11.6772
▁sindrome	-11.6773
▁suggests	-11.6775
▁invitado	-11.6779
▁korrelasion	-11.678
▁individuo	-11.6781
▁independence	-11.6782
▁gdp	-11.6782
▁penalty	-11.6783
sol	-11.6784
▁asosiados	-11.6784
▁fusion	-11.6787
▁deskrivir	-11.6787
▁angle	-11.679
▁falso	-11.6791
▁akontesa	-11.6791
▁babies	-11.6791
▁liberty	-11.6792
▁akordas	-11.6792
▁trend	-11.6794
▁dinamika	-11.6796
▁slave	-11.6797
▁profession	-11.6798
▁mazalozo	-11.68
stru	-11.68
▁periodista	-11.6802
▁mask	-11.6805
▁rescue	-11.6807
▁normativa	-11.6809
▁atmosphere	-11.681
bb	-11.6811
▁impuesto	-11.6818
▁suvir	-11.6819
▁avisar	-11.6821
▁mankan	-11.6821
▁probabilidad	-11.6821
▁vinido	-11.6822
▁examined	-11.6824
▁akusado	-11.6826
▁kalmos	-11.6828
▁naked	-11.6828
bilidad	-11.6829
▁ayudarle	-11.683
▁eksplotasion	-11.683
▁numerosos	-11.6831
amiento	-11.6831
red	-11.6833
▁rocks	-11.6835
▁rope	-11.6836
▁sue	-11.6837
▁shopping	-11.6837
▁implications	-11.6845
▁charlotte	-11.6846
▁cutting	-11.685
▁fo	-11.6851
▁peri	-11.6851
▁reserve	-11.6852
ging	-11.6853
▁protected	-11.6853
▁imperio	-11.6855
▁postal	-11.6855
▁andjeles	-11.6858
▁enjoyed	-11.6859
▁chances	-11.6859
▁metites	-11.6863
▁avenue	-11.6865
▁evident	-11.6865
▁entisiones	-11.6867
▁repeated	-11.6871
▁indicators	-11.6877
▁toko	-11.6879
▁recognised	-11.688
▁reaching	-11.6881
▁profesores	-11.6882
▁karvon	-11.6883
▁dje	-11.6886
▁komunitarios	-11.6887
▁italiano	-11.6889
▁patent	-11.689
mal	-11.689
▁pasharo	-11.6893
▁passage	-11.6893
▁passengers	-11.6893
▁bre	-11.6894
▁ayegando	-11.6896
▁norman	-11.6897
pon	-11.6901
▁trafficking	-11.6902
▁evans	-11.6902
▁espejo	-11.6902
▁rifle	-11.6902
▁assistant	-11.6903
▁renunsiar	-11.6903
▁colombian	-11.6905
▁beast	-11.6906
▁tire	-11.6907
▁expectations	-11.691
▁ruth	-11.6913
▁outfit	-11.6916
▁bilietoes	-11.6917
▁grade	-11.6919
▁tomen	-11.6919
▁thirdly	-11.692
▁votes	-11.6924
▁frankly	-11.6924
▁jam	-11.693
▁elektroniko	-11.693
▁jenerozo	-11.6931
▁receiving	-11.6938
▁reushyo	-11.6938
▁inaseptable	-11.694
▁houses	-11.694
▁kane	-11.6941
kur	-11.6941
▁illness	-11.6943
stro	-11.6943
▁nucleo	-11.6943
▁punishment	-11.6948
▁mura	-11.6949
▁kampo	-11.6949
▁aseptable	-11.695
▁fuelo	-11.6952
▁constructive	-11.6955
▁declare	-11.6955
▁ultimately	-11.6958
▁juzgar	-11.6966
▁headquarters	-11.6966
related	-11.6968
▁batman	-11.6968
kra	-11.6972
dicho	-11.6973
▁bond	-11.6973
▁hiv	-11.6975
▁inkapie	-11.6976
▁sharon	-11.6977
▁pedronar	-11.6977
▁shower	-11.6978
▁vessel	-11.6978
▁ziro	-11.6983
▁ate	-11.6983
▁tortura	-11.6983
▁switch	-11.6986
▁nervios	-11.6986
▁pr	-11.699
right	-11.6991
▁indikar	-11.6993
▁justamente	-11.6993
▁enfermeras	-11.6994
▁bretanya	-11.6994
dar	-11.7001
▁spell	-11.7001
▁pizza	-11.7004
nor	-11.7004
▁worldwide	-11.7005
▁definitivamente	-11.7006
▁uzan	-11.7008
▁reporter	-11.701
▁divorsio	-11.7013
▁edjipto	-11.7013
▁adopting	-11.7014
▁declared	-11.7015
▁carbon	-11.7019
▁finansiar	-11.702
▁gratis	-11.7022
▁contain	-11.7023
▁dunke	-11.7024
▁akabe	-11.7028
▁inkluen	-11.7028
▁precise	-11.7029
itos	-11.703
▁dude	-11.7031
▁sentensia	-11.7031
▁abroad	-11.7032
▁pasamos	-11.7035
▁kronika	-11.7038
ska	-11.7042
▁paredes	-11.7044
▁troops	-11.7047
▁medias	-11.7048
▁tokyo	-11.705
▁healthcare	-11.7051
▁personnel	-11.7052
▁importe	-11.7054
▁pasion	-11.7055
▁stages	-11.7056
▁eskolas	-11.7057
▁homer	-11.7059
▁exclusion	-11.706
▁avrian	-11.706
▁hunt	-11.7066
▁players	-11.7067
▁diagnostic	-11.7069
▁durmyendo	-11.7069
▁sinseramente	-11.7069
▁roads	-11.7072
▁perra	-11.7072
▁radical	-11.7076
▁mesurar	-11.7077
▁platform	-11.7078
▁deficit	-11.7082
alo	-11.7085
▁closing	-11.7085
▁plate	-11.7086
▁causing	-11.7088
▁numerosas	-11.709
▁bon	-11.709
▁acknowledge	-11.7095
▁ivas	-11.7096
▁endoscopic	-11.7097
▁stairs	-11.7098
▁picking	-11.7103
tesh	-11.7104
▁rick	-11.7105
▁nasyones	-11.7106
▁konkretamente	-11.7108
▁conventional	-11.7109
▁zoo	-11.7111
mina	-11.7113
▁aparision	-11.7116
▁miller	-11.7116
▁superiores	-11.7117
▁jacket	-11.7117
▁seamos	-11.7119
▁interesado	-11.7119
some	-11.7121
▁rosa	-11.7122
▁gary	-11.7123
▁pursue	-11.7124
▁maneras	-11.7126
▁inkrementar	-11.7126
▁elaborar	-11.713
▁consequence	-11.713
▁fransezes	-11.713
▁makinas	-11.7135
▁ambasador	-11.7138
▁novle	-11.7139
▁respected	-11.714
▁polo	-11.714
▁metan	-11.714
▁intentarlo	-11.7142
ical	-11.7142
▁simpatiko	-11.7144
▁accounts	-11.7144
▁invasion	-11.7145
▁kritikas	-11.7146
▁atakes	-11.7147
▁carl	-11.7148
▁muscle	-11.7149
▁empiegado	-11.7149
▁obligation	-11.7149
▁djen	-11.7152
▁moderna	-11.7152
▁sobra	-11.7153
▁yamadas	-11.7155
▁pact	-11.7156
▁occasions	-11.7158
▁philip	-11.7159
▁adults	-11.7161
▁functions	-11.7162
▁grey	-11.7163
cker	-11.7165
▁johnson	-11.7166
▁confused	-11.7167
▁dissiplina	-11.7167
ikas	-11.7168
▁obligations	-11.7168
ray	-11.7169
▁puerpos	-11.7169
▁diana	-11.717
▁bro	-11.717
▁fuga	-11.7172
▁relief	-11.7173
▁dependent	-11.7173
▁wanting	-11.7175
▁dezeyava	-11.7175
▁niles	-11.7177
▁rut	-11.7179
▁tune	-11.7181
ade	-11.7183
▁felisito	-11.7192
▁konduze	-11.7193
▁qui	-11.7194
▁bushkava	-11.7194
▁vast	-11.7194
▁clinic	-11.7198
▁pour	-11.72
▁pinta	-11.72
▁sesiones	-11.7201
▁djaketa	-11.7201
▁vyera	-11.7202
▁employed	-11.7204
▁exception	-11.7204
▁konserto	-11.7207
▁generated	-11.721
war	-11.7211
▁retire	-11.7212
▁deserves	-11.7213
▁interacsion	-11.7214
ned	-11.7214
▁rekeren	-11.7214
▁islands	-11.7215
▁parametros	-11.7215
border	-11.7217
▁fake	-11.7222
▁enganyo	-11.7225
▁interaction	-11.7226
del	-11.7227
▁tragic	-11.723
▁aramis	-11.723
▁ayudame	-11.723
▁laura	-11.7234
▁apunta	-11.7236
▁ic	-11.7238
▁writer	-11.7238
▁florida	-11.724
▁truo	-11.7242
▁talent	-11.7242
▁compensation	-11.7243
▁pla	-11.7244
▁ages	-11.7244
scale	-11.7244
▁preokuparse	-11.7247
▁humanity	-11.7247
▁oksidjeno	-11.7249
▁productivity	-11.7249
wi	-11.7249
▁nancy	-11.7249
▁eksclusivamente	-11.725
▁wounded	-11.7254
▁validja	-11.7255
▁afirmar	-11.7257
nu	-11.7258
▁retiro	-11.7258
▁kritiko	-11.7258
▁editorial	-11.7261
▁cigarettes	-11.7263
▁bloke	-11.7266
▁yamamos	-11.7268
▁flesh	-11.7268
▁mechanical	-11.727
▁individuales	-11.7271
▁vehicles	-11.7272
▁tersero	-11.7275
kada	-11.7281
▁neutral	-11.7284
▁luis	-11.7286
gastrointestinal	-11.7287
▁adopto	-11.7289
▁awareness	-11.7289
▁proposes	-11.729
▁agrikolas	-11.729
▁collected	-11.7292
▁render	-11.7294
▁sigaro	-11.7294
▁pri	-11.7296
▁flexible	-11.7297
▁borrow	-11.7299
via	-11.7302
▁enterprises	-11.7304
▁eaten	-11.7306
▁absudro	-11.7306
bus	-11.7313
ben	-11.7314
▁avlarle	-11.7315
▁mommy	-11.7318
▁joseph	-11.7324
▁arroz	-11.7326
▁gastric	-11.7327
▁substance	-11.7333
▁oxygen	-11.7335
▁possibilities	-11.7335
▁deshamos	-11.734
▁contest	-11.7341
▁hopes	-11.7342
▁meps	-11.7345
▁childhood	-11.7345
▁belt	-11.7347
▁laboriozo	-11.7348
▁desharme	-11.7349
▁estemos	-11.7352
▁ekstrema	-11.7355
▁tarzan	-11.7355
▁features	-11.7356
▁palm	-11.7358
▁savesh	-11.7359
▁especifika	-11.7361
▁garantias	-11.7364
▁produktividad	-11.7364
▁ido	-11.7365
▁sc	-11.7367
rar	-11.7368
▁incident	-11.7371
▁negativa	-11.7371
▁establesen	-11.7371
▁apropiado	-11.7373
▁subsidies	-11.7374
▁interno	-11.7376
▁espanta	-11.7378
▁puedites	-11.7382
▁eksperto	-11.7382
▁parker	-11.7384
▁adisional	-11.7385
▁mobile	-11.7386
▁meldando	-11.7386
▁kole	-11.7388
▁strain	-11.7388
▁kriatura	-11.7392
▁diridje	-11.7393
▁pedrimos	-11.7393
▁pantaya	-11.7393
▁defensor	-11.7396
▁satisfecho	-11.7402
▁signifikativo	-11.7402
▁bien	-11.7405
mr	-11.741
▁alert	-11.7411
▁exkusa	-11.7412
▁plasa	-11.7412
▁efisiensia	-11.7413
▁desharia	-11.7415
shi	-11.7415
▁voti	-11.7416
▁salva	-11.742
▁dominasion	-11.7423
▁eko	-11.7423
▁estadistikas	-11.7426
▁sink	-11.7427
▁frekuente	-11.7427
▁exposed	-11.7427
▁county	-11.743
▁beam	-11.743
▁kullanean	-11.7431
ates	-11.7433
▁kezo	-11.7433
▁nato	-11.7433
ela	-11.7436
▁robot	-11.7436
▁carter	-11.7436
▁odreno	-11.7437
▁sta	-11.7439
▁roka	-11.744
▁discover	-11.744
▁olaf	-11.744
▁determination	-11.744
mor	-11.7442
▁melda	-11.7443
▁danish	-11.7443
▁sisters	-11.745
▁preparation	-11.7451
▁gayna	-11.7453
cla	-11.7456
▁presentadas	-11.7456
▁lados	-11.7456
▁erika	-11.746
▁nasimiento	-11.7461
▁dose	-11.7464
▁vitesh	-11.7465
▁merkancias	-11.7467
▁poseda	-11.7468
▁evaluate	-11.7468
▁violin	-11.7469
▁significance	-11.7471
▁imenso	-11.7471
▁vayase	-11.7473
▁probe	-11.7473
mb	-11.7474
▁fox	-11.7477
▁strengthening	-11.7478
▁virtual	-11.748
▁jefferson	-11.7481
▁yamamiento	-11.7483
▁cal	-11.7485
▁doug	-11.7487
▁vietnam	-11.7487
▁continuous	-11.7488
▁celebrate	-11.7489
▁desagradable	-11.7491
▁mostraron	-11.7493
▁delitos	-11.7493
▁kazo	-11.7494
▁bang	-11.7497
ming	-11.7497
▁movimieno	-11.75
▁customers	-11.7503
▁unlike	-11.7503
rg	-11.7504
▁uvyeras	-11.7504
▁modified	-11.751
▁presision	-11.751
ang	-11.7513
▁likewise	-11.7514
▁notion	-11.7514
▁cycle	-11.7514
▁components	-11.7515
▁blues	-11.7517
▁elevado	-11.7523
▁bovos	-11.7524
▁kompra	-11.7525
▁separar	-11.7525
▁aygamos	-11.7528
▁kg	-11.7531
▁adorable	-11.7531
▁elektrika	-11.7531
▁instalasiones	-11.7533
▁estatal	-11.7534
▁smooth	-11.7537
▁agencies	-11.754
▁precious	-11.754
▁kuento	-11.7541
▁rude	-11.7546
▁bukes	-11.7547
▁parameters	-11.7547
▁chose	-11.7548
gle	-11.7549
▁kompetitividad	-11.755
▁esuchame	-11.755
▁droga	-11.7555
▁abandoned	-11.7558
cal	-11.7558
▁eskaleras	-11.7561
▁insane	-11.7561
▁indjenieria	-11.7566
look	-11.7568
med	-11.7571
▁limitasiones	-11.7574
▁kissed	-11.7576
▁cooking	-11.7578
▁barney	-11.758
▁ledjislativo	-11.758
▁rasa	-11.7581
▁egzempyos	-11.7585
▁meantime	-11.7586
▁moments	-11.7588
▁lateral	-11.7589
▁driven	-11.7589
▁kompuesto	-11.7591
▁legales	-11.7592
▁kontan	-11.7595
▁rompe	-11.7598
▁lit	-11.7605
▁presentation	-11.7606
▁adams	-11.7607
▁golpear	-11.7611
dishitesh	-11.7613
lf	-11.7616
ches	-11.7617
▁iper	-11.7618
▁powder	-11.7619
▁duties	-11.7619
▁roto	-11.7623
▁adapt	-11.7625
ence	-11.7629
▁fetch	-11.7634
▁canada	-11.7634
▁komparar	-11.7635
mmer	-11.7636
▁desperate	-11.7636
▁pushed	-11.7639
oma	-11.7639
▁sigaros	-11.7642
▁ferrokarril	-11.7642
rt	-11.7645
▁depending	-11.7646
▁transition	-11.7648
▁ipotesis	-11.7649
▁worf	-11.7649
▁konkreta	-11.7649
▁ambiental	-11.7652
▁mario	-11.7655
▁progresos	-11.7655
▁senator	-11.7656
▁vueltas	-11.7656
▁palestina	-11.7659
▁tornamos	-11.7659
▁apuesta	-11.766
▁suelen	-11.766
▁greatly	-11.7661
▁sufrimiento	-11.7661
▁resolutions	-11.7663
▁largely	-11.7668
▁poirot	-11.7668
▁vuelto	-11.7668
▁reconstruction	-11.7669
▁partly	-11.7669
▁register	-11.7669
class	-11.7671
▁arruinar	-11.7672
▁speaks	-11.7673
▁blake	-11.7674
▁widely	-11.7674
put	-11.7675
),	-11.7676
▁resumen	-11.7677
▁dispoza	-11.768
▁iamos	-11.768
pped	-11.768
▁entenden	-11.7681
▁threatened	-11.7681
▁voses	-11.7682
▁sonreir	-11.7686
▁proposing	-11.7688
▁medianoche	-11.7689
▁mentiras	-11.7689
▁properties	-11.7689
▁cent	-11.7689
▁demonio	-11.7692
▁didjital	-11.7692
▁ethnic	-11.7692
▁hunger	-11.7693
▁impose	-11.7697
▁insistir	-11.7699
▁ejerser	-11.77
▁konduktor	-11.7704
▁averle	-11.7705
▁warned	-11.7705
▁yard	-11.7707
▁penkroff	-11.7708
▁scotland	-11.7708
▁vidjilar	-11.7709
▁determinado	-11.771
▁akompanya	-11.7712
▁vinyera	-11.7712
▁notes	-11.7715
▁importalo	-11.7718
▁alternativas	-11.7724
▁komunikar	-11.7727
▁andrea	-11.7729
▁someplace	-11.773
▁importar	-11.7732
▁ali	-11.7732
▁favorito	-11.7732
▁supozar	-11.7733
▁preve	-11.7737
▁ovligar	-11.7737
▁lf	-11.774
▁guarantees	-11.774
▁kamaretaes	-11.7741
▁governance	-11.7742
▁justified	-11.7746
▁londjitud	-11.7748
▁satisfactory	-11.7749
general	-11.7749
ml	-11.7749
▁agantar	-11.775
▁vendria	-11.7752
sina	-11.7755
▁lamp	-11.7759
▁parlamentaria	-11.7763
▁parto	-11.7765
▁kanto	-11.7765
▁ahi	-11.7765
▁olvidalo	-11.7768
▁compare	-11.7768
▁magnificent	-11.7769
▁toast	-11.7769
▁theatre	-11.777
▁persepsion	-11.7772
▁invitasion	-11.7773
▁fakultad	-11.7775
rle	-11.7775
▁trati	-11.7776
▁agalo	-11.7777
▁maintained	-11.7777
▁variety	-11.7779
▁vulgar	-11.7779
▁depth	-11.7779
▁lessons	-11.7779
▁panel	-11.7779
▁sacrifice	-11.7786
▁binding	-11.7787
▁aids	-11.7789
▁swing	-11.7789
▁jonson	-11.7792
▁odia	-11.7792
▁cliff	-11.7792
▁kansas	-11.7794
▁saber	-11.7795
▁beside	-11.7795
▁occurs	-11.7795
▁krimenes	-11.7797
▁vessels	-11.7797
▁konkretos	-11.7799
▁worship	-11.7799
▁fantastic	-11.7799
▁kedava	-11.7801
▁raw	-11.7801
▁anderson	-11.7802
ios	-11.7802
▁enyegar	-11.7805
▁aparejando	-11.7809
▁cyprus	-11.7809
▁pencroft	-11.7809
▁vs	-11.7813
▁directed	-11.7813
▁disparo	-11.7815
▁ooh	-11.7816
▁indicates	-11.7816
▁absoluta	-11.7818
▁pad	-11.7821
▁tac	-11.7822
▁sumamente	-11.7823
▁vende	-11.7823
▁versus	-11.7824
▁deskuvri	-11.7824
▁trump	-11.7826
▁invest	-11.7827
dero	-11.7827
▁kantidades	-11.7828
iente	-11.7836
▁matarme	-11.7836
▁akabamos	-11.7838
▁impulsar	-11.7839
▁peshkar	-11.7839
▁eksseso	-11.7839
▁texas	-11.7839
▁selection	-11.784
▁dormido	-11.784
▁entrance	-11.784
▁esfera	-11.7842
▁emphasis	-11.7843
▁generate	-11.7843
▁atos	-11.7844
▁depresion	-11.7847
▁arguments	-11.7849
▁edwadr	-11.7849
▁entendyo	-11.7849
▁intellectual	-11.7849
▁referring	-11.785
▁trained	-11.785
▁seattle	-11.7851
chu	-11.7853
▁bureau	-11.7854
▁deskonosido	-11.7855
▁protein	-11.7857
▁kortes	-11.7859
▁suspension	-11.786
▁jan	-11.786
▁ekonomizar	-11.7863
▁copenhagen	-11.787
▁mystery	-11.787
▁apetese	-11.787
▁kobrar	-11.7871
state	-11.7873
▁amerikana	-11.7873
▁abilidades	-11.7887
▁au	-11.7889
▁rendimiento	-11.789
▁kargos	-11.7891
▁resiven	-11.7892
▁patterns	-11.7893
▁cc	-11.7895
▁stem	-11.7896
ct	-11.7897
▁debatir	-11.7901
▁bromeando	-11.7901
▁asentada	-11.7902
▁fairly	-11.7903
▁organizations	-11.7906
▁keran	-11.7907
▁functional	-11.7909
▁amounts	-11.7911
▁electric	-11.7912
▁otan	-11.7912
▁ren	-11.7913
gy	-11.7914
▁bowl	-11.7916
▁viable	-11.7921
▁fijar	-11.7921
▁actor	-11.7922
▁headed	-11.7927
▁populations	-11.7929
ral	-11.7938
▁returning	-11.794
▁dezeyar	-11.794
▁asentarse	-11.794
▁caesar	-11.7941
▁kirurdjiko	-11.7943
▁afektar	-11.7944
ora	-11.7946
▁kukla	-11.7948
▁elen	-11.7951
▁sierra	-11.7952
▁servants	-11.7954
▁diskulpas	-11.7957
▁approaches	-11.7957
▁puedyeran	-11.7958
▁sixth	-11.796
▁disko	-11.796
▁karter	-11.7961
▁onze	-11.7961
▁amsterdam	-11.7962
▁dejenme	-11.7962
▁federasion	-11.7962
▁declarar	-11.7964
lie	-11.7967
▁newspapers	-11.7967
▁ruta	-11.7969
mm	-11.7969
▁marketing	-11.797
▁senior	-11.7972
sp	-11.7974
new	-11.7977
▁mineral	-11.7978
▁native	-11.798
▁deskuvryo	-11.7982
▁inflasion	-11.7982
▁spoil	-11.7985
▁realizada	-11.7985
ais	-11.7989
▁efisiente	-11.799
bio	-11.7991
▁slight	-11.7991
▁affects	-11.7993
▁benzin	-11.7993
▁navy	-11.7994
▁reperkusiones	-11.7994
▁sensitivity	-11.7996
▁discipline	-11.7997
▁kostar	-11.7998
ip	-11.7999
▁salimos	-11.7999
▁bandiera	-11.8
▁bebida	-11.8
▁knocked	-11.8001
▁formular	-11.8002
▁inadequate	-11.8003
▁rekoos	-11.8004
▁oes	-11.8005
▁agrada	-11.8007
▁eche	-11.8008
▁konfusion	-11.801
▁mediterraneo	-11.8011
▁ekspreso	-11.8013
▁kredibilidad	-11.8013
▁parsial	-11.8015
▁stream	-11.8016
▁sites	-11.8016
▁deskripsion	-11.8017
▁distinta	-11.8021
▁bishop	-11.8024
▁ekspektativas	-11.8024
▁serebral	-11.8027
▁rye	-11.803
▁arrange	-11.8033
▁throwing	-11.8033
▁kriminales	-11.8033
▁tampere	-11.8034
▁planifikasion	-11.8035
▁liga	-11.8035
▁fortaleser	-11.8037
▁attacked	-11.8038
▁comply	-11.8041
▁pulse	-11.8042
▁sira	-11.8044
▁djoyas	-11.8046
▁kantikaes	-11.8046
▁diamantes	-11.8046
▁minimums	-11.8047
▁shortly	-11.8053
▁sweat	-11.8053
▁chikez	-11.8055
▁eskritorio	-11.8056
▁karen	-11.8057
▁asosiado	-11.8065
dishites	-11.8067
▁oso	-11.807
▁ayudante	-11.807
▁refers	-11.807
▁tradisionales	-11.8073
▁hazlo	-11.8074
▁kimikos	-11.8074
▁bones	-11.8074
▁primarily	-11.8075
lusion	-11.8076
▁brian	-11.8077
▁peskadores	-11.8078
ship	-11.8079
mus	-11.8079
ium	-11.808
▁tre	-11.8083
▁abilidad	-11.8087
▁komplase	-11.8091
▁studio	-11.8092
▁giant	-11.8093
▁piezas	-11.8094
gro	-11.8099
▁instrucsiones	-11.8099
▁ras	-11.81
▁kinezos	-11.8104
▁visited	-11.8105
▁amstedram	-11.8106
▁autentika	-11.8106
▁kopenage	-11.8106
▁tackle	-11.8107
▁karamba	-11.8107
▁athos	-11.8107
▁trace	-11.811
▁matates	-11.8111
▁indikan	-11.8111
dle	-11.8111
▁informado	-11.8112
▁personalidad	-11.8115
dates	-11.8115
▁negosiar	-11.8115
five	-11.8115
▁sumo	-11.8116
▁ayazgos	-11.8116
▁djenetika	-11.8117
▁mulder	-11.8117
mme	-11.8117
▁bilieto	-11.812
▁estable	-11.8122
▁undertaken	-11.8123
▁interventions	-11.8125
▁inhabitants	-11.8127
▁ministry	-11.8127
far	-11.8128
▁quote	-11.813
▁tap	-11.813
▁kampeon	-11.8131
▁improvements	-11.8131
▁butter	-11.8133
▁imadjina	-11.8136
▁hired	-11.8138
▁matado	-11.8141
▁advantages	-11.8142
▁combating	-11.8146
▁alishtereado	-11.8148
lis	-11.8149
▁kit	-11.815
▁cooperate	-11.8152
▁temer	-11.8153
▁theoretical	-11.8156
▁earl	-11.8157
▁lamentable	-11.8158
▁eksistente	-11.8158
▁propuesto	-11.8158
▁napoleon	-11.8159
▁komposision	-11.8159
▁aircraft	-11.8159
▁transformation	-11.816
▁emosionante	-11.816
▁uses	-11.8162
▁therapeutic	-11.8163
▁complain	-11.8165
▁historic	-11.8168
▁mud	-11.8169
▁enkolgar	-11.8171
▁bolso	-11.8172
▁yenos	-11.8178
vie	-11.8179
▁holiday	-11.818
▁swimming	-11.818
▁briya	-11.818
▁kilos	-11.8182
▁feo	-11.8183
▁avyendo	-11.8184
▁tower	-11.8186
▁kable	-11.8186
▁bail	-11.8187
▁salen	-11.8187
▁unfair	-11.8188
▁barato	-11.8191
▁mandate	-11.8191
▁membership	-11.8192
ably	-11.8193
rina	-11.8194
▁gadrias	-11.8194
▁amariyo	-11.8197
▁salta	-11.8197
▁mickey	-11.8201
▁objects	-11.8202
▁aparato	-11.8203
▁opina	-11.8209
▁dimensions	-11.821
▁classified	-11.8211
▁disappear	-11.8214
▁notable	-11.8214
▁calculated	-11.8216
▁veneno	-11.8218
▁admitted	-11.8221
▁belgian	-11.8222
▁tuesday	-11.8222
▁dependensia	-11.8222
▁pib	-11.8223
▁crossed	-11.8225
▁marshal	-11.8226
▁excessive	-11.823
▁bogota	-11.8231
▁tunnel	-11.8232
▁reskate	-11.8232
▁depression	-11.8232
▁minas	-11.8234
▁organismo	-11.8235
▁durar	-11.8235
yan	-11.8239
▁clinikos	-11.824
▁mintir	-11.824
▁martes	-11.8241
,"""	-11.8244
▁relieve	-11.8245
▁ranch	-11.8246
▁kolon	-11.8247
▁sano	-11.8252
▁memories	-11.8253
▁konti	-11.8254
▁operational	-11.8254
▁kasar	-11.8257
▁beating	-11.8257
▁comodo	-11.8259
▁arthur	-11.826
▁aktua	-11.826
ari	-11.8261
▁qualified	-11.8262
▁engage	-11.8263
▁cave	-11.8263
▁kumple	-11.8265
ology	-11.8268
▁odio	-11.827
▁guaranteed	-11.8271
▁komp	-11.8271
▁acseder	-11.8274
▁vuestros	-11.8274
▁revenge	-11.8274
bas	-11.8279
gs	-11.8279
▁neo	-11.8281
tina	-11.8282
sur	-11.8282
▁wi	-11.8283
▁button	-11.8283
▁signifikativas	-11.8284
▁amaneser	-11.8285
▁armonizasion	-11.8285
▁regulatory	-11.8285
▁gather	-11.8288
▁strictly	-11.8288
▁moderate	-11.8289
▁raising	-11.8292
▁digan	-11.8294
▁bust	-11.8295
▁classes	-11.8296
datesh	-11.8296
▁venganza	-11.8296
▁eliminasion	-11.8296
▁ermanas	-11.8297
▁proven	-11.8302
▁visitas	-11.8303
▁yevarme	-11.8304
▁hurts	-11.8306
▁gravedad	-11.8307
▁establesido	-11.8309
▁ventanas	-11.8312
▁valorasion	-11.8312
▁modifikasiones	-11.8315
▁sintura	-11.8315
▁schedule	-11.8316
▁typical	-11.8323
▁dieta	-11.8324
▁adverse	-11.8325
▁executive	-11.8327
▁komplejidad	-11.8327
▁kos	-11.8328
ban	-11.833
hola	-11.8335
▁salan	-11.8335
have	-11.8339
▁ruso	-11.8342
▁alianza	-11.8344
light	-11.8345
▁hated	-11.8347
▁champion	-11.8349
▁beard	-11.835
▁balkanes	-11.835
▁komentario	-11.8352
▁laborales	-11.8354
▁kolokar	-11.8357
▁bruno	-11.836
kor	-11.8361
▁uzo	-11.8361
▁darkness	-11.8362
▁istoriko	-11.8362
▁analyze	-11.8363
▁falsa	-11.8365
▁topas	-11.8368
▁google	-11.837
▁glory	-11.837
▁entering	-11.8374
▁misterio	-11.8374
rr	-11.8375
mate	-11.8375
▁hay	-11.8378
▁encouraging	-11.8381
▁barely	-11.8382
▁cla	-11.8383
▁scan	-11.8386
▁indisios	-11.8386
▁senor	-11.8388
cl	-11.8388
▁arrival	-11.8389
▁normales	-11.8389
▁negroes	-11.839
▁maintaining	-11.839
▁loving	-11.8391
gh	-11.8392
▁bur	-11.8395
▁pendiente	-11.8395
▁asido	-11.8396
▁grano	-11.8397
▁chipre	-11.8397
▁formulada	-11.8399
▁dreadful	-11.84
▁lavar	-11.84
▁korrupsion	-11.8402
▁barra	-11.8403
rik	-11.8403
▁bu	-11.8404
▁warren	-11.8406
▁mor	-11.8407
▁similarly	-11.8408
▁roger	-11.8408
▁utilizados	-11.8412
▁kitate	-11.8412
▁preserve	-11.8412
▁adivina	-11.8414
▁egzista	-11.8415
▁siglos	-11.8418
▁unilateral	-11.842
▁strip	-11.8421
▁attached	-11.8421
▁credibility	-11.8424
▁bike	-11.8428
▁irene	-11.8429
▁rival	-11.8432
▁suisidio	-11.8434
▁rotten	-11.8435
▁parallel	-11.8436
▁belga	-11.8436
▁kedamos	-11.8436
▁barry	-11.8436
▁koerente	-11.8438
▁belief	-11.8438
▁jugador	-11.844
▁independientes	-11.8443
▁winning	-11.8443
▁revistas	-11.8445
▁kuarenta	-11.8445
▁kasados	-11.8447
▁entenda	-11.8448
▁grandma	-11.8448
▁infusion	-11.8449
vin	-11.845
▁rip	-11.845
▁imp	-11.8454
▁konjunta	-11.8454
▁pokito	-11.8456
▁fishermen	-11.8456
▁kuba	-11.8457
▁competitiveness	-11.8457
▁calmate	-11.8457
▁konssientes	-11.8458
▁remote	-11.8462
▁eskonder	-11.8464
▁onesto	-11.8466
▁seriozamente	-11.8467
▁rot	-11.8467
▁sail	-11.8468
▁varia	-11.8469
▁briefly	-11.847
▁brenda	-11.8471
▁kalkolo	-11.8471
▁denunsia	-11.8471
▁mars	-11.8475
▁extensive	-11.8475
▁emerging	-11.8478
tta	-11.8485
▁votos	-11.8486
try	-11.8487
▁decline	-11.8488
▁banka	-11.8491
▁aportar	-11.8492
▁relijiozo	-11.8493
▁suggestion	-11.8494
▁ethics	-11.8495
▁despedir	-11.8497
▁forty	-11.8499
▁juice	-11.8499
▁sueldo	-11.85
▁fiks	-11.8505
nio	-11.8507
uf	-11.8508
▁porter	-11.8512
▁yeven	-11.8513
▁gentle	-11.8515
▁miyer	-11.8515
▁oyan	-11.8516
pt	-11.8516
▁yorando	-11.8517
▁attempts	-11.852
▁saludar	-11.852
▁accompanied	-11.8521
▁quarrel	-11.8521
▁painful	-11.8522
▁tooth	-11.8522
▁poker	-11.8523
▁luke	-11.8525
▁poderoso	-11.8526
▁wagon	-11.8527
▁ln	-11.8528
▁experimental	-11.8528
▁pulling	-11.853
▁knees	-11.8531
▁forum	-11.8536
▁xx	-11.8538
▁prisioneros	-11.8539
▁atmosfera	-11.8543
▁konkurso	-11.8543
▁korektamente	-11.8543
ward	-11.8543
▁frankamente	-11.8543
nar	-11.8544
▁lovo	-11.8547
▁gueso	-11.8549
▁representation	-11.855
▁kolorados	-11.8551
▁revolver	-11.8552
▁despierto	-11.8554
▁salido	-11.8556
▁sensiya	-11.8557
▁adaptasion	-11.8558
▁mantena	-11.8558
▁reflected	-11.8559
▁producing	-11.8559
▁toneladas	-11.8562
▁supports	-11.857
▁ks	-11.8573
▁intente	-11.8574
▁fiel	-11.8575
▁investir	-11.8575
▁konsentimiento	-11.8575
any	-11.8575
▁mantenyo	-11.8576
fin	-11.8578
▁hazinos	-11.858
▁pelota	-11.858
▁waves	-11.858
▁restore	-11.8582
▁agarra	-11.8584
▁worker	-11.8585
%;	-11.8585
▁liberasion	-11.8589
▁tono	-11.8591
▁vehicle	-11.8592
▁bored	-11.8598
▁prop	-11.8599
▁ladrones	-11.86
▁rurales	-11.8603
avan	-11.8604
▁kedese	-11.8605
▁stocks	-11.8608
▁nowadays	-11.8608
▁portreto	-11.8608
▁kramer	-11.8608
▁malaria	-11.8608
▁cirkulo	-11.8615
▁issued	-11.8617
▁mentiroso	-11.8619
▁relativos	-11.8622
▁invento	-11.8622
▁corruption	-11.8623
▁anger	-11.8624
▁determinadas	-11.8626
▁preventing	-11.8626
▁lastima	-11.8627
▁mancha	-11.8629
▁refudjio	-11.863
▁ombro	-11.863
▁instructions	-11.8635
▁chat	-11.8637
▁flu	-11.8643
▁subvensiones	-11.8644
▁crap	-11.8645
▁adn	-11.8647
ob	-11.8647
▁cl	-11.8649
har	-11.8651
ndome	-11.8655
▁mirad	-11.8655
▁mensiona	-11.8655
▁brutal	-11.8657
▁brad	-11.8661
▁equivalent	-11.8663
▁rita	-11.8664
▁oan	-11.8667
▁devices	-11.867
▁operator	-11.8671
stone	-11.8672
▁sang	-11.8672
ata	-11.8673
▁ekivoko	-11.8674
▁perception	-11.8674
▁supongo	-11.8675
▁wore	-11.8678
▁kasa	-11.8679
▁chin	-11.8681
▁klingon	-11.8682
▁rota	-11.8682
▁previo	-11.8682
ua	-11.8685
▁oblonsky	-11.8685
▁transmission	-11.8685
▁resolusiones	-11.8686
▁eskondido	-11.8688
▁crash	-11.869
▁demandaron	-11.8692
▁mansana	-11.8693
disheron	-11.8695
▁aldea	-11.8696
▁subsidiarity	-11.8696
▁maestra	-11.8697
▁airway	-11.8698
▁lamb	-11.8698
▁almario	-11.8699
▁invita	-11.87
▁nicky	-11.8701
▁rekurrir	-11.8704
▁estatales	-11.8706
▁materias	-11.8708
▁sifra	-11.8708
▁agosto	-11.871
▁komparado	-11.871
ld	-11.8712
▁sangrado	-11.8712
dio	-11.8714
▁reception	-11.8718
▁essentially	-11.8718
wing	-11.872
cus	-11.8723
▁segido	-11.8723
▁assessed	-11.8724
▁konfia	-11.8727
▁requirement	-11.8727
▁propofol	-11.8729
was	-11.8732
▁siguia	-11.8732
▁kurar	-11.8735
uri	-11.8735
▁ol	-11.8736
▁vesino	-11.874
▁murray	-11.874
▁muryendo	-11.8741
▁insult	-11.8741
▁transmitir	-11.8742
▁acted	-11.8742
dad	-11.8743
rte	-11.8746
ller	-11.8746
▁restrictions	-11.8747
▁provokar	-11.8747
▁lion	-11.8747
▁atlantic	-11.8748
▁benny	-11.8755
▁guesos	-11.8757
▁whistle	-11.8761
▁azian	-11.8761
▁pasharos	-11.8762
▁passport	-11.8763
▁imposed	-11.8764
▁koma	-11.8764
▁rancho	-11.8771
▁harding	-11.8771
▁solisito	-11.8774
▁novel	-11.8775
▁temia	-11.8775
▁witnesses	-11.8778
▁rol	-11.8779
▁apareja	-11.8781
▁farming	-11.8782
pes	-11.8784
ramos	-11.8786
star	-11.8787
▁futuras	-11.8794
▁believes	-11.8796
▁resibo	-11.8796
▁forman	-11.8802
▁gani	-11.8805
djia	-11.8805
▁competence	-11.8806
▁salyeron	-11.8808
▁robin	-11.8808
▁brick	-11.8809
▁gil	-11.8812
▁organo	-11.8812
▁dump	-11.8813
▁tube	-11.8814
▁stealing	-11.8816
▁deside	-11.8817
▁submit	-11.8817
▁exports	-11.8818
▁konstruido	-11.8818
ella	-11.8819
▁spit	-11.8819
▁corresponding	-11.882
▁anglo	-11.882
▁globalizasion	-11.8821
▁serro	-11.8826
▁communist	-11.8826
▁insidente	-11.8827
▁counting	-11.8828
▁polar	-11.8831
▁brok	-11.8831
▁deposito	-11.8832
▁representar	-11.8833
▁grizo	-11.8834
▁shy	-11.8836
will	-11.884
ski	-11.8843
▁logra	-11.8844
▁investigate	-11.8845
▁trua	-11.8848
▁arko	-11.8849
▁rein	-11.8849
▁argmentos	-11.8852
▁systematic	-11.8852
▁sentimental	-11.8852
▁sets	-11.8855
▁eje	-11.8856
▁dressing	-11.8859
low	-11.886
port	-11.8863
▁nelson	-11.8863
respondyo	-11.8864
hmm	-11.8864
▁pacific	-11.8865
▁kaminando	-11.8866
▁songs	-11.8867
▁relatives	-11.8867
▁productive	-11.8867
▁kapachedades	-11.8871
▁estelar	-11.8872
▁asentyo	-11.8874
▁trading	-11.8875
▁soda	-11.8878
nic	-11.8878
uk	-11.8879
▁widow	-11.8879
▁emma	-11.8881
▁ellen	-11.8882
▁lifetime	-11.8883
▁pipe	-11.8884
▁sebastian	-11.8886
▁ovliga	-11.8886
ites	-11.8887
dita	-11.889
▁ward	-11.8892
miko	-11.8896
▁antesedentes	-11.8896
▁assumed	-11.8896
▁ekspozar	-11.8897
▁bullshit	-11.8897
▁praise	-11.8897
supiste	-11.8898
ual	-11.8901
▁monedas	-11.8901
▁maskara	-11.8903
▁tokio	-11.8903
▁rekomenda	-11.8906
▁gross	-11.8906
▁expense	-11.8908
▁impressindible	-11.8908
▁ajena	-11.8909
▁dizs	-11.891
▁asosiasiones	-11.8912
▁eksportasion	-11.8913
▁correlation	-11.8913
▁ayegates	-11.8913
▁arregla	-11.8918
▁advise	-11.8918
▁perceived	-11.8919
▁reflection	-11.892
▁execution	-11.893
▁stan	-11.893
▁intensidad	-11.8931
▁maintenance	-11.8931
sing	-11.8931
▁aluengas	-11.8931
▁regardless	-11.8933
hu	-11.8937
▁industries	-11.8942
huh	-11.8943
▁renta	-11.8944
▁ducha	-11.8944
▁terminal	-11.8947
▁investments	-11.8949
▁candy	-11.8951
▁alimentar	-11.8953
▁atreve	-11.8953
▁petisiones	-11.8954
▁violasion	-11.8958
▁palo	-11.8959
▁tested	-11.8966
▁konsiderasiones	-11.8967
▁deaf	-11.8969
istic	-11.8974
▁obey	-11.8976
▁martha	-11.8976
▁djesto	-11.8977
▁largas	-11.8978
▁policeman	-11.8978
▁abandon	-11.8981
▁solved	-11.8982
▁publikasion	-11.8982
▁ovligados	-11.8982
▁wasting	-11.8984
▁tratan	-11.8984
▁surrounded	-11.8989
bury	-11.8989
▁kru	-11.8992
▁kimika	-11.8994
af	-11.8997
▁kopya	-11.9
dishimos	-11.9001
▁fuistes	-11.9003
▁indio	-11.9008
▁absurd	-11.901
▁tekstos	-11.901
▁traision	-11.9011
▁kolores	-11.9012
▁eksportasiones	-11.9017
▁demostraron	-11.9019
▁communications	-11.902
▁apostar	-11.9021
▁spilett	-11.9022
▁inspecsion	-11.9023
▁saludo	-11.9025
▁fence	-11.9026
▁anesthetic	-11.9027
▁excluded	-11.9027
av	-11.9029
▁karbono	-11.9032
▁abasho	-11.9033
▁katastrofe	-11.9035
▁scratch	-11.9036
▁wondered	-11.9038
▁zirko	-11.9039
▁mel	-11.9042
▁ekspansion	-11.9044
▁orleans	-11.9044
▁konstantemente	-11.9047
bie	-11.9048
▁bert	-11.905
▁err	-11.9052
ona	-11.9053
▁viktor	-11.9054
▁kabanya	-11.9056
▁patience	-11.9056
▁residence	-11.9056
▁komparto	-11.9056
▁hu	-11.9057
ani	-11.9058
▁diamond	-11.9059
▁entendemos	-11.9062
▁occupation	-11.9063
dependientemente	-11.9067
▁instant	-11.9067
▁bags	-11.9068
▁fortunately	-11.9069
▁obstacles	-11.9072
▁lip	-11.9072
▁woke	-11.9078
▁djinebra	-11.9079
▁lavori	-11.9087
▁balkans	-11.9087
▁addressing	-11.9088
▁nat	-11.9088
▁okulta	-11.9089
▁qu	-11.9089
▁reporting	-11.9089
▁naci	-11.9089
▁canadian	-11.909
▁injury	-11.909
▁seka	-11.9095
▁kase	-11.9096
▁periods	-11.9099
▁bestia	-11.9099
niko	-11.91
▁konsegites	-11.9101
▁kandidato	-11.9104
▁aleks	-11.9107
▁boom	-11.9109
▁abiertos	-11.9109
▁spaces	-11.9109
▁kargar	-11.9112
▁inflation	-11.9113
▁alemana	-11.9114
cent	-11.9115
▁kamina	-11.9117
▁alterasiones	-11.9118
▁indo	-11.9118
▁boots	-11.9119
▁alfred	-11.9121
nyo	-11.9124
▁masiva	-11.9124
▁warp	-11.9124
▁vaka	-11.9125
▁entuziasmo	-11.9125
▁kodji	-11.9127
▁prospect	-11.9128
arme	-11.9128
▁spy	-11.913
▁vidro	-11.9132
▁checking	-11.9134
▁deme	-11.9135
▁orgyosa	-11.9136
▁psychological	-11.9136
▁yen	-11.9137
▁clinton	-11.9137
▁sharing	-11.9137
▁liras	-11.9137
pri	-11.9138
▁anketa	-11.914
▁validjas	-11.914
▁purely	-11.9141
dic	-11.9141
▁islam	-11.9142
▁gained	-11.9144
▁timetable	-11.9144
▁komunikasiones	-11.9144
▁reliable	-11.9148
mbo	-11.9148
▁bin	-11.9149
supo	-11.915
▁paisaje	-11.9151
▁headache	-11.9152
▁deaths	-11.9152
▁silk	-11.9152
▁manten	-11.9155
▁neighbors	-11.9156
uff	-11.9159
▁disposal	-11.9159
▁festival	-11.9159
▁jerk	-11.916
▁hills	-11.9162
▁socio	-11.9162
▁tornas	-11.9165
▁retirada	-11.9165
▁enkargado	-11.9165
▁moves	-11.9167
▁sore	-11.9168
▁kolina	-11.9168
▁normally	-11.917
▁exposure	-11.9171
bol	-11.9174
▁peskera	-11.9175
▁crossing	-11.9175
▁regalos	-11.9176
▁dull	-11.9177
▁colour	-11.9177
▁mini	-11.9182
▁flo	-11.9182
▁heavens	-11.9182
▁beisbol	-11.9183
▁delinkuensia	-11.9183
▁piskueso	-11.9183
▁abashe	-11.9183
▁estudiando	-11.9186
▁scott	-11.919
▁yevi	-11.9194
▁direktrises	-11.9194
▁rekonoso	-11.9194
table	-11.9195
▁manifestar	-11.9196
▁flash	-11.9197
▁seats	-11.9197
▁viviendas	-11.9197
▁ampliamente	-11.9199
▁settlement	-11.9199
▁krusial	-11.9199
▁tras	-11.9201
▁garon	-11.9202
▁savings	-11.9203
▁mile	-11.9205
▁komyo	-11.9207
ati	-11.9207
▁coward	-11.9208
▁mouse	-11.9209
▁replaced	-11.921
▁pedroname	-11.9213
▁ap	-11.9214
▁dreaming	-11.9217
▁atraktiva	-11.9217
▁wednesday	-11.9217
▁promises	-11.9218
▁barn	-11.9218
▁punch	-11.9222
▁prisionero	-11.9222
ngo	-11.9223
▁repair	-11.9226
▁loaded	-11.9227
▁pensates	-11.9229
ksi	-11.923
▁fellows	-11.923
zer	-11.9231
▁pala	-11.9232
bul	-11.9232
▁templo	-11.9233
▁omisidio	-11.9234
▁ponentes	-11.9235
tikas	-11.9235
▁karenin	-11.9237
▁hong	-11.9237
▁opinions	-11.9238
izados	-11.9239
▁orientasiones	-11.9239
▁expansion	-11.9241
▁composition	-11.9241
▁movil	-11.9242
▁jos	-11.9242
mat	-11.9243
▁konfesar	-11.9244
▁funsionan	-11.9246
▁metodologia	-11.9246
▁referes	-11.9249
▁ofren	-11.9252
▁koridor	-11.9252
▁gizar	-11.9253
▁enchikese	-11.9253
▁collapse	-11.9253
meter	-11.9255
▁mueye	-11.9255
free	-11.9257
▁katerine	-11.9264
▁realizan	-11.9267
▁uvyeramos	-11.9267
ori	-11.9268
▁appropriations	-11.927
tti	-11.9271
▁prefera	-11.9274
sal	-11.9274
▁cheer	-11.9274
▁pedryeron	-11.9276
▁scandal	-11.9277
▁pilar	-11.9277
▁moto	-11.9278
▁oidos	-11.9279
ene	-11.9279
▁disturb	-11.9279
▁basika	-11.9279
▁machines	-11.928
▁ace	-11.9281
▁sospechoso	-11.9281
▁insendio	-11.9281
▁agradesido	-11.9281
▁autorizasion	-11.9281
todo	-11.9284
▁sekuensia	-11.9286
▁devian	-11.929
lic	-11.9292
rum	-11.9293
eria	-11.9293
▁league	-11.9293
ification	-11.9294
▁deskansa	-11.9296
▁justify	-11.9297
▁dedika	-11.9297
▁delicate	-11.9299
▁orasion	-11.9302
▁risa	-11.9304
▁ego	-11.9305
kta	-11.9306
his	-11.9309
▁brooklyn	-11.9311
▁kontinue	-11.9311
ifikasion	-11.9313
▁bend	-11.9315
rada	-11.9316
▁resistir	-11.9318
▁suspected	-11.9318
▁suite	-11.9318
say	-11.9319
tus	-11.9322
▁liderazgo	-11.9323
sko	-11.9323
▁respirar	-11.9326
▁spin	-11.9334
▁mierkoles	-11.9334
▁sufryo	-11.9334
▁stuart	-11.9335
▁feeding	-11.9336
▁konservasion	-11.9336
▁pesado	-11.9339
▁isolated	-11.9339
▁victor	-11.934
▁slim	-11.9341
▁landscape	-11.9341
▁ly	-11.9342
nto	-11.9343
▁apresiar	-11.9343
▁roman	-11.9343
▁aktivos	-11.9345
▁contracts	-11.9345
▁femenino	-11.9346
▁joking	-11.9347
▁stopping	-11.9349
▁dimos	-11.935
▁launched	-11.9352
▁component	-11.9353
▁deva	-11.9357
▁toparlo	-11.9357
▁universidades	-11.9358
▁afortunadamente	-11.9358
▁crystal	-11.9358
▁broadway	-11.9359
▁transito	-11.936
▁konstitusional	-11.9361
▁gin	-11.9361
▁blocks	-11.9362
▁kapitales	-11.9364
▁rida	-11.9364
▁ham	-11.9364
▁minds	-11.9367
▁import	-11.9368
▁senador	-11.937
▁jumped	-11.937
▁detenyo	-11.937
sure	-11.9371
▁hans	-11.9372
▁okupasion	-11.9373
▁condemn	-11.9373
▁manifestasiones	-11.9374
▁rovaron	-11.9375
▁households	-11.9376
▁breast	-11.9377
▁constitute	-11.9377
emia	-11.9379
▁subsidiariedad	-11.9382
▁probability	-11.9382
▁sekretea	-11.9382
▁teksas	-11.9382
▁aparentemente	-11.9383
▁enkantada	-11.9385
▁basikos	-11.9386
▁evento	-11.9387
▁arrimamos	-11.9387
▁gates	-11.9391
▁temper	-11.9391
flu	-11.9392
▁scream	-11.9393
▁landing	-11.9394
▁alien	-11.9398
▁rear	-11.94
▁sequence	-11.9401
▁bse	-11.9401
▁presenting	-11.9402
▁akta	-11.9403
▁virgin	-11.9404
▁altamente	-11.9405
▁bundy	-11.9406
▁serven	-11.9408
▁rocky	-11.9409
▁subyo	-11.941
▁cord	-11.9413
bin	-11.9414
▁referia	-11.9415
▁emosiones	-11.9415
▁bou	-11.9416
▁taiwan	-11.9416
▁urbano	-11.9416
▁pigs	-11.9417
rich	-11.9418
▁minority	-11.9421
▁assist	-11.9423
▁transferensia	-11.9425
▁herr	-11.9426
▁concepts	-11.9429
▁baseball	-11.9429
▁umoes	-11.9429
▁tam	-11.943
▁rub	-11.9432
▁tribunales	-11.9433
▁insufisiente	-11.9437
▁tro	-11.9437
zz	-11.9438
▁rayo	-11.9438
djie	-11.9438
▁affecting	-11.9439
▁asentirse	-11.9441
▁mensiono	-11.9444
▁reminds	-11.9448
ima	-11.9452
▁thompson	-11.9453
▁stones	-11.9455
▁nights	-11.9456
▁cares	-11.9456
▁intelektual	-11.9458
▁eyen	-11.9459
▁personality	-11.9459
▁diego	-11.946
▁sinyos	-11.946
▁magnifika	-11.9461
▁desidimos	-11.9462
▁demostran	-11.9463
▁sima	-11.9465
▁stephen	-11.9465
▁restricsiones	-11.9467
▁sostener	-11.9469
▁yanni	-11.9469
▁clinikas	-11.947
▁cats	-11.9471
▁parada	-11.9474
▁customs	-11.9479
▁indonesia	-11.948
▁interesantes	-11.9481
▁yu	-11.9482
▁miras	-11.9483
ppy	-11.9486
▁buzz	-11.9486
▁fewer	-11.9489
▁globo	-11.9489
ako	-11.9494
▁konstituir	-11.9496
▁organized	-11.9497
▁shares	-11.9498
▁catherine	-11.9501
▁furniture	-11.9501
▁stewart	-11.9501
nge	-11.9504
▁demandates	-11.9504
▁legally	-11.9506
▁differently	-11.9506
▁everyday	-11.9507
tia	-11.9509
▁stretch	-11.9509
▁roberts	-11.951
▁intentions	-11.9511
▁mizeria	-11.9513
▁undoubtedly	-11.9513
estuvitesh	-11.9513
▁yevarse	-11.9515
▁photograph	-11.9515
▁kolona	-11.9518
▁covering	-11.9519
▁deseado	-11.9521
▁plataforma	-11.9522
▁rum	-11.9522
▁prosedentes	-11.9523
▁pensarlo	-11.9523
▁canal	-11.9523
very	-11.9524
▁sharaes	-11.9525
▁voluntary	-11.9525
▁honeymoon	-11.9525
▁abasha	-11.9527
▁alkansa	-11.9528
▁eksplozion	-11.953
▁succeeded	-11.9531
▁telegram	-11.9531
bon	-11.9534
rito	-11.9535
▁instansia	-11.9536
▁energetika	-11.9537
▁botas	-11.9537
▁champan	-11.9538
▁satisfaser	-11.9538
▁especifikamente	-11.9539
▁kontratos	-11.9539
▁esperas	-11.954
▁provoka	-11.9543
bit	-11.9544
▁inchar	-11.9548
hold	-11.9548
▁reckon	-11.9553
▁pitch	-11.9554
▁bruto	-11.9554
▁socialist	-11.9555
▁justa	-11.9556
▁pac	-11.9556
▁pasen	-11.9557
▁stevens	-11.9559
▁tendriamos	-11.9561
▁konosyo	-11.9561
▁asshole	-11.9561
▁devoted	-11.9562
▁finds	-11.9562
▁bayla	-11.9562
▁trui	-11.9563
▁processing	-11.9565
▁vengas	-11.9566
▁organic	-11.9567
▁initially	-11.9567
tivas	-11.9569
inter	-11.9571
▁asustado	-11.9572
▁considers	-11.9572
▁terrific	-11.9573
▁stryet	-11.9573
▁advertising	-11.9573
▁endorse	-11.9573
▁dizimos	-11.9575
▁shawn	-11.9576
▁patrones	-11.958
▁snake	-11.9583
▁mejoras	-11.9583
ious	-11.9583
▁kom	-11.9584
▁customer	-11.9585
▁resivyeron	-11.9585
▁seda	-11.9591
▁konosidos	-11.9591
▁mirava	-11.9592
rn	-11.9594
▁butler	-11.9598
▁pole	-11.96
▁konte	-11.9602
▁adekuadamente	-11.9602
tter	-11.9604
▁piedras	-11.9605
▁singer	-11.9607
▁yevarlo	-11.9608
ef	-11.9608
▁destiny	-11.9609
▁smiling	-11.9609
▁lukso	-11.9609
▁koinsidensia	-11.9609
▁donseya	-11.9609
▁plenary	-11.9609
▁kosecha	-11.961
▁interiores	-11.961
▁gradually	-11.9611
▁moy	-11.9611
nal	-11.9613
▁tropikal	-11.9614
▁val	-11.9618
▁multitud	-11.9618
▁sanitaria	-11.962
▁wisdom	-11.9621
▁transparente	-11.9625
▁highlighted	-11.9627
▁sack	-11.9627
▁abla	-11.9629
▁approaching	-11.963
▁cp	-11.9631
bien	-11.9632
▁feature	-11.9632
▁filozofia	-11.9633
▁richie	-11.9636
▁konseptos	-11.9637
rios	-11.9639
▁fomento	-11.9645
▁sufre	-11.9649
▁eksplotar	-11.9649
▁ordenador	-11.9651
▁triple	-11.9651
▁franz	-11.9654
▁elizabeth	-11.9655
▁djiro	-11.9656
▁portofolio	-11.9657
▁eeb	-11.9658
▁alex	-11.9659
▁pose	-11.9661
▁presentada	-11.9664
▁amenazas	-11.9667
▁viajes	-11.9667
▁ramos	-11.9668
▁philosophy	-11.967
▁blew	-11.967
▁kogyo	-11.967
▁sujeta	-11.967
▁compliance	-11.9671
▁viuda	-11.9671
▁gathered	-11.9674
▁intervene	-11.9674
▁kreeme	-11.9676
▁artistos	-11.9678
▁nerves	-11.9679
ball	-11.9679
▁rea	-11.9684
▁proibido	-11.9684
▁burla	-11.9686
▁arabe	-11.9687
▁kashas	-11.9688
▁ensenya	-11.9689
▁arresto	-11.9697
▁impresionante	-11.9698
▁salo	-11.9701
▁lamentar	-11.9703
▁tarta	-11.9705
▁somethin	-11.9705
▁gear	-11.9705
▁seeks	-11.9707
▁pesa	-11.9711
▁paises	-11.9712
▁marrying	-11.9712
▁palmer	-11.9712
▁pasaria	-11.9713
▁speaker	-11.9714
▁diridjentes	-11.9714
▁shoulders	-11.9716
▁sosialista	-11.9718
▁tomates	-11.9721
▁statistically	-11.9722
nny	-11.9723
▁registered	-11.9723
▁ekspresa	-11.9724
▁politically	-11.9726
▁empesaron	-11.9726
▁nubes	-11.9727
▁insiste	-11.9729
▁refleksionar	-11.9731
▁asperemos	-11.9732
▁gy	-11.9733
ug	-11.9738
cle	-11.9738
▁relasionada	-11.9739
▁breathing	-11.974
▁honestly	-11.974
▁profits	-11.9743
▁ofryo	-11.9744
▁asentimos	-11.9745
▁periodistas	-11.9745
▁boring	-11.9747
▁kontenidos	-11.9748
▁charged	-11.9749
telo	-11.9749
▁tenerlo	-11.9752
▁visiting	-11.9752
▁fla	-11.9753
▁random	-11.9753
ama	-11.9754
▁zo	-11.9755
▁relevante	-11.9755
▁patruya	-11.9755
▁transfusion	-11.9755
▁balloon	-11.9755
▁edision	-11.9756
▁loan	-11.9757
▁abuso	-11.9759
▁tricks	-11.9767
▁efikases	-11.9768
▁claire	-11.9768
▁clan	-11.9768
▁diridjida	-11.9769
▁amata	-11.9769
▁asosiada	-11.977
▁bars	-11.9773
▁boost	-11.9774
nsia	-11.9778
mine	-11.978
▁disponibilidad	-11.978
▁kanaya	-11.9781
▁kravata	-11.9782
▁periodos	-11.9785
▁elektoral	-11.9785
▁kabron	-11.9786
▁mona	-11.9786
▁resivimos	-11.9787
▁herbert	-11.9788
▁deterioro	-11.9792
water	-11.9793
▁bitter	-11.9793
▁viraje	-11.9793
▁rastro	-11.9793
▁diplomatic	-11.9794
▁sole	-11.9796
oli	-11.9797
▁stent	-11.9799
▁cardiac	-11.9801
▁afektadas	-11.9803
▁hire	-11.9803
▁psycho	-11.9804
▁otonyo	-11.9804
▁vienna	-11.9804
▁winner	-11.9805
▁bondad	-11.9806
▁zu	-11.9806
▁frekuentemente	-11.9807
▁platos	-11.981
▁suministro	-11.9811
▁lava	-11.9812
ther	-11.9813
▁pol	-11.9815
▁informasiones	-11.9816
▁parrafo	-11.9817
▁garage	-11.9817
▁endoscopy	-11.9817
glo	-11.982
ties	-11.9825
▁confusion	-11.9829
▁proba	-11.9829
▁rode	-11.983
▁babylon	-11.983
▁fostanos	-11.9831
nk	-11.9831
▁sweetie	-11.9833
▁stations	-11.9834
▁sigui	-11.9836
▁pedazos	-11.9842
ologia	-11.9843
▁komponente	-11.9844
▁mob	-11.9844
▁mami	-11.9844
▁mug	-11.9845
gon	-11.9848
eando	-11.9849
tty	-11.985
▁miyo	-11.9852
▁movimienan	-11.9852
▁resepsion	-11.9853
▁smells	-11.9853
▁palestinos	-11.9854
▁maritime	-11.9854
▁possession	-11.9854
▁maggie	-11.9854
▁prometido	-11.9855
▁rumor	-11.9855
▁lampara	-11.9855
▁log	-11.9856
▁umanitaria	-11.9856
▁anesteziko	-11.9856
▁fea	-11.9856
lock	-11.9865
▁qualitative	-11.9866
▁desisivo	-11.9866
▁rochester	-11.9866
▁seloso	-11.9867
▁karay	-11.9867
▁chip	-11.9871
▁links	-11.9873
▁relijiozos	-11.9873
▁obtene	-11.9875
life	-11.9879
▁kargas	-11.9879
▁koerensia	-11.9879
▁mademoiseye	-11.9879
▁signature	-11.9879
▁unnecessary	-11.9879
▁mintyendo	-11.9879
▁korijar	-11.988
▁cra	-11.988
▁kolonya	-11.9882
▁print	-11.9884
▁extranyos	-11.9884
▁firmly	-11.9884
▁sity	-11.9885
▁pu	-11.9887
▁selebrasion	-11.9889
▁orange	-11.989
oy	-11.989
▁limitado	-11.9891
▁denmark	-11.9891
▁separated	-11.9892
▁sacred	-11.9892
▁implementasion	-11.9893
▁equation	-11.9894
▁aorro	-11.9894
▁biva	-11.9894
▁kedado	-11.9894
▁krese	-11.9899
tir	-11.9899
▁ios	-11.99
▁rapporteurs	-11.9902
▁ganeden	-11.9904
▁bal	-11.9906
▁jenerasiones	-11.9907
▁emp	-11.9907
▁fog	-11.9908
▁suspended	-11.9908
▁medianas	-11.9909
▁sedros	-11.9909
ire	-11.991
▁maldichos	-11.9911
▁gradual	-11.9912
▁futuros	-11.9913
▁kicked	-11.9914
▁treating	-11.9917
▁realistic	-11.9918
▁utiles	-11.9919
▁ape	-11.9919
▁kasko	-11.992
▁voices	-11.9921
▁lodjiko	-11.9921
▁espantar	-11.9923
▁ajuste	-11.9926
cos	-11.9927
▁dirt	-11.9929
▁interpretar	-11.9929
▁recover	-11.9929
▁pushing	-11.993
▁quietly	-11.9931
▁puediamos	-11.9932
▁deshemos	-11.9933
▁limita	-11.9938
▁nut	-11.994
▁translation	-11.9941
▁vicky	-11.9942
▁kauso	-11.9942
▁consists	-11.9942
tino	-11.9942
▁denied	-11.9944
▁selda	-11.9945
▁railway	-11.9945
▁oimos	-11.9945
▁cuba	-11.9947
▁polisial	-11.9948
▁lowest	-11.9948
▁adventure	-11.9949
▁provisional	-11.9949
▁cro	-11.9949
▁messages	-11.9951
▁feridas	-11.9952
▁eskolar	-11.9952
▁introducing	-11.9954
▁previamente	-11.9956
ila	-11.9956
▁entrenador	-11.9959
▁sueka	-11.9962
gado	-11.9962
▁bold	-11.9963
▁autonomia	-11.9966
▁arch	-11.9968
▁kometer	-11.9969
▁lukando	-11.9969
▁withdraw	-11.997
▁bola	-11.997
▁internos	-11.9971
▁waiter	-11.9974
▁arestar	-11.9977
▁occupied	-11.9979
▁morocco	-11.9979
elo	-11.9979
▁kreyo	-11.9979
▁farmer	-11.998
▁promesas	-11.9988
▁elektro	-11.9988
▁evitarlo	-11.9989
▁empese	-11.9989
▁functioning	-11.9991
▁traeme	-11.9991
▁cloud	-11.9991
▁patrol	-11.9992
▁considerations	-11.9992
▁arise	-11.9993
▁purse	-11.9993
▁operators	-11.9996
▁losses	-11.9997
estuvo	-11.9998
▁rep	-11.9998
▁metido	-11.9998
▁plaka	-12
▁organ	-12.0002
▁konjuntamente	-12.0006
▁distributed	-12.0008
▁brevemente	-12.0008
▁costa	-12.0009
▁sida	-12.0011
▁panic	-12.0013
▁destinado	-12.0013
▁cheat	-12.0013
▁skott	-12.0014
▁logic	-12.0016
▁parliaments	-12.0017
gate	-12.0017
ological	-12.0017
iv	-12.002
▁characterized	-12.0021
▁buke	-12.0023
▁clarify	-12.0025
▁tubo	-12.0025
▁respira	-12.0026
▁wings	-12.0026
▁bacteria	-12.0027
▁bum	-12.0028
▁propaganda	-12.0029
▁thunder	-12.0029
▁farewell	-12.0029
two	-12.0031
▁perry	-12.0033
▁pace	-12.0034
▁atrapado	-12.0034
▁bargain	-12.0038
▁desafios	-12.004
▁harmonisation	-12.0042
▁railroad	-12.0042
▁persuade	-12.0043
▁fama	-12.0043
liko	-12.0048
▁correctly	-12.005
▁benjamin	-12.0054
▁excitement	-12.0054
▁gobiernos	-12.0054
▁levantate	-12.0055
▁sede	-12.0056
▁centers	-12.0056
▁files	-12.0057
▁plot	-12.0057
tivos	-12.0057
pur	-12.0058
▁korasones	-12.0061
▁minorias	-12.0061
▁gum	-12.0063
ei	-12.0064
▁dinamarka	-12.0067
▁kennedy	-12.0067
▁sudjiero	-12.0067
▁densidad	-12.0067
▁solisitar	-12.0067
▁endoskopia	-12.0067
▁volando	-12.0071
▁kro	-12.0072
▁fluid	-12.0072
ele	-12.0072
▁entidades	-12.0073
dear	-12.0073
▁golpes	-12.0073
▁embarazo	-12.0078
▁tumors	-12.0078
▁unanimidad	-12.008
▁universities	-12.008
▁jungle	-12.008
▁rokas	-12.0081
▁ramo	-12.0082
▁fuma	-12.0082
▁eleven	-12.0082
sus	-12.0082
▁sakrifisio	-12.0085
▁vera	-12.0087
▁rekonosido	-12.0087
▁movimienas	-12.0089
▁balas	-12.0089
▁secrets	-12.0089
▁moleste	-12.0089
▁personaje	-12.009
▁centuries	-12.0092
▁sympathy	-12.0092
▁dramatic	-12.0093
▁miri	-12.0093
▁intends	-12.0095
▁desaparesido	-12.0095
▁salary	-12.0096
aga	-12.0097
▁brush	-12.0097
▁relate	-12.01
▁salario	-12.01
▁dies	-12.0101
tuvitesh	-12.0102
▁blonda	-12.0104
▁aziendolo	-12.0105
▁fondasion	-12.0106
▁industriales	-12.0109
▁privados	-12.0112
▁accurate	-12.0115
▁dishimos	-12.0116
▁kompletar	-12.0116
▁collaboration	-12.0118
▁horror	-12.0118
▁soporte	-12.0118
▁distinction	-12.0118
▁bor	-12.0122
▁curse	-12.0124
eye	-12.0126
▁desarroyados	-12.0126
▁junk	-12.0127
▁trials	-12.0127
▁decisive	-12.0128
▁dreamed	-12.0129
uh	-12.013
▁facilities	-12.0131
▁funsiono	-12.0131
▁affection	-12.0131
▁pulso	-12.0131
▁enojado	-12.0133
gin	-12.0134
▁walker	-12.0135
▁migrasion	-12.0136
▁avokatos	-12.0138
▁residents	-12.014
▁ala	-12.0141
key	-12.0141
▁kometyo	-12.0143
▁methodology	-12.0144
▁rachel	-12.0144
▁experiments	-12.0144
▁pata	-12.0144
adores	-12.0144
▁communicate	-12.0145
▁associations	-12.0149
▁timido	-12.0153
▁bonds	-12.0154
▁espektro	-12.0156
▁lang	-12.0157
▁predict	-12.0159
▁deskrive	-12.016
▁condemned	-12.016
▁mimi	-12.016
wey	-12.0161
▁kaptura	-12.0162
▁paiss	-12.0162
▁muren	-12.0164
▁josep	-12.0165
even	-12.0165
jer	-12.0166
▁konsepsion	-12.0167
▁explosion	-12.0169
▁strasbourg	-12.0169
▁suspicious	-12.0169
▁distant	-12.0174
▁proteinas	-12.0175
▁successfully	-12.0176
▁whiskey	-12.0182
▁charity	-12.0182
▁observando	-12.0183
▁diverse	-12.0185
▁brindar	-12.0186
bla	-12.0186
▁aktrisa	-12.0188
▁mosa	-12.0188
▁manuel	-12.0189
▁inspection	-12.0189
▁artists	-12.0193
▁urbana	-12.0193
▁gettin	-12.0194
▁prosecutor	-12.0194
▁ambeza	-12.0198
▁kuadros	-12.0199
▁sana	-12.02
▁sivilizasion	-12.0202
▁ekspediente	-12.0202
▁pasear	-12.0202
▁washed	-12.0204
▁transferred	-12.0208
lina	-12.0208
blo	-12.021
▁kultivos	-12.0211
▁display	-12.0212
▁auditors	-12.0214
▁eksidjensia	-12.0215
▁debilidad	-12.0218
▁multilateral	-12.022
▁supervivensia	-12.022
▁clown	-12.022
▁coincidence	-12.022
▁aspirin	-12.0221
▁largate	-12.0223
▁doubts	-12.0226
▁organizada	-12.0226
▁digna	-12.0228
▁nasido	-12.023
▁negativos	-12.023
▁tipiko	-12.0231
▁profound	-12.0231
▁supplies	-12.0233
▁prosperity	-12.0233
▁belonging	-12.0234
▁moor	-12.0236
cor	-12.0238
▁admire	-12.0239
▁yamaron	-12.024
▁eksterna	-12.0241
▁sphere	-12.0241
▁incorporated	-12.0243
▁threats	-12.0246
▁piedad	-12.0247
▁dioes	-12.0248
▁cable	-12.0249
▁publikar	-12.025
▁eksperimentos	-12.0252
pul	-12.0252
▁pasi	-12.0257
▁lidjera	-12.0257
▁tries	-12.0258
▁alkanso	-12.0259
▁frasier	-12.0259
▁moscow	-12.0259
▁oirlo	-12.026
▁digno	-12.0261
▁dimelo	-12.0261
▁ngos	-12.0261
▁intentava	-12.0261
▁contributed	-12.0262
▁bla	-12.0265
▁marea	-12.0267
▁diles	-12.0268
▁proceedings	-12.0268
▁distingir	-12.0269
▁adekuadas	-12.0274
▁sally	-12.0274
▁toparse	-12.0277
cur	-12.0277
▁temprana	-12.028
▁kolecsion	-12.0281
isimo	-12.0284
▁liquid	-12.0284
▁estrasburgo	-12.0285
▁pares	-12.0287
▁serias	-12.0287
▁spirits	-12.0288
▁intensive	-12.0289
▁entri	-12.029
▁karreras	-12.029
▁goza	-12.029
▁insufficient	-12.0292
tenido	-12.0293
▁suspicion	-12.0293
▁pendientes	-12.0294
▁anunsiar	-12.0295
▁bivyo	-12.0298
▁solitario	-12.0298
▁renewable	-12.0298
▁protesis	-12.0298
▁kayar	-12.03
▁resource	-12.0302
▁exploitation	-12.0302
▁kantante	-12.0306
▁autos	-12.0307
▁bombas	-12.031
▁clara	-12.031
▁famoza	-12.0311
▁marruekos	-12.0311
american	-12.0311
▁aliento	-12.0312
▁parientes	-12.0313
pas	-12.0319
▁pillar	-12.0321
▁salas	-12.0322
▁idiotas	-12.0325
▁ekssepsional	-12.033
▁anyhow	-12.033
▁merka	-12.0331
▁ending	-12.0331
▁eliminate	-12.0331
▁madres	-12.0337
▁sarah	-12.034
▁weakness	-12.0344
▁ceremony	-12.035
▁espantavle	-12.035
▁eskosia	-12.035
▁gordon	-12.035
▁implies	-12.035
▁sustainability	-12.035
▁comin	-12.0352
▁drake	-12.0353
▁stepen	-12.0356
▁promoted	-12.0362
▁artur	-12.0362
▁horn	-12.0363
▁noon	-12.0363
▁flakoes	-12.0364
▁golpeo	-12.0365
▁carol	-12.0369
▁slide	-12.037
▁dedikar	-12.0373
▁direktos	-12.0374
▁squad	-12.0375
▁alkiler	-12.0376
▁mysterious	-12.0376
▁kriado	-12.0378
amente	-12.0379
▁realizadas	-12.0382
estuvites	-12.0385
▁bevyendo	-12.0385
▁diagnosed	-12.0386
▁justifikar	-12.0386
▁adolessentes	-12.0386
▁partis	-12.0387
▁femenina	-12.0389
▁incredibly	-12.0389
▁harvey	-12.0389
▁kondenado	-12.0391
emp	-12.0392
hello	-12.0392
▁sufficiently	-12.0395
▁dulses	-12.0396
▁rely	-12.0397
▁vih	-12.0398
▁physician	-12.0399
▁medication	-12.0399
▁muertes	-12.0401
▁traveling	-12.0402
▁cage	-12.0405
▁limitations	-12.0405
▁krean	-12.0406
▁archivos	-12.0409
▁zi	-12.0409
▁prudente	-12.0411
▁wages	-12.0412
▁pozo	-12.0413
▁seksto	-12.0415
▁disgusting	-12.0416
▁composed	-12.0417
▁kontando	-12.0419
▁tokes	-12.0419
▁empede	-12.042
▁clients	-12.0422
ude	-12.0423
▁etapas	-12.0425
▁embarazada	-12.0426
tengo	-12.0426
▁accounting	-12.0427
▁anxiety	-12.0428
▁kobertura	-12.0428
▁konsierne	-12.0428
▁angola	-12.0429
▁koyar	-12.0429
▁koro	-12.0429
▁gbernamentales	-12.0432
▁asalto	-12.0433
▁funsione	-12.0433
kel	-12.0433
▁online	-12.0436
met	-12.0438
▁fasilidad	-12.0438
▁fotografias	-12.0439
▁djigante	-12.0439
▁godron	-12.0439
▁guevo	-12.0439
▁intense	-12.044
▁gosh	-12.044
▁banana	-12.044
▁despair	-12.0441
▁netherlands	-12.0441
▁satisfaktoria	-12.0441
▁cotton	-12.0441
▁felisitasiones	-12.0443
▁shefes	-12.0444
long	-12.0444
▁publication	-12.0446
▁forsa	-12.0446
▁nest	-12.0448
▁mantenen	-12.0451
▁livras	-12.0451
estuvyeron	-12.0452
▁tunel	-12.0452
▁grandpa	-12.0453
▁retos	-12.0453
▁lincoln	-12.0454
▁siensiaas	-12.0454
▁toilet	-12.0456
▁suiza	-12.0457
▁garantiza	-12.0459
▁willie	-12.0463
▁pensions	-12.0464
▁transform	-12.0464
estuvimos	-12.0466
▁ceiling	-12.0466
▁mansion	-12.0466
▁espanyoles	-12.0466
▁keridos	-12.0467
▁francis	-12.0467
csion	-12.0468
▁circus	-12.0468
▁innovative	-12.0468
▁kompartimos	-12.0468
wn	-12.047
▁kindly	-12.0472
▁naval	-12.0473
▁oradores	-12.0475
▁handling	-12.0475
▁wo	-12.0475
▁louise	-12.0476
▁resulted	-12.0476
▁kompetitivo	-12.0479
vol	-12.048
▁motores	-12.0481
▁sandwich	-12.0487
ified	-12.0488
▁creates	-12.0491
▁umanas	-12.0492
▁crops	-12.0493
▁troki	-12.0494
▁bushkamos	-12.0494
▁firmemente	-12.0499
▁armado	-12.0499
▁vegas	-12.0499
▁generations	-12.0502
▁ayegimos	-12.0503
▁devites	-12.0505
▁echi	-12.0505
▁sheet	-12.0507
▁venser	-12.0507
▁confession	-12.0508
▁humble	-12.0508
▁defeat	-12.0513
▁keriamos	-12.0514
▁aseptado	-12.0515
▁assigned	-12.0515
ric	-12.0517
▁siudadania	-12.052
▁sovrino	-12.052
ston	-12.0521
▁despedida	-12.0523
▁infections	-12.0523
▁magnitud	-12.0524
▁markado	-12.0525
▁afrikanos	-12.0525
▁searching	-12.0525
supimos	-12.0526
▁assensor	-12.0529
▁istorika	-12.0531
▁boot	-12.0532
▁pesadiya	-12.0533
▁leak	-12.0533
cio	-12.0534
▁angela	-12.0538
adje	-12.0538
▁vertical	-12.0538
▁importantly	-12.0539
▁gre	-12.054
▁demanding	-12.0542
▁irlandes	-12.0542
mika	-12.0546
▁symbol	-12.0547
▁beneath	-12.0547
▁escort	-12.0548
▁markas	-12.0549
▁cuts	-12.055
▁kri	-12.055
▁parlamentos	-12.0551
savido	-12.0554
▁basket	-12.0554
▁committees	-12.0556
▁kontaktos	-12.056
kado	-12.056
▁earthquake	-12.056
▁motherfucker	-12.056
▁finanzas	-12.056
supitesh	-12.0561
▁barriers	-12.0563
▁conservative	-12.0564
rika	-12.0564
▁turner	-12.0565
char	-12.0565
▁deals	-12.0565
supyeron	-12.0566
▁shan	-12.0567
▁penses	-12.0568
rus	-12.0569
▁fijate	-12.057
▁preparada	-12.0574
▁considerably	-12.0574
▁kontraste	-12.0574
▁homework	-12.0575
ement	-12.0575
▁defendant	-12.0576
▁invented	-12.0576
▁reverse	-12.0577
▁barreras	-12.0578
▁aka	-12.058
▁divertir	-12.058
tom	-12.0581
▁whip	-12.0582
▁applications	-12.0582
▁dedo	-12.0583
▁alter	-12.0583
▁dizian	-12.0584
▁rutina	-12.0585
yl	-12.0585
▁negotiating	-12.0587
▁patrick	-12.0587
▁hop	-12.0588
▁sakates	-12.0588
tie	-12.0588
▁measurement	-12.0588
▁franklin	-12.0589
because	-12.0595
▁sorprender	-12.0596
▁strangers	-12.0599
▁williams	-12.0599
▁kotidiano	-12.06
▁nasty	-12.06
▁teresa	-12.0601
▁veikulo	-12.0601
▁transportation	-12.0603
dale	-12.0604
jen	-12.0604
▁patente	-12.0604
▁traje	-12.0605
▁presa	-12.0607
▁vakas	-12.0608
sco	-12.0608
▁domain	-12.061
▁serves	-12.0612
tando	-12.0613
sch	-12.0613
▁koraje	-12.0614
cin	-12.0614
▁complexity	-12.0615
▁visto	-12.0617
mont	-12.0619
▁veni	-12.0619
lum	-12.062
▁finalidad	-12.0621
▁entradas	-12.0624
▁aserko	-12.0627
▁kanon	-12.0629
▁mount	-12.063
▁soviet	-12.0631
▁observations	-12.0631
▁sometidos	-12.0631
▁reveal	-12.0634
▁courts	-12.0635
▁visitors	-12.0635
▁komisiones	-12.0637
han	-12.0637
▁eskonde	-12.0637
▁apuestas	-12.0639
▁velar	-12.064
▁karese	-12.064
▁forthcoming	-12.064
▁bosnia	-12.0641
▁globalisation	-12.0642
▁maya	-12.0642
▁katy	-12.0643
▁th	-12.0643
▁goodnight	-12.0646
uro	-12.0646
▁staring	-12.0646
▁mosu	-12.0648
▁prevented	-12.0649
djes	-12.0649
▁garson	-12.0649
▁chick	-12.065
ktor	-12.0653
▁selebro	-12.0654
▁omero	-12.0656
▁maiz	-12.0656
ib	-12.0656
▁lean	-12.0657
ching	-12.0657
▁konsegirlo	-12.0658
▁konfirma	-12.0658
▁distress	-12.0659
yama	-12.0662
smo	-12.0662
▁bicycle	-12.0667
▁oksidente	-12.0668
▁fassinante	-12.0668
▁kandela	-12.0668
▁ambition	-12.0668
ira	-12.0668
▁blair	-12.0669
▁managing	-12.0669
▁distal	-12.0671
▁manners	-12.0672
▁ambientales	-12.0676
agora	-12.0677
▁odds	-12.0677
rita	-12.0678
▁krema	-12.0679
▁embii	-12.0681
lio	-12.0681
▁entran	-12.0681
▁threshold	-12.0682
▁depender	-12.0682
▁tiempa	-12.0682
▁deposit	-12.0684
▁charm	-12.0684
tero	-12.0688
▁modest	-12.0689
▁poet	-12.0689
ux	-12.069
▁gion	-12.069
▁knee	-12.069
▁emplear	-12.0692
ett	-12.0693
▁arrankar	-12.0693
▁sherlock	-12.0694
poli	-12.0696
▁aprobada	-12.0696
▁kite	-12.0697
▁witch	-12.0703
▁sheila	-12.0705
▁failing	-12.0705
▁fri	-12.0706
pho	-12.0706
tuvo	-12.0707
▁stubborn	-12.0708
▁beloved	-12.0708
▁checks	-12.0712
▁izlas	-12.0717
▁onrado	-12.0717
▁kastigar	-12.0721
▁aparejo	-12.0721
▁kolonos	-12.0722
▁sonyando	-12.0722
▁ignorar	-12.0722
▁dezayunar	-12.0722
▁kindness	-12.0724
▁reparar	-12.0724
▁explore	-12.0725
▁infrastrukturas	-12.0725
estas	-12.0729
▁radikal	-12.073
▁liberales	-12.0732
tura	-12.0734
▁pintar	-12.0735
▁gulf	-12.0735
▁statute	-12.0736
▁assured	-12.0736
▁gru	-12.0739
▁complaints	-12.0739
▁schemes	-12.074
▁komparte	-12.0741
▁gatos	-12.0741
▁kinda	-12.0744
run	-12.0744
estadistikamente	-12.0744
▁pages	-12.0746
▁joining	-12.0747
▁jovensita	-12.0748
▁racism	-12.0748
▁epatika	-12.0749
▁balls	-12.0749
▁rekodr	-12.0749
▁wade	-12.075
▁ultra	-12.075
▁referen	-12.075
▁vous	-12.0751
▁brinda	-12.0751
▁altar	-12.0751
▁konsultar	-12.0754
▁savian	-12.0755
▁tejidos	-12.0756
▁destinados	-12.0757
▁aganta	-12.0758
▁creatures	-12.0761
▁texts	-12.0763
▁surrounding	-12.0766
▁konsesion	-12.0767
▁string	-12.077
▁ospitales	-12.077
▁cleared	-12.0774
▁disagree	-12.0774
▁connect	-12.0776
▁literally	-12.0776
▁oriya	-12.0776
▁wallet	-12.0777
▁joder	-12.0778
▁aproksimasion	-12.0778
anne	-12.0778
▁puedias	-12.078
hour	-12.0782
▁terrorists	-12.0782
▁fears	-12.0787
komp	-12.0787
▁cleaning	-12.0787
semos	-12.0788
▁flora	-12.0791
▁discovery	-12.0794
vino	-12.0795
▁ambision	-12.0796
▁acquired	-12.0798
▁tornava	-12.0799
▁matarlo	-12.08
▁alkunya	-12.0803
▁peggy	-12.0803
▁donald	-12.0803
▁fanny	-12.0803
▁sotano	-12.0804
▁adoptado	-12.0805
▁partikulares	-12.0805
▁elizabet	-12.0806
▁copper	-12.0806
▁gratitude	-12.0806
point	-12.0806
▁wit	-12.0806
▁bertie	-12.0807
▁josh	-12.0809
▁separasion	-12.081
▁formulasion	-12.0811
▁howard	-12.0816
▁elevator	-12.0817
bed	-12.0817
▁brazilian	-12.0818
▁chester	-12.082
▁highway	-12.082
▁rechaza	-12.0822
▁panza	-12.0822
▁remarks	-12.0824
kro	-12.0824
▁computers	-12.0824
▁metemos	-12.0825
▁grain	-12.0825
▁rasizmo	-12.083
iano	-12.0831
▁rue	-12.0833
▁investors	-12.0834
▁kemar	-12.0834
▁ski	-12.0835
▁respects	-12.0839
▁shaw	-12.084
din	-12.0841
isima	-12.0842
iyo	-12.0842
▁apresio	-12.0844
▁cardinal	-12.0844
▁uncertainty	-12.0844
▁puertos	-12.0846
ato	-12.0846
▁flows	-12.0846
▁sorprendido	-12.0847
▁turko	-12.085
▁sv	-12.085
mba	-12.0852
▁surrender	-12.0853
▁holds	-12.0856
▁stroke	-12.0857
▁marilyn	-12.0857
▁tendency	-12.0858
ach	-12.0859
▁pistol	-12.0859
▁laying	-12.086
▁trunk	-12.0862
▁kantando	-12.0864
▁virdjen	-12.0864
▁hank	-12.087
▁raton	-12.0871
▁asasinado	-12.0871
▁konfuzo	-12.0871
▁wives	-12.0871
▁deveres	-12.0872
sey	-12.0875
▁emision	-12.0879
ery	-12.0882
dul	-12.0882
▁interesados	-12.0883
▁resign	-12.0883
▁removal	-12.0885
▁aksepta	-12.0886
▁esensia	-12.0888
▁rational	-12.0891
▁assets	-12.0898
▁circulation	-12.0899
▁insertidumbre	-12.0899
▁shakespeare	-12.0899
▁romantiko	-12.09
▁robbery	-12.09
▁komentar	-12.0901
▁closet	-12.0903
▁alimento	-12.0903
▁ombros	-12.0904
▁kontratar	-12.0907
▁pega	-12.0908
▁kat	-12.0908
▁vendedor	-12.0909
▁rh	-12.0909
▁deeper	-12.091
▁asks	-12.0911
▁nephew	-12.0912
▁picnic	-12.0912
▁deudas	-12.0913
▁welcomed	-12.0913
▁finest	-12.0914
▁cease	-12.0915
▁fal	-12.0916
iz	-12.0916
▁rats	-12.0917
▁trigger	-12.0918
▁ruedas	-12.0919
top	-12.0925
▁eksepsiones	-12.0926
▁kobra	-12.0926
▁bailey	-12.0927
▁wider	-12.0928
▁darwin	-12.0928
▁grita	-12.093
arte	-12.093
▁aparesen	-12.0932
▁voyage	-12.0934
▁salarios	-12.0935
▁alise	-12.0935
▁reno	-12.0938
▁barton	-12.0938
▁resort	-12.094
▁deshava	-12.094
▁torres	-12.094
▁diskursos	-12.094
▁competent	-12.0941
▁permitted	-12.0941
esa	-12.0943
▁assenso	-12.0947
▁tina	-12.0948
▁eskritor	-12.0949
iana	-12.0949
▁ekivoka	-12.095
▁tiraron	-12.0953
ema	-12.0953
▁fuss	-12.0953
▁painted	-12.0953
▁screaming	-12.0954
▁delicious	-12.0954
▁integridad	-12.0954
▁menu	-12.0954
▁tumores	-12.0956
iese	-12.0956
▁trokando	-12.0959
▁raid	-12.096
bert	-12.0961
▁determinada	-12.0961
▁eb	-12.0966
▁peak	-12.0966
▁maskulino	-12.0968
▁maritima	-12.0968
▁firing	-12.0968
▁encouraged	-12.0969
▁surprising	-12.097
▁declara	-12.0971
yu	-12.0971
▁stiff	-12.0971
▁selular	-12.0971
from	-12.0972
▁delikado	-12.0973
▁arreglamiento	-12.0974
▁taya	-12.0974
▁disorders	-12.0974
▁desnuda	-12.0978
foot	-12.0978
▁tremendous	-12.0979
▁linkoln	-12.0982
▁institusionales	-12.0982
jar	-12.0982
▁olvidates	-12.0987
▁kontempla	-12.0987
▁pasaporto	-12.0989
▁viva	-12.0989
▁transit	-12.0992
▁stres	-12.0994
▁scores	-12.0994
▁tibet	-12.0995
▁propuestas	-12.0995
▁tendrias	-12.0996
▁democrat	-12.0997
▁lanso	-12.0997
▁wicked	-12.0997
eg	-12.0998
▁meresen	-12.1
▁dolores	-12.1
▁fra	-12.1
▁arriesgar	-12.1001
▁asian	-12.1002
▁ekuasion	-12.1003
▁clouds	-12.1005
▁limitada	-12.1006
jan	-12.1007
▁layer	-12.1007
▁detektar	-12.1007
▁maneja	-12.1008
ktiva	-12.1009
▁establesyeron	-12.1009
▁orkesta	-12.1009
erman	-12.1011
▁mothers	-12.1012
▁detected	-12.1013
▁sistematika	-12.1015
▁desired	-12.1015
▁otto	-12.1016
▁mason	-12.1018
▁etiketado	-12.1019
▁kap	-12.1019
▁males	-12.1019
▁"""""""...	-12.1022
▁speeches	-12.1024
▁andjela	-12.1027
▁detect	-12.1029
end	-12.1029
pping	-12.1031
▁shu	-12.1032
▁fatiga	-12.1032
▁wage	-12.1033
▁apparent	-12.1035
▁cultures	-12.1035
▁pensen	-12.1036
miss	-12.1036
▁homes	-12.1036
▁blast	-12.1037
▁prinsipaas	-12.1037
▁rekonosyo	-12.1037
▁ukrania	-12.1037
▁arvey	-12.1037
▁replacement	-12.1038
▁kompetente	-12.1044
▁medision	-12.1044
▁sho	-12.1045
▁dam	-12.1045
▁simbolo	-12.1046
▁antojos	-12.105
▁asasinos	-12.1051
▁creative	-12.1051
▁pregnancy	-12.1051
gie	-12.1054
▁deskarga	-12.1054
▁retro	-12.1056
▁seko	-12.1058
▁pila	-12.1061
▁yamates	-12.1062
▁signals	-12.1063
▁reflects	-12.1064
▁empa	-12.1064
▁peculiar	-12.1065
▁supreme	-12.1065
▁esandalo	-12.1065
▁skull	-12.1065
▁oppose	-12.1068
▁alike	-12.1069
▁poorest	-12.107
▁mundiales	-12.1072
▁disorder	-12.1072
▁resaltar	-12.1072
▁judio	-12.1073
▁bastadro	-12.1073
mouth	-12.1075
▁tiempas	-12.1078
▁shh	-12.1078
▁wrap	-12.1079
▁redaksion	-12.1079
▁adoptadas	-12.108
▁claus	-12.1081
torio	-12.1082
▁traversar	-12.1082
mira	-12.1087
▁padje	-12.1087
▁kur	-12.1088
ule	-12.1088
▁achievement	-12.1089
▁lobby	-12.1089
▁shelter	-12.1089
▁rolling	-12.1089
▁informo	-12.109
lero	-12.1091
▁fer	-12.1091
▁viral	-12.1093
▁lealtad	-12.1093
▁komenzi	-12.1093
▁keja	-12.1094
▁virginia	-12.1096
▁ekstranya	-12.1096
▁capture	-12.1096
▁revela	-12.1096
▁mecanika	-12.11
▁relates	-12.1101
▁screw	-12.1103
▁privilege	-12.1103
▁ocsidentales	-12.1105
▁orror	-12.1106
▁estimate	-12.1107
▁biblia	-12.1107
▁savyendo	-12.1107
tres	-12.1107
▁kraneo	-12.1108
▁breaks	-12.1109
▁restricted	-12.111
▁frekuentes	-12.1112
▁etiketa	-12.1113
▁soltero	-12.1113
ors	-12.1115
▁trokaron	-12.1116
sson	-12.1117
▁thorough	-12.1119
▁vulnerabilidad	-12.1121
▁akontesido	-12.1122
▁dedicated	-12.1124
▁presiones	-12.1125
tuvites	-12.1125
▁intentan	-12.1126
▁velo	-12.1128
▁kito	-12.1129
▁apariensia	-12.1129
▁roots	-12.113
▁traidor	-12.1134
▁kreas	-12.1137
zon	-12.1139
▁shots	-12.1142
▁valid	-12.1145
iest	-12.1145
▁kuanta	-12.1146
▁estupenda	-12.1148
▁destaka	-12.1148
▁jennings	-12.1149
▁vitorino	-12.1149
▁hollywood	-12.115
ali	-12.1151
book	-12.1153
▁hail	-12.1158
▁kondado	-12.1159
▁surgeon	-12.1159
▁melde	-12.1159
▁freak	-12.116
▁inosentes	-12.1162
▁akademia	-12.1164
▁persegir	-12.1164
▁inkorporasion	-12.1164
▁ofisio	-12.1165
▁laughed	-12.1166
▁eksplikasiones	-12.1168
▁dezeye	-12.1169
▁morse	-12.1169
▁sciences	-12.1169
▁fei	-12.1171
▁empleos	-12.1173
uda	-12.1174
▁moderno	-12.1175
▁largos	-12.1175
▁konvensional	-12.1176
▁czech	-12.1178
▁kuartel	-12.1178
▁serteza	-12.1178
▁disulpeme	-12.1178
rez	-12.118
▁owadr	-12.1182
▁bible	-12.1183
▁burst	-12.1184
▁bienvenidos	-12.1184
▁kulevra	-12.1185
aba	-12.1186
duc	-12.1187
▁fulfil	-12.1189
▁diamonds	-12.1189
▁germans	-12.1191
▁suits	-12.1191
▁orizonte	-12.1192
rick	-12.1192
▁cigar	-12.1193
▁output	-12.1193
▁demora	-12.1194
▁akabava	-12.1194
ega	-12.1195
ily	-12.1196
▁amigas	-12.1196
▁exit	-12.1197
▁freely	-12.1198
▁konsede	-12.1199
▁ty	-12.1201
▁basiko	-12.1201
▁rank	-12.1202
dent	-12.1202
▁announce	-12.1203
▁mantenerse	-12.1205
▁clerk	-12.1206
▁periodontal	-12.1206
▁pp	-12.1206
▁ongoing	-12.1208
▁protesta	-12.1208
▁enhance	-12.1208
))	-12.121
tine	-12.1211
cul	-12.1211
▁actress	-12.1214
win	-12.1214
▁obstakolo	-12.1216
▁asender	-12.1217
▁bonos	-12.1218
▁estadistika	-12.122
▁alfombra	-12.122
▁kodesision	-12.122
▁postoperative	-12.1221
▁arre	-12.1223
▁gane	-12.1223
bal	-12.1224
▁suggesting	-12.1224
▁imports	-12.1225
four	-12.1226
▁sufren	-12.1226
▁candidates	-12.123
▁verbal	-12.123
▁emprestado	-12.123
▁pays	-12.1231
▁demandado	-12.1232
▁influir	-12.1235
▁komen	-12.1235
▁selfish	-12.1235
▁angeles	-12.1237
▁bos	-12.124
tuvimos	-12.1241
▁guts	-12.1241
▁attended	-12.1243
▁ormigon	-12.1247
▁entren	-12.1248
▁heritage	-12.1249
▁konfeso	-12.1249
▁wiyiams	-12.1252
▁kamara	-12.1253
▁needle	-12.1253
▁couch	-12.1257
▁inkorporar	-12.1259
▁prokurar	-12.1259
▁encounter	-12.1259
pot	-12.126
▁troke	-12.126
town	-12.1262
▁inner	-12.1263
▁lidjero	-12.1263
▁pronostiko	-12.1263
▁trankilidad	-12.1263
▁bajos	-12.1264
▁injured	-12.1264
▁tag	-12.1265
▁djenetikamente	-12.1265
▁salvajes	-12.1265
▁rigor	-12.1265
▁asemejantes	-12.1266
▁""""...	-12.1268
▁lawyers	-12.1269
▁desplazamiento	-12.1273
▁aedado	-12.1274
▁exclusive	-12.1275
pues	-12.1276
▁kamiones	-12.1276
▁departure	-12.1277
▁limpieza	-12.1277
▁detenido	-12.1279
▁taxation	-12.1279
[...]
