<unk>	0
<s>	0
</s>	0
<LAD>	0
<ENG>	0
<SPA>	0
<TUR>	0
<0x00>	0
<0x01>	0
<0x02>	0
<0x03>	0
<0x04>	0
<0x05>	0
<0x06>	0
<0x07>	0
<0x08>	0
<0x09>	0
<0x0A>	0
<0x0B>	0
<0x0C>	0
<0x0D>	0
<0x0E>	0
<0x0F>	0
<0x10>	0
<0x11>	0
<0x12>	0
<0x13>	0
<0x14>	0
<0x15>	0
<0x16>	0
<0x17>	0
<0x18>	0
<0x19>	0
<0x1A>	0
<0x1B>	0
<0x1C>	0
<0x1D>	0
<0x1E>	0
<0x1F>	0
<0x20>	0
<0x21>	0
<0x22>	0
<0x23>	0
<0x24>	0
<0x25>	0
<0x26>	0
<0x27>	0
<0x28>	0
<0x29>	0
<0x2A>	0
<0x2B>	0
<0x2C>	0
<0x2D>	0
<0x2E>	0
<0x2F>	0
<0x30>	0
<0x31>	0
<0x32>	0
<0x33>	0
<0x34>	0
<0x35>	0
<0x36>	0
<0x37>	0
<0x38>	0
<0x39>	0
<0x3A>	0
<0x3B>	0
<0x3C>	0
<0x3D>	0
<0x3E>	0
<0x3F>	0
<0x40>	0
<0x41>	0
<0x42>	0
<0x43>	0
<0x44>	0
<0x45>	0
<0x46>	0
<0x47>	0
<0x48>	0
<0x49>	0
<0x4A>	0
<0x4B>	0
<0x4C>	0
<0x4D>	0
<0x4E>	0
<0x4F>	0
<0x50>	0
<0x51>	0
<0x52>	0
<0x53>	0
<0x54>	0
<0x55>	0
<0x56>	0
<0x57>	0
<0x58>	0
<0x59>	0
<0x5A>	0
<0x5B>	0
<0x5C>	0
<0x5D>	0
<0x5E>	0
<0x5F>	0
<0x60>	0
<0x61>	0
<0x62>	0
<0x63>	0
<0x64>	0
<0x65>	0
<0x66>	0
<0x67>	0
<0x68>	0
<0x69>	0
<0x6A>	0
<0x6B>	0
<0x6C>	0
<0x6D>	0
<0x6E>	0
<0x6F>	0
<0x70>	0
<0x71>	0
<0x72>	0
<0x73>	0
<0x74>	0
<0x75>	0
<0x76>	0
<0x77>	0
<0x78>	0
<0x79>	0
<0x7A>	0
<0x7B>	0
<0x7C>	0
<0x7D>	0
<0x7E>	0
<0x7F>	0
<0x80>	0
<0x81>	0
<0x82>	0
<0x83>	0
<0x84>	0
<0x85>	0
<0x86>	0
<0x87>	0
<0x88>	0
<0x89>	0
<0x8A>	0
<0x8B>	0
<0x8C>	0
<0x8D>	0
<0x8E>	0
<0x8F>	0
<0x90>	0
<0x91>	0
<0x92>	0
<0x93>	0
<0x94>	0
<0x95>	0
<0x96>	0
<0x97>	0
<0x98>	0
<0x99>	0
<0x9A>	0
<0x9B>	0
<0x9C>	0
<0x9D>	0
<0x9E>	0
<0x9F>	0
<0xA0>	0
<0xA1>	0
<0xA2>	0
<0xA3>	0
<0xA4>	0
<0xA5>	0
<0xA6>	0
<0xA7>	0
<0xA8>	0
<0xA9>	0
<0xAA>	0
<0xAB>	0
<0xAC>	0
<0xAD>	0
<0xAE>	0
<0xAF>	0
<0xB0>	0
<0xB1>	0
<0xB2>	0
<0xB3>	0
<0xB4>	0
<0xB5>	0
<0xB6>	0
<0xB7>	0
<0xB8>	0
<0xB9>	0
<0xBA>	0
<0xBB>	0
<0xBC>	0
<0xBD>	0
<0xBE>	0
<0xBF>	0
<0xC0>	0
<0xC1>	0
<0xC2>	0
<0xC3>	0
<0xC4>	0
<0xC5>	0
<0xC6>	0
<0xC7>	0
<0xC8>	0
<0xC9>	0
<0xCA>	0
<0xCB>	0
<0xCC>	0
<0xCD>	0
<0xCE>	0
<0xCF>	0
<0xD0>	0
<0xD1>	0
<0xD2>	0
<0xD3>	0
<0xD4>	0
<0xD5>	0
<0xD6>	0
<0xD7>	0
<0xD8>	0
<0xD9>	0
<0xDA>	0
<0xDB>	0
<0xDC>	0
<0xDD>	0
<0xDE>	0
<0xDF>	0
<0xE0>	0
<0xE1>	0
<0xE2>	0
<0xE3>	0
<0xE4>	0
<0xE5>	0
<0xE6>	0
<0xE7>	0
<0xE8>	0
<0xE9>	0
<0xEA>	0
<0xEB>	0
<0xEC>	0
<0xED>	0
<0xEE>	0
<0xEF>	0
<0xF0>	0
<0xF1>	0
<0xF2>	0
<0xF3>	0
<0xF4>	0
<0xF5>	0
<0xF6>	0
<0xF7>	0
<0xF8>	0
<0xF9>	0
<0xFA>	0
<0xFB>	0
<0xFC>	0
<0xFD>	0
<0xFE>	0
<0xFF>	0
.	-2.73578
,	-3.13371
▁de	-3.23436
▁la	-3.74176
▁el	-3.82583
▁a	-3.85997
▁en	-4.08339
▁no	-4.25436
▁ke	-4.27656
?	-4.36221
▁que	-4.38718
▁	-4.52011
▁-	-4.52213
▁un	-4.65551
▁los	-4.68155
▁es	-4.69784
▁y	-4.76538
s	-4.76684
▁i	-4.80814
▁se	-4.8327
▁una	-4.94492
▁por	-4.97607
▁lo	-5.03145
▁las	-5.12304
▁¿	-5.15046
▁para	-5.18354
▁me	-5.24624
!	-5.24879
...	-5.36052
0	-5.43664
▁si	-5.47086
▁su	-5.51312
▁esta	-5.58944
▁mi	-5.63836
▁pero	-5.67852
▁kon	-5.6933
▁te	-5.69818
▁con	-5.76081
▁este	-5.8084
1	-5.84104
▁va	-5.93419
▁tu	-5.93742
▁del	-5.96048
▁le	-5.9983
▁¡	-6.10076
2	-6.1021
▁yo	-6.13598
▁como	-6.14423
▁al	-6.20882
▁o	-6.22202
▁"""	-6.23779
▁esto	-6.26913
▁todo	-6.35522
n	-6.36101
▁komo	-6.39267
▁ser	-6.4136
▁maz	-6.44495
▁más	-6.45236
▁ya	-6.47034
▁bueno	-6.47085
▁""""	-6.47368
▁nos	-6.51443
▁son	-6.60386
▁sus	-6.61946
▁fue	-6.62219
5	-6.63916
▁muncho	-6.66796
▁está	-6.67964
9	-6.69435
▁algo	-6.7115
▁ha	-6.71275
es	-6.74834
▁puede	-6.75559
3	-6.78388
no	-6.7924
▁solo	-6.79511
▁vez	-6.79793
lo	-6.80003
▁todos	-6.80053
-	-6.80476
▁sin	-6.81109
a	-6.84323
▁era	-6.85876
▁vamos	-6.88438
▁qué	-6.88688
▁dos	-6.95373
▁nada	-6.95554
4	-6.96321
▁ese	-6.96771
▁aki	-6.97087
/	-6.99174
▁"""""""	-7.00565
▁aquí	-7.01664
▁eso	-7.02094
▁tan	-7.02501
:	-7.03632
▁tiempo	-7.04758
▁ver	-7.05597
se	-7.05899
▁sr	-7.06853
y	-7.08645
▁muy	-7.08735
▁kuando	-7.09605
▁tengo	-7.10108
▁bien	-7.13594
8	-7.14814
▁entre	-7.16342
qué	-7.16358
me	-7.16838
▁cuando	-7.18085
▁ni	-7.18143
6	-7.18408
▁:	-7.19572
▁asi	-7.19774
▁hay	-7.20691
mos	-7.21121
▁vida	-7.22173
r	-7.23239
▁(	-7.23787
▁uno	-7.24844
▁ay	-7.24932
▁estas	-7.2497
7	-7.25069
▁les	-7.25776
▁agora	-7.26529
▁sobre	-7.26686
▁hacer	-7.27039
▁ahora	-7.29165
te	-7.29234
▁puedo	-7.29338
▁así	-7.3
▁sí	-7.30148
▁sovre	-7.30247
▁he	-7.31078
▁desde	-7.31712
▁antes	-7.32708
;	-7.34668
▁tiene	-7.34809
▁mundo	-7.3716
la	-7.3742
▁siempre	-7.37994
▁tener	-7.38785
▁tambien	-7.39427
▁estar	-7.40154
do	-7.41445
▁van	-7.41621
▁también	-7.42484
▁él	-7.42634
▁otra	-7.4346
▁despues	-7.43794
▁parte	-7.44144
▁ir	-7.45951
▁azer	-7.47834
▁gran	-7.49744
▁lugar	-7.50073
▁otro	-7.50323
▁sólo	-7.50366
▁tyene	-7.52577
le	-7.53612
o	-7.53705
▁noche	-7.54016
▁mis	-7.56722
▁vas	-7.57285
▁tanto	-7.57733
▁favor	-7.58127
▁estos	-7.58242
▁donde	-7.59215
▁senyor	-7.59601
▁usted	-7.59645
▁sea	-7.60035
▁porke	-7.60256
▁mujer	-7.60767
▁señor	-7.61158
▁echo	-7.62205
por	-7.62958
▁kero	-7.64306
▁tenemos	-7.64668
▁quiero	-7.66588
▁e	-7.66891
▁porque	-7.67457
▁so	-7.67905
▁tal	-7.67935
▁estoy	-7.70123
▁otros	-7.70514
da	-7.71396
▁años	-7.7146
▁eya	-7.71593
▁momento	-7.71972
▁ken	-7.72849
▁han	-7.7411
▁anyos	-7.74411
▁forma	-7.74873
▁estamos	-7.74891
▁tres	-7.74967
▁ayi	-7.75201
▁dizir	-7.75399
▁todas	-7.75786
▁ella	-7.76473
▁pueden	-7.77945
▁durante	-7.79164
▁padre	-7.79591
▁aze	-7.79704
en	-7.80067
▁tipo	-7.80306
▁hace	-7.80464
▁personas	-7.8057
▁kreo	-7.81697
▁esa	-7.82517
▁tú	-7.82567
▁mucho	-7.84004
▁nunka	-7.84011
▁presidente	-7.84374
▁asta	-7.84397
▁creo	-7.84543
▁soy	-7.85096
e	-7.85246
▁toda	-7.85458
ndo	-7.85826
▁caza	-7.8618
▁casa	-7.8626
▁estan	-7.86666
▁hasta	-7.86802
▁mejor	-7.87552
▁mijor	-7.89045
▁estava	-7.90404
▁ti	-7.9041
▁estado	-7.90417
▁estados	-7.90549
de	-7.9132
▁deve	-7.91324
▁estaba	-7.91744
▁sé	-7.93136
el	-7.93298
▁están	-7.94306
▁mayor	-7.95349
▁puedes	-7.97124
▁dia	-7.97499
%	-7.97846
▁ombre	-7.97893
▁hombre	-7.98009
▁mí	-7.98851
▁europea	-7.99557
▁kozas	-7.99619
▁alora	-8.00148
▁nunca	-8.00344
mente	-8.01342
▁nombre	-8.01405
▁vo	-8.01718
▁hecho	-8.03275
▁mizmo	-8.04565
▁dar	-8.04642
▁día	-8.05293
▁manera	-8.05499
▁decir	-8.05514
▁madre	-8.06316
▁vedrad	-8.07226
▁unos	-8.07338
▁mal	-8.07775
▁primera	-8.07888
▁entonces	-8.08202
▁tom	-8.08939
▁cosas	-8.09048
▁avia	-8.09147
▁sido	-8.09659
▁mismo	-8.09938
▁)	-8.10516
▁mientras	-8.11031
▁voy	-8.11458
▁buena	-8.11562
)	-8.11618
▁algunos	-8.12179
▁trabajo	-8.12216
▁había	-8.12315
▁informe	-8.12668
▁poko	-8.13454
▁parlamento	-8.14713
▁muestra	-8.15584
▁disho	-8.15648
▁poco	-8.15816
▁sos	-8.1596
▁esos	-8.16355
▁amigo	-8.16792
▁buen	-8.18239
i	-8.18293
▁primer	-8.18651
▁debe	-8.18656
▁mujeres	-8.18773
▁komision	-8.18867
▁comisión	-8.18993
on	-8.19179
▁oh	-8.19726
va	-8.20935
▁djente	-8.20974
▁gente	-8.2116
▁después	-8.2195
▁anda	-8.22314
▁realmente	-8.22657
d	-8.22689
cómo	-8.22862
▁nuestros	-8.23244
▁kada	-8.2345
▁dinguno	-8.23706
▁cada	-8.2391
▁nosotros	-8.23976
▁mozotros	-8.24029
▁medio	-8.2453
▁idea	-8.24781
▁vi	-8.2499
▁punto	-8.25791
▁da	-8.26501
▁parese	-8.26693
▁parece	-8.27192
""""	-8.27295
▁sra	-8.27554
▁kere	-8.27888
▁fueron	-8.28937
▁embargo	-8.28938
▁pasa	-8.29106
▁eres	-8.29323
▁miembros	-8.29554
▁puederia	-8.31305
▁tus	-8.31435
▁agua	-8.3154
▁grupo	-8.32001
▁cómo	-8.32012
▁eyos	-8.32497
▁muchos	-8.32701
▁fin	-8.32828
▁manko	-8.33034
▁menos	-8.33211
▁muestro	-8.33345
▁ve	-8.33826
▁koza	-8.33977
ba	-8.34038
▁nuestro	-8.34748
▁ellos	-8.34901
▁otras	-8.35101
▁esas	-8.35235
▁avlar	-8.35309
▁dio	-8.35418
▁dijo	-8.35948
▁mira	-8.36351
▁oy	-8.36519
si	-8.36796
▁sistema	-8.36999
▁tierra	-8.37162
▁dinero	-8.37798
▁lado	-8.38549
▁amanyana	-8.38569
▁amor	-8.38812
▁pasado	-8.3902
▁hoy	-8.39035
an	-8.39385
▁algien	-8.3948
▁mañana	-8.39721
▁pueder	-8.40174
▁dicho	-8.40378
▁tienes	-8.40681
▁ahí	-8.41388
▁podría	-8.41393
▁paso	-8.41807
▁hemos	-8.41856
▁has	-8.41891
▁nuestra	-8.42606
▁tomar	-8.42617
▁pasar	-8.42769
▁nadie	-8.42924
▁shukur	-8.42995
▁ayuda	-8.43834
▁saves	-8.44488
▁quiere	-8.44947
l	-8.45091
▁keres	-8.45151
."""	-8.45163
▁europeo	-8.45314
▁salir	-8.45877
▁ijo	-8.45891
nos	-8.45901
▁devo	-8.45911
é	-8.45917
▁salud	-8.45945
▁gracias	-8.46227
▁alguien	-8.46359
▁trata	-8.46543
▁estás	-8.46982
""""."""	-8.47058
▁kontra	-8.47226
▁tenia	-8.47284
▁kual	-8.47757
▁primero	-8.47973
▁fuera	-8.48187
t	-8.48319
▁nuevo	-8.48478
▁contra	-8.48686
▁puedemos	-8.48846
▁muevo	-8.49059
ra	-8.49124
▁ven	-8.49127
▁presto	-8.49356
▁hablar	-8.49577
ia	-8.49647
▁tienen	-8.50089
los	-8.50245
▁aver	-8.50265
▁"""".	-8.50364
▁save	-8.50583
▁muerte	-8.50978
▁amigos	-8.51385
▁modo	-8.51396
▁ud	-8.51406
▁anyo	-8.51597
▁tyenes	-8.51727
▁será	-8.52086
▁importa	-8.52551
▁meter	-8.52572
▁verdad	-8.53255
▁tornar	-8.53413
▁allí	-8.542
▁devemos	-8.54266
▁falta	-8.54577
▁derecho	-8.54747
▁mano	-8.54796
▁podemos	-8.55271
▁tenía	-8.55344
▁persona	-8.55921
▁pensar	-8.57386
▁paras	-8.57436
ron	-8.57849
▁luego	-8.57923
▁año	-8.57967
▁dias	-8.58438
▁ainda	-8.58836
▁grandes	-8.59039
▁siguro	-8.599
das	-8.60295
▁importante	-8.6033
▁dize	-8.60531
▁dice	-8.60804
▁tyenen	-8.61198
dos	-8.6158
▁valutoza	-8.61907
▁pueda	-8.62028
▁derechos	-8.62043
▁viejo	-8.62282
▁caso	-8.63898
▁días	-8.63995
que	-8.64427
▁aún	-8.646
▁semana	-8.6469
▁digo	-8.64792
▁kuanto	-8.65447
▁kavzo	-8.6558
▁haber	-8.65589
▁sabe	-8.65636
▁nuestras	-8.65816
▁países	-8.65941
▁final	-8.65995
▁acuerdo	-8.66009
▁izo	-8.66428
▁union	-8.66445
as	-8.66493
os	-8.66494
▁debasho	-8.66706
▁klaro	-8.67711
▁ija	-8.68093
▁ojos	-8.68218
▁cosa	-8.68293
▁futuro	-8.68405
▁di	-8.68504
▁bastante	-8.68595
▁cuenta	-8.68699
▁veo	-8.68833
▁akordo	-8.68895
▁ora	-8.68931
▁veces	-8.69098
▁visto	-8.69141
▁fui	-8.69241
▁...	-8.69411
▁unión	-8.69462
▁puerta	-8.69548
▁vezes	-8.7
▁konsejo	-8.70098
▁grande	-8.70537
▁consejo	-8.70614
▁paizes	-8.70961
▁ninguna	-8.71056
▁estudio	-8.71263
▁minutos	-8.73517
▁seria	-8.73638
yo	-8.74013
▁manos	-8.74271
▁re	-8.74623
▁eran	-8.75013
c	-8.75038
▁nivel	-8.75061
▁portanto	-8.75456
▁afuera	-8.75973
▁asento	-8.76384
▁hombres	-8.76442
▁suerte	-8.76483
▁sabes	-8.76502
▁ombres	-8.76796
▁verso	-8.77397
is	-8.77532
▁dios	-8.78076
▁largo	-8.78464
▁atension	-8.78933
▁gusta	-8.78952
▁unidos	-8.79617
▁siento	-8.79819
▁pues	-8.79851
▁programa	-8.80289
m	-8.80421
á	-8.80422
▁kuenta	-8.80457
▁luz	-8.80661
▁saver	-8.80741
▁hacia	-8.80884
▁politika	-8.80998
▁srta	-8.81065
pero	-8.81231
▁diferentes	-8.81324
▁datos	-8.81604
▁política	-8.81691
▁mueva	-8.81796
▁problema	-8.82401
▁sigue	-8.82815
▁tarde	-8.83023
▁eslo	-8.83037
ke	-8.83107
▁claro	-8.83387
▁senyora	-8.83443
▁tadre	-8.83717
▁plaze	-8.84048
▁problem	-8.84079
▁señora	-8.84854
▁vista	-8.85373
▁aunke	-8.85386
▁ayudar	-8.85415
▁demaziado	-8.85475
▁muerto	-8.85721
tes	-8.85844
▁marido	-8.85874
▁sino	-8.85959
▁vino	-8.86019
▁par	-8.86061
▁nueva	-8.86182
▁poder	-8.86302
▁saber	-8.86378
▁hora	-8.86386
▁hijo	-8.86492
ya	-8.86528
▁-¿	-8.86837
▁vozotros	-8.86839
▁mar	-8.87052
▁demasiado	-8.87096
dónde	-8.87475
▁seguro	-8.88196
un	-8.88248
▁aunque	-8.88318
▁deshar	-8.88571
▁eh	-8.88628
▁auto	-8.88637
▁algna	-8.88763
▁azerlo	-8.88906
▁keria	-8.88936
▁vos	-8.89017
▁""	-8.89035
▁puesto	-8.89144
▁paiz	-8.89197
▁fuerte	-8.89213
▁país	-8.89285
▁quién	-8.89432
▁papel	-8.89685
▁kreaturas	-8.89713
▁alto	-8.90507
▁kualkier	-8.9072
▁dr	-8.90935
▁cualquier	-8.91132
▁quieres	-8.91408
▁sería	-8.91487
▁ariento	-8.9157
▁dentro	-8.91591
▁hacerlo	-8.91674
▁oportunidad	-8.91675
quién	-8.91723
▁quería	-8.92236
▁problemes	-8.9268
▁entrar	-8.93136
▁mas	-8.93537
ar	-8.93673
▁topar	-8.93736
▁problemas	-8.94176
▁respekto	-8.94191
las	-8.9452
▁doktor	-8.9483
▁razon	-8.94944
to	-8.95026
les	-8.95425
▁historia	-8.95496
ía	-8.95625
▁istoria	-8.95719
▁kreatura	-8.95752
▁toma	-8.95888
▁dishe	-8.95921
▁muchas	-8.96051
▁mil	-8.96393
▁munchas	-8.96558
▁tuve	-8.96603
▁supuesto	-8.96618
▁quien	-8.96807
▁eyo	-8.96874
▁sola	-8.96876
▁kamino	-8.96957
▁dije	-8.97043
▁ciudad	-8.97256
▁inkluzo	-8.9767
▁uso	-8.97855
▁buenas	-8.98059
▁tuvo	-8.98313
▁yevar	-8.98384
▁devria	-8.98397
▁edad	-8.98591
▁conmigo	-8.98593
▁"	-8.9873
re	-8.98734
▁dónde	-8.98823
mi	-8.98847
▁sivdad	-8.99164
▁razón	-8.99443
g	-8.99469
emos	-8.99608
▁tenga	-8.99641
▁indemas	-9.00293
na	-9.00339
▁sitio	-9.00375
▁libre	-9.00563
▁justo	-9.00769
▁kaji	-9.00774
▁kiza	-9.00794
▁serka	-9.0085
▁ayegar	-9.0087
▁ue	-9.00882
▁--	-9.00939
ka	-9.01075
▁in	-9.01164
▁niños	-9.01257
▁debería	-9.01262
▁juego	-9.01292
▁además	-9.013
▁resultados	-9.01455
▁alguna	-9.01769
▁hizo	-9.01817
▁algun	-9.01843
▁bajo	-9.01901
▁casi	-9.01958
▁papa	-9.02099
ó	-9.02283
▁ma	-9.02447
▁europa	-9.02485
ta	-9.02848
▁quizá	-9.03036
▁deves	-9.03056
▁guerra	-9.0307
▁deven	-9.03174
▁posible	-9.03284
▁gerra	-9.03571
▁evropa	-9.03625
▁ola	-9.03663
▁general	-9.0369
▁posivle	-9.03955
verdad	-9.04182
▁ah	-9.04433
▁todavia	-9.04454
▁djeneral	-9.04469
▁diez	-9.04515
▁matar	-9.04846
▁debate	-9.04949
▁unas	-9.04974
▁incluso	-9.05066
▁valor	-9.05179
al	-9.06131
▁vale	-9.06368
▁gustaría	-9.0646
ko	-9.06597
▁plazeria	-9.06787
▁fuerza	-9.0685
ción	-9.07098
▁estuvo	-9.07263
▁debemos	-9.07675
▁entender	-9.08093
▁dado	-9.08138
ste	-9.08199
▁adelante	-9.08359
▁komer	-9.08532
▁ejemplo	-9.08705
▁algún	-9.08828
▁sierto	-9.08955
▁rey	-9.09034
▁sangre	-9.09253
▁mizma	-9.09288
▁milyones	-9.09421
▁misma	-9.09423
▁egzempyo	-9.0947
▁ustedes	-9.09515
▁millones	-9.0955
▁pesar	-9.09768
▁buenos	-9.09791
▁io	-9.09872
▁seguridad	-9.10028
▁segridad	-9.10067
▁numero	-9.10101
▁chikos	-9.1016
▁aziendo	-9.1031
▁abajo	-9.10398
▁aspero	-9.10473
▁ley	-9.10567
▁desarroyo	-9.106
▁kavesa	-9.10615
sion	-9.10685
▁real	-9.10731
▁ize	-9.10918
▁apoyo	-9.11271
sh	-9.11314
▁cabeza	-9.11398
k	-9.11664
▁todavía	-9.12859
▁kara	-9.13356
▁haciendo	-9.13461
p	-9.13562
▁viaje	-9.13681
▁mama	-9.14033
▁torno	-9.14048
▁c	-9.14521
▁media	-9.14531
▁información	-9.14686
▁número	-9.14728
▁ayga	-9.1513
▁informasion	-9.15183
▁haya	-9.15367
▁plan	-9.15502
▁vayga	-9.15633
▁partir	-9.1568
▁demando	-9.15684
▁mundial	-9.15939
▁espero	-9.16122
▁desarrollo	-9.16633
▁debido	-9.1676
▁policía	-9.16766
▁cierto	-9.17196
▁camino	-9.17348
▁resto	-9.17394
▁oye	-9.17421
▁siguir	-9.17852
▁uvyera	-9.18002
▁ello	-9.18082
tu	-9.18137
▁polisiya	-9.1834
▁algnas	-9.1852
▁debo	-9.18522
▁familia	-9.18578
▁vuelta	-9.1858
▁semanas	-9.1887
▁personal	-9.19069
▁partes	-9.19268
▁algunas	-9.19323
▁kale	-9.19484
van	-9.19566
▁estuve	-9.19597
▁kuatro	-9.1968
▁famiya	-9.19718
▁ningun	-9.1975
▁realidad	-9.19853
▁p	-9.20019
▁cuatro	-9.20118
▁kerido	-9.20142
▁situasion	-9.20294
▁faktos	-9.2031
▁volver	-9.20445
▁cual	-9.20536
▁pagar	-9.20589
▁tenido	-9.20655
▁estudios	-9.20762
ria	-9.21229
▁ves	-9.21328
▁krees	-9.21432
▁serio	-9.21438
▁sinko	-9.21835
▁frente	-9.21839
▁espera	-9.22079
▁situación	-9.22101
▁chica	-9.22162
▁muevos	-9.22165
b	-9.22279
▁ayer	-9.22428
▁respecto	-9.22589
▁kapitan	-9.22668
▁sol	-9.22692
h	-9.23107
▁igal	-9.23207
▁finalmente	-9.23269
▁ermozo	-9.233
▁igual	-9.23726
▁mary	-9.2395
▁cinco	-9.23965
án	-9.23987
▁libertad	-9.24027
▁ningún	-9.24309
▁cuanto	-9.24625
▁padres	-9.24763
▁pronto	-9.24769
▁horas	-9.24848
sí	-9.24905
▁vaya	-9.25062
▁voz	-9.25071
▁oras	-9.25189
▁sean	-9.2519
▁d	-9.2531
▁hola	-9.25594
▁venir	-9.25673
▁os	-9.25819
▁simplemente	-9.25854
▁b	-9.25962
▁york	-9.26043
▁dan	-9.26458
▁sala	-9.26526
▁dolar	-9.26673
▁resultado	-9.26844
▁somos	-9.26937
▁publiko	-9.27087
▁diga	-9.27148
▁armas	-9.2723
con	-9.27499
▁llegar	-9.2756
▁sur	-9.27751
▁dolor	-9.27758
▁savia	-9.28403
▁sentido	-9.28413
▁pregunta	-9.28723
▁papá	-9.28873
▁mediante	-9.28892
▁mantener	-9.2901
▁materia	-9.29092
▁uniko	-9.29148
▁deben	-9.29398
▁contigo	-9.29602
f	-9.29683
ban	-9.29974
▁capitán	-9.30011
▁difisil	-9.30157
▁san	-9.30248
▁pas	-9.30268
▁semos	-9.30343
▁norte	-9.30509
▁diferente	-9.30611
▁probablemente	-9.30623
▁iva	-9.30843
▁único	-9.3116
▁profesor	-9.31328
▁resulta	-9.31334
in	-9.31401
▁alta	-9.31483
▁joven	-9.31532
ma	-9.31768
ha	-9.31801
▁nesesario	-9.31848
▁evitar	-9.31883
▁total	-9.32016
▁universidad	-9.32125
▁ante	-9.3223
--	-9.32316
▁ultimo	-9.3245
▁kijera	-9.32452
▁animales	-9.32703
▁mio	-9.3278
▁tras	-9.32842
▁espanto	-9.32844
▁pie	-9.32899
▁quisiera	-9.33321
▁listo	-9.33434
▁sabía	-9.33435
▁modelo	-9.33527
▁ambos	-9.33557
▁pensi	-9.3359
▁grupos	-9.33721
▁difícil	-9.34146
▁governo	-9.34288
▁gobierno	-9.34325
▁mitad	-9.34348
▁lucha	-9.34597
▁malo	-9.34654
ca	-9.34794
▁fondo	-9.34916
▁ambiente	-9.3492
▁senso	-9.35116
▁mansevo	-9.35209
▁meses	-9.35277
▁empleo	-9.35326
▁último	-9.35354
▁relasion	-9.35356
▁mezes	-9.35806
▁cerca	-9.35811
▁zona	-9.36119
rse	-9.36454
ado	-9.36461
▁iba	-9.36522
▁bivir	-9.36531
▁tratamiento	-9.36536
para	-9.36852
▁pensando	-9.3687
▁cambio	-9.36873
▁lavorar	-9.36898
er	-9.36935
▁mala	-9.3703
oh	-9.37191
▁pueblo	-9.37358
▁kambio	-9.37485
▁miedo	-9.37582
▁dólares	-9.37737
▁oro	-9.37835
▁mamá	-9.37995
ro	-9.38073
▁vyene	-9.38238
▁fuego	-9.38545
▁prezensia	-9.38561
▁negro	-9.38608
▁segundo	-9.38612
so	-9.38826
quieres	-9.38895
▁segndo	-9.39142
▁puevlo	-9.39241
▁proceso	-9.394
▁proseso	-9.39466
▁relación	-9.39503
co	-9.39561
▁mío	-9.39574
dor	-9.39654
▁éste	-9.3966
▁permite	-9.3975
▁kree	-9.39887
▁aspera	-9.39994
▁pasensiaes	-9.40023
▁sujeto	-9.40116
mo	-9.40117
▁tratar	-9.40175
ni	-9.40187
▁campo	-9.40198
▁perro	-9.40211
▁hubiera	-9.40253
▁esposa	-9.40286
▁pacientes	-9.40309
▁terreno	-9.40326
▁sinyifika	-9.40388
man	-9.40425
▁significa	-9.40442
▁ermano	-9.40537
▁niño	-9.40606
▁viene	-9.40689
z	-9.40825
▁hermano	-9.40894
▁m	-9.40925
u	-9.41032
▁anoche	-9.411
▁menudo	-9.41228
▁cara	-9.41241
▁trabajar	-9.41371
ne	-9.4147
▁kedar	-9.41849
▁ultima	-9.41884
▁"""-	-9.41918
▁djuntos	-9.41943
▁dejar	-9.42391
▁encontrar	-9.42512
▁podía	-9.42577
▁chiko	-9.42623
▁aya	-9.42644
▁puedia	-9.42804
▁noches	-9.42914
▁pequeño	-9.42981
▁ganar	-9.43089
▁propozision	-9.43121
▁control	-9.43217
▁desha	-9.43228
▁kontrol	-9.43313
▁dyo	-9.43382
▁social	-9.43427
▁yama	-9.43546
vamos	-9.43565
▁deseo	-9.43655
▁través	-9.43701
▁korva	-9.43942
▁interior	-9.43946
▁varios	-9.44391
▁red	-9.44496
."""""""	-9.44536
▁korason	-9.44742
▁avra	-9.44897
▁asperar	-9.45086
▁propuesta	-9.45104
▁formas	-9.4534
▁rápido	-9.45644
▁posibilidad	-9.45683
▁interesante	-9.45778
▁supongo	-9.45802
son	-9.45805
▁acerca	-9.45916
▁serie	-9.46068
▁majorita	-9.46149
▁mayoría	-9.46205
▁ee	-9.4629
está	-9.46364
▁cuestión	-9.46439
▁corazón	-9.46507
▁the	-9.4651
▁sosyal	-9.46573
▁última	-9.4659
▁siete	-9.46648
▁shef	-9.46696
▁vinir	-9.46759
▁otomobil	-9.46784
▁enmiendas	-9.46839
▁jefe	-9.46952
di	-9.47116
▁pensé	-9.47165
▁kestion	-9.47222
▁demandar	-9.47233
▁investigación	-9.47245
▁nesesito	-9.47344
▁teniente	-9.47521
▁co	-9.47586
▁vivir	-9.47593
▁amo	-9.47776
eh	-9.47834
▁puntos	-9.47864
▁tratado	-9.47901
▁investigasion	-9.48031
▁duro	-9.4804
▁seguir	-9.4805
▁puerpo	-9.48123
▁kizas	-9.48134
▁clase	-9.48346
▁atención	-9.48354
▁totalmente	-9.48553
▁carta	-9.48656
▁llama	-9.48748
▁avria	-9.48759
▁inglez	-9.4888
▁verlo	-9.48985
▁pregnta	-9.49011
▁odren	-9.49016
▁murir	-9.49038
▁movimiento	-9.49164
▁medios	-9.4927
▁orden	-9.49297
▁penso	-9.4934
▁doctor	-9.49489
▁asuntos	-9.49586
▁hacen	-9.49594
▁cuerpo	-9.49752
▁nesesita	-9.49833
rá	-9.49881
una	-9.49889
▁radio	-9.49959
▁aserka	-9.50359
▁komun	-9.50494
▁trato	-9.50607
▁leson	-9.50705
▁pase	-9.50961
▁azen	-9.50969
▁darle	-9.51005
▁u	-9.51155
▁palabras	-9.51165
▁umanos	-9.51172
▁humanos	-9.51435
▁biervos	-9.51468
▁habría	-9.51567
▁sistemas	-9.51676
▁ocho	-9.51756
▁coche	-9.52044
▁biervo	-9.52262
▁ayego	-9.52271
▁mejorar	-9.52392
▁ideas	-9.52427
▁aga	-9.52484
▁ka	-9.52609
▁demás	-9.52746
▁paz	-9.52835
▁syendo	-9.52837
▁prinsipio	-9.53065
▁necesito	-9.53156
▁ido	-9.53242
▁normas	-9.53351
▁palabra	-9.53364
▁planeta	-9.53527
▁siendo	-9.5355
▁juntos	-9.53607
▁necesita	-9.53669
▁quizás	-9.53755
▁hija	-9.53981
▁kuadro	-9.54064
▁asunto	-9.54082
▁respuesta	-9.541
ciones	-9.54182
▁allá	-9.54236
▁saven	-9.5432
▁aumento	-9.54391
▁komida	-9.54462
▁repuesta	-9.54519
▁sufisiente	-9.54671
▁mente	-9.54753
▁según	-9.54847
▁vemos	-9.54858
▁yeva	-9.5493
▁común	-9.54991
▁asigun	-9.55023
▁miles	-9.55029
▁nave	-9.55032
▁konsegir	-9.55199
▁cree	-9.55218
▁g	-9.55344
▁suficiente	-9.55401
▁necesario	-9.55499
ti	-9.55526
▁simple	-9.55592
▁ponente	-9.55855
▁kontente	-9.56137
▁feliz	-9.56146
▁deja	-9.56163
▁lleva	-9.56213
▁siquiera	-9.56283
▁mercado	-9.56341
▁ia	-9.56346
res	-9.56353
▁marcha	-9.56455
▁kaye	-9.56792
▁habla	-9.56877
▁keren	-9.56922
▁sikiera	-9.5703
▁mire	-9.57092
▁chico	-9.57162
▁europeos	-9.57516
▁arma	-9.57897
▁puedan	-9.58007
▁muchacho	-9.58017
▁fasil	-9.58114
▁cuidado	-9.58135
▁seis	-9.58357
▁yamar	-9.58373
▁ésta	-9.58448
▁siglo	-9.58479
▁obtener	-9.58652
▁venga	-9.58738
▁sesh	-9.58779
▁tipos	-9.58782
▁charsi	-9.58819
ce	-9.59017
▁minuto	-9.59064
▁bushkar	-9.59392
▁mayores	-9.59459
▁keremos	-9.5946
▁yevo	-9.59491
▁supozo	-9.59525
▁comer	-9.59817
▁chika	-9.59928
▁transporte	-9.59982
▁demanda	-9.6001
▁keda	-9.6018
sa	-9.60307
su	-9.60367
▁vina	-9.60376
▁tampoco	-9.60381
▁temo	-9.60446
ve	-9.60464
▁valores	-9.60727
▁opinion	-9.60903
▁arriva	-9.60951
▁haga	-9.60969
▁libro	-9.6099
▁enfrente	-9.61285
▁habrá	-9.6137
▁esté	-9.61708
▁normal	-9.61928
▁opinión	-9.61952
▁esperar	-9.62022
▁derecha	-9.62027
sabes	-9.62077
▁plazo	-9.6216
▁egziste	-9.6219
▁dime	-9.62538
▁tribunal	-9.62541
▁foto	-9.62569
ble	-9.6259
x	-9.62719
▁pequeña	-9.6282
▁kamareta	-9.62835
▁ei	-9.62906
▁queremos	-9.62934
▁principio	-9.63069
▁dile	-9.63096
go	-9.63363
▁livro	-9.63555
▁fácil	-9.63633
▁saben	-9.6367
▁medidas	-9.6367
▁arriba	-9.63786
▁existe	-9.63856
▁fe	-9.63861
▁prekosions	-9.63883
▁avla	-9.63898
▁programas	-9.64003
▁karta	-9.64227
▁%	-9.64234
▁pan	-9.64312
▁motivo	-9.64447
"""".	-9.65094
▁queda	-9.6526
▁varias	-9.65464
▁hice	-9.65598
▁defensa	-9.65599
▁pies	-9.65792
▁superior	-9.65974
▁lograr	-9.66145
▁pre	-9.66305
▁obstante	-9.66439
▁desho	-9.665
▁miembro	-9.66652
▁habitación	-9.66685
▁hijos	-9.66756
▁trokar	-9.66773
▁pelo	-9.66866
▁risas	-9.6687
"""",	-9.66919
▁base	-9.6695
▁yamo	-9.67096
▁razones	-9.67097
▁eskola	-9.6715
▁ca	-9.67186
▁oe	-9.67213
▁quieren	-9.6723
▁karinyo	-9.67245
▁muncha	-9.67395
▁escuela	-9.67505
▁luna	-9.67526
▁haré	-9.67546
▁do	-9.67599
▁arte	-9.67667
▁leshos	-9.67721
▁solamente	-9.67788
▁espesial	-9.67901
▁eskapar	-9.68053
▁lejos	-9.68165
▁mucha	-9.68295
▁reino	-9.68331
▁uds	-9.68384
▁savemos	-9.6839
▁bar	-9.68402
▁basta	-9.68499
ian	-9.68572
▁cariño	-9.68649
▁ijos	-9.68759
▁baza	-9.6881
▁estavan	-9.68829
▁tio	-9.6887
▁enerjia	-9.68885
▁crees	-9.68891
▁avlando	-9.68937
sen	-9.68983
ré	-9.6901
▁sabemos	-9.69036
▁energía	-9.69061
▁oído	-9.69241
▁tema	-9.69255
▁estaban	-9.69302
▁alma	-9.69386
▁dame	-9.6948
▁uzar	-9.69616
▁pienso	-9.69676
▁llevar	-9.69733
risas	-9.69771
▁especial	-9.69793
▁mirar	-9.69813
▁enmienda	-9.70157
▁irse	-9.70162
▁intentar	-9.70206
ría	-9.7032
idad	-9.70401
▁única	-9.70447
▁fuerzas	-9.7055
▁aun	-9.70562
▁objektivo	-9.70565
▁industria	-9.70586
▁prove	-9.70588
▁amable	-9.70622
▁venido	-9.70632
▁duda	-9.70636
▁unika	-9.7072
era	-9.7072
▁mismos	-9.70876
▁comida	-9.70986
▁debes	-9.71034
▁objetivo	-9.71243
▁hablando	-9.7139
▁kuarto	-9.71404
▁ministro	-9.71409
▁vete	-9.71458
▁global	-9.71566
▁sien	-9.71587
▁joe	-9.71617
▁poner	-9.71714
▁casos	-9.7189
▁dizen	-9.71988
▁dicen	-9.72037
▁salvo	-9.72061
▁pasó	-9.72123
▁apenas	-9.72145
▁intento	-9.72206
▁t	-9.72254
▁senyorita	-9.72308
ja	-9.72491
▁ago	-9.72683
▁nesesitamos	-9.729
▁pasando	-9.73029
▁lugares	-9.73081
nte	-9.73128
▁verte	-9.73129
▁kavzos	-9.73448
▁condiciones	-9.73566
j	-9.73592
▁vapor	-9.73625
▁riesgo	-9.73628
▁mesaje	-9.73697
▁natural	-9.73767
▁permitir	-9.73902
▁reglamento	-9.73963
▁londres	-9.74
▁buro	-9.743
▁h	-9.74457
▁riziko	-9.74478
▁torna	-9.7461
▁presupuesto	-9.74642
▁kondisiones	-9.7474
▁pro	-9.74766
▁naturalmente	-9.74834
▁entendo	-9.75087
▁bivo	-9.75088
esta	-9.75141
▁necesitamos	-9.75478
▁pasensia	-9.75578
▁topo	-9.75661
▁ermana	-9.75856
pa	-9.75884
▁muzika	-9.75933
▁señorita	-9.7595
▁propia	-9.7616
▁periodo	-9.76162
▁hermana	-9.76176
▁propya	-9.76379
▁kama	-9.76456
▁cama	-9.76516
▁mostrar	-9.76537
▁morir	-9.76578
▁pedrer	-9.7661
▁prinsipal	-9.76744
ven	-9.76923
▁presidenta	-9.76988
▁posision	-9.7705
▁azes	-9.77159
▁sociedad	-9.77397
▁ciudadanos	-9.77445
▁sale	-9.77458
▁material	-9.77536
▁prisa	-9.77559
como	-9.77605
▁haces	-9.77631
▁equipo	-9.77742
▁siudadanos	-9.77773
▁ekipo	-9.77797
▁sosiedad	-9.77938
je	-9.77989
▁cambiar	-9.78015
▁durmir	-9.78042
▁querido	-9.78078
▁ventana	-9.78241
▁hago	-9.78578
▁empesar	-9.78711
▁vieja	-9.78719
▁conseguir	-9.78732
▁querida	-9.78734
▁echar	-9.78815
▁muryo	-9.78816
▁militar	-9.78949
▁f	-9.78971
▁calle	-9.79149
▁sigiente	-9.79174
▁llamado	-9.79212
▁armada	-9.79231
▁poblasion	-9.79388
▁fondos	-9.79415
▁larga	-9.79475
uu	-9.79477
▁tratando	-9.80042
▁siguiente	-9.80054
▁voluntad	-9.80054
▁público	-9.80092
puedo	-9.80206
▁loko	-9.80256
▁espasio	-9.80353
▁asperando	-9.80357
▁autoridades	-9.80493
▁población	-9.80568
▁konoso	-9.80726
▁reina	-9.80868
▁proyekto	-9.8094
▁jon	-9.80974
▁segunda	-9.81012
▁preguntas	-9.81035
▁espacio	-9.81131
▁alemania	-9.81145
▁loco	-9.81255
▁proyecto	-9.81283
▁niveles	-9.8135
▁sigunda	-9.81637
▁propio	-9.81647
▁dishites	-9.81666
▁tío	-9.81895
▁conozco	-9.81936
▁vidas	-9.82082
▁ex	-9.821
▁maestro	-9.82166
▁akabo	-9.82253
▁-¡	-9.82318
jo	-9.82339
▁propyo	-9.82581
▁efekto	-9.82753
▁adios	-9.82802
▁pregntas	-9.82859
▁prueba	-9.82885
▁aire	-9.82948
▁nacional	-9.83001
v	-9.83005
▁digas	-9.83101
▁posición	-9.83135
▁música	-9.83191
▁efecto	-9.8325
▁internacional	-9.83389
▁nasional	-9.83447
w	-9.83467
▁anterior	-9.83555
▁cuarto	-9.83559
▁linea	-9.83574
▁sal	-9.84064
▁buscar	-9.84166
▁dormir	-9.84321
▁pobre	-9.84369
▁enorme	-9.84422
▁club	-9.84478
▁marco	-9.84494
eso	-9.84517
▁parti	-9.8453
▁pronta	-9.84551
▁idiota	-9.84567
▁atras	-9.84725
▁permiso	-9.84739
▁fundamental	-9.84783
▁llegado	-9.84843
▁ayre	-9.84893
▁importansia	-9.84916
▁pensa	-9.84926
▁chicos	-9.84968
▁iglesia	-9.84979
▁ko	-9.85277
▁eyas	-9.85279
▁servicios	-9.85372
▁entrada	-9.85521
▁dizi	-9.85622
▁estará	-9.85687
▁tomo	-9.85733
▁importancia	-9.85907
▁kavo	-9.86031
▁muchachos	-9.86172
▁olvidar	-9.86197
▁dechizion	-9.86202
▁junto	-9.86233
▁servisios	-9.86244
▁cabo	-9.86245
▁drogas	-9.86322
▁india	-9.86398
▁sam	-9.86422
▁anti	-9.86468
▁doble	-9.865
▁djunto	-9.86501
▁médico	-9.86635
▁inglés	-9.86648
▁asesinato	-9.86899
▁decisión	-9.86946
▁kalmo	-9.87012
▁subir	-9.87205
▁comisario	-9.87323
▁alderredor	-9.87495
▁preto	-9.87733
ista	-9.87771
▁inglaterra	-9.87774
▁alrededor	-9.87855
▁servicio	-9.87982
▁salvar	-9.88014
▁komisario	-9.88014
▁apartamento	-9.88084
▁sielo	-9.88261
▁internasyonal	-9.88391
▁kulpa	-9.88395
▁culpa	-9.88458
▁eksito	-9.88474
▁agradable	-9.88482
▁cielo	-9.88513
▁baja	-9.88594
▁merkar	-9.88627
▁konoser	-9.88653
▁claramente	-9.88723
▁éxito	-9.88739
ando	-9.88862
▁l	-9.88949
▁empresas	-9.89076
▁amiga	-9.89077
▁visita	-9.89095
▁izites	-9.89134
▁bebe	-9.89243
▁nuevas	-9.89271
▁usar	-9.89329
estás	-9.89371
▁nesesidad	-9.89496
▁lista	-9.89617
▁krear	-9.89731
▁kreer	-9.89766
▁sentro	-9.89784
▁dubio	-9.89829
▁políticas	-9.89885
▁acción	-9.89932
▁tren	-9.90071
▁particular	-9.90244
▁servisio	-9.90292
▁irme	-9.9033
▁meta	-9.90336
▁temprano	-9.90372
bo	-9.90396
▁topa	-9.90496
▁politikas	-9.90604
▁vido	-9.90607
ada	-9.90627
▁partikular	-9.90637
za	-9.90672
▁recuerdo	-9.90761
▁destino	-9.90821
▁animal	-9.90854
▁escucha	-9.90863
▁entreprisas	-9.91009
▁telefon	-9.91049
us	-9.91117
▁ellas	-9.91164
▁et	-9.91313
▁aksion	-9.9135
▁lamento	-9.91362
has	-9.91363
▁paul	-9.91617
▁responsable	-9.91714
▁necesidad	-9.91854
▁perdido	-9.91885
▁kontar	-9.91898
ga	-9.91941
▁amerikano	-9.91993
▁asamblea	-9.92002
ter	-9.9217
▁crear	-9.92192
▁centro	-9.92218
▁viejos	-9.92224
▁mach	-9.92443
▁presente	-9.92471
▁vuelto	-9.92509
ten	-9.92524
▁esperando	-9.92542
▁muertos	-9.92546
▁kafe	-9.926
▁primeros	-9.9266
▁echos	-9.92705
▁profesional	-9.92725
▁jack	-9.92739
▁kalidad	-9.92799
▁izyeron	-9.92846
▁línea	-9.9288
pe	-9.92912
ismo	-9.92953
li	-9.93074
fue	-9.93198
▁nuevos	-9.93236
ton	-9.93344
▁vd	-9.93346
▁espesialmente	-9.93365
▁responder	-9.93487
▁mo	-9.9363
▁edukasion	-9.93643
▁komunidad	-9.93777
ri	-9.93779
).	-9.93861
▁sector	-9.93861
▁reglas	-9.93897
▁paciente	-9.93948
▁vuestra	-9.93951
▁atrás	-9.93967
▁grave	-9.94006
ie	-9.94076
▁tendrá	-9.94171
▁fiesta	-9.94187
▁paris	-9.94224
▁dever	-9.94292
▁educación	-9.94321
▁vivo	-9.94398
▁iré	-9.94434
▁eks	-9.94469
"""""""	-9.94554
▁comunidad	-9.94558
▁david	-9.94571
dores	-9.94588
▁tarea	-9.94617
▁kosta	-9.94651
▁mez	-9.9466
▁avian	-9.9468
▁planes	-9.94692
▁calidad	-9.94747
▁elementos	-9.94764
▁john	-9.94846
miento	-9.94978
▁oi	-9.95136
▁barco	-9.95154
▁frank	-9.95236
▁suyo	-9.95367
▁especialmente	-9.95379
▁mando	-9.95476
▁oficina	-9.95477
▁prova	-9.95523
▁valutozaes	-9.95527
▁café	-9.95583
cuál	-9.95599
▁prezente	-9.95624
▁habían	-9.95643
▁pena	-9.95695
▁septiembre	-9.95754
▁empezar	-9.95759
▁djugar	-9.95862
▁jóvenes	-9.95969
▁niña	-9.96004
▁konose	-9.96153
▁jugar	-9.96194
▁via	-9.962
▁tuvimos	-9.96267
▁).	-9.96273
▁teatro	-9.9633
▁mansevoes	-9.96413
▁ultimos	-9.96485
▁dirección	-9.96495
▁tengan	-9.96507
▁pocos	-9.96519
▁diputados	-9.96521
▁raro	-9.9656
▁artículo	-9.96568
▁probar	-9.96595
▁hará	-9.96638
▁últimos	-9.96639
▁grado	-9.96827
▁don	-9.96859
▁metros	-9.96955
▁dando	-9.96979
▁adreso	-9.97175
▁ama	-9.97236
▁artikolo	-9.97342
ras	-9.97371
▁protecsion	-9.97375
▁piensa	-9.97446
▁mirando	-9.97533
hay	-9.97575
▁depende	-9.97598
▁reforma	-9.97619
▁sektor	-9.97625
▁inter	-9.97667
▁internet	-9.97744
▁akel	-9.97863
▁teléfono	-9.97914
▁mato	-9.97963
▁majestad	-9.9797
▁kausa	-9.97981
▁rusia	-9.97997
▁interesa	-9.98034
▁direktiva	-9.9815
ah	-9.98239
▁importantes	-9.9824
dijo	-9.98334
▁peor	-9.9835
▁gato	-9.9838
▁responsabilitad	-9.98482
▁avlo	-9.98492
▁estudiar	-9.98554
▁diferencia	-9.98636
▁kompanyia	-9.98658
▁puederiamos	-9.9867
▁ben	-9.98737
▁seas	-9.98769
▁mia	-9.98888
▁responsabilidad	-9.98989
▁experiencia	-9.99061
▁perder	-9.99067
▁medida	-9.99121
▁viento	-9.99149
▁mayo	-9.99157
▁plazer	-9.9922
▁tales	-9.99313
▁eksperiensia	-9.99358
▁prekosion	-9.99373
▁oir	-9.99615
▁diré	-9.99634
▁triste	-9.99641
▁detras	-9.99651
▁zonas	-9.99771
▁soldados	-9.99798
▁penserios	-9.99862
▁entiendo	-9.9988
▁k	-9.9993
▁sub	-10.0002
▁treno	-10.0006
▁piel	-10.001
▁eksaktamente	-10.0012
▁directiva	-10.0015
▁jamás	-10.0021
rme	-10.0026
▁mijores	-10.0031
▁creer	-10.0031
▁mejores	-10.0032
▁representa	-10.0036
▁exactamente	-10.0042
▁causa	-10.0044
▁adiós	-10.0045
▁haz	-10.0054
▁tiempos	-10.0055
vi	-10.0063
▁tanta	-10.0065
▁propios	-10.0077
▁tuyo	-10.0104
▁mía	-10.0104
▁unido	-10.0105
▁meoyo	-10.0118
▁protección	-10.0123
▁sociales	-10.013
▁mesa	-10.0136
▁alegra	-10.014
▁alegro	-10.0141
ge	-10.017
▁fotos	-10.0176
quiere	-10.0203
▁detrás	-10.0206
▁encuentra	-10.0209
▁boda	-10.0221
▁informes	-10.0222
cuánto	-10.0222
▁hospital	-10.0237
▁clave	-10.024
▁entra	-10.0246
▁cerebro	-10.025
▁hazinura	-10.0255
▁partido	-10.026
▁provas	-10.0267
▁filmo	-10.0278
▁rio	-10.029
▁verme	-10.0292
▁devamos	-10.0298
▁ganado	-10.0305
▁bushkando	-10.0311
▁regalo	-10.0316
zo	-10.0318
tú	-10.0318
▁analisis	-10.032
ki	-10.0322
▁meza	-10.0325
▁china	-10.0327
▁análisis	-10.0331
▁compañía	-10.0351
▁siguen	-10.0354
▁volar	-10.0372
▁fundamentales	-10.038
▁julio	-10.0392
▁ejército	-10.0404
▁puedyo	-10.041
▁bovo	-10.041
▁encima	-10.0413
▁película	-10.0413
▁ensima	-10.0416
▁jim	-10.0417
▁tome	-10.042
▁dizes	-10.0427
▁puederian	-10.0431
vo	-10.0451
▁ospital	-10.0454
▁akontese	-10.0456
▁sorpresa	-10.0463
▁enfermedad	-10.0467
▁acaba	-10.0485
▁servir	-10.0506
▁kontrario	-10.0506
▁ponte	-10.0511
▁akaba	-10.052
▁momentos	-10.0522
▁metyo	-10.0532
▁caballo	-10.0534
ci	-10.0534
▁asimismo	-10.0536
▁salida	-10.0551
▁diferensya	-10.0561
▁kavayo	-10.0562
▁mete	-10.0567
▁departamento	-10.0573
▁podríamos	-10.0579
▁interés	-10.0581
ran	-10.0591
▁solusion	-10.0593
▁djuzgo	-10.0598
▁to	-10.06
▁ocurre	-10.0602
▁chikas	-10.0602
▁vender	-10.0605
▁roma	-10.0608
▁vine	-10.0608
▁ropa	-10.061
▁unidad	-10.0617
▁dama	-10.0619
▁humano	-10.0624
▁rekursos	-10.0626
po	-10.0638
▁deberíamos	-10.0642
¡	-10.0643
▁murió	-10.0647
▁per	-10.0652
▁golpe	-10.0653
▁sepa	-10.0657
▁dejame	-10.0668
esto	-10.0668
▁recursos	-10.0674
▁zapatos	-10.0675
▁absoluto	-10.0681
▁akodro	-10.0681
▁banko	-10.0688
▁suya	-10.0689
tiene	-10.0692
▁banco	-10.0699
▁boka	-10.0699
▁fostan	-10.0726
▁dijiste	-10.0734
▁entereso	-10.0743
▁charlie	-10.0744
▁chicas	-10.0764
▁enemigo	-10.078
▁das	-10.078
▁llegó	-10.0784
▁yamado	-10.0793
▁maldicho	-10.0796
▁vuelve	-10.0808
▁tirar	-10.0828
▁caballeros	-10.0835
▁dices	-10.0841
▁disheron	-10.0849
▁akeyos	-10.0851
▁divertido	-10.0857
▁leyes	-10.0859
▁umano	-10.0862
▁conoce	-10.0868
▁ambito	-10.0871
▁posibilidades	-10.0873
▁kineza	-10.0874
▁dvrias	-10.0879
ros	-10.0888
ing	-10.0893
▁of	-10.0897
▁blanko	-10.0898
▁intenta	-10.0901
▁sakar	-10.0902
▁llamar	-10.0903
▁sosyales	-10.0912
vas	-10.0917
▁estilo	-10.0924
▁principal	-10.0924
▁vites	-10.0941
▁junio	-10.0947
▁ámbito	-10.0948
▁azemos	-10.0953
▁aquel	-10.096
ks	-10.0986
▁podrían	-10.0989
▁absolutamente	-10.0989
▁puta	-10.099
▁blanco	-10.1001
▁autoridad	-10.1003
▁leche	-10.1013
be	-10.1018
▁sujetos	-10.1023
▁prensa	-10.1037
rio	-10.1045
▁paga	-10.1046
huenyo	-10.1052
▁hacemos	-10.1059
▁kooperasion	-10.1074
▁sueño	-10.1082
▁vio	-10.1084
▁propuestas	-10.1091
▁novia	-10.1095
▁yamada	-10.1096
▁modos	-10.1099
▁pobreza	-10.1103
▁inmediato	-10.1112
▁dizyendo	-10.1116
fa	-10.1127
▁torne	-10.1138
▁alimentos	-10.1145
kon	-10.1148
▁kapachedad	-10.1152
▁laboratorio	-10.1153
▁tecnologia	-10.1157
▁capacidad	-10.1174
▁ganas	-10.1178
▁ofisial	-10.1179
▁dizia	-10.1182
▁buscando	-10.1188
▁akodrar	-10.1192
▁familiar	-10.1196
▁topi	-10.1207
▁sombrero	-10.121
▁vyeron	-10.1213
▁sentral	-10.1215
▁tecnología	-10.1219
▁decirle	-10.1224
▁actual	-10.1225
▁bive	-10.1233
tienes	-10.1233
▁li	-10.124
▁dizirle	-10.124
▁fransez	-10.1241
▁oficial	-10.125
▁pensado	-10.1252
▁obra	-10.1267
▁llamada	-10.128
▁comprar	-10.1287
▁aplikasion	-10.1296
▁otel	-10.1296
▁universo	-10.1303
▁abierto	-10.1308
▁j	-10.131
▁aktual	-10.1314
▁biy	-10.1318
▁kresimiento	-10.1319
▁adoptar	-10.1327
▁suelo	-10.1336
▁akodra	-10.1347
▁meldar	-10.1348
▁central	-10.136
▁ojo	-10.1366
▁vive	-10.1366
▁pago	-10.1368
cuándo	-10.1391
▁encontrado	-10.1401
▁cooperación	-10.1403
▁aquellos	-10.1407
▁relaciones	-10.141
▁economía	-10.1411
▁acseso	-10.1415
▁crecimiento	-10.1417
▁ekonomia	-10.1423
▁relasiones	-10.1433
▁eskrivir	-10.1439
ir	-10.1442
▁amenaza	-10.1451
▁prezentar	-10.1453
▁diciendo	-10.1457
▁euros	-10.1466
▁danyo	-10.1478
▁asentir	-10.1478
▁akontesyo	-10.1482
▁contrario	-10.1482
tas	-10.1497
▁ambezar	-10.15
▁hotel	-10.15
▁productos	-10.1502
▁sinyoos	-10.1504
▁produktos	-10.1504
▁deberías	-10.1507
▁fase	-10.1511
▁areria	-10.152
▁daño	-10.1533
▁molesta	-10.1534
▁natura	-10.1536
▁dientes	-10.1538
he	-10.1539
▁ey	-10.1556
▁acceso	-10.1559
▁italia	-10.1563
▁minor	-10.1565
▁azia	-10.1566
▁espalda	-10.1572
crees	-10.1589
▁n	-10.1591
▁justisia	-10.1593
▁darme	-10.1602
▁decía	-10.1603
▁ambas	-10.1612
▁aplicación	-10.1612
▁instituciones	-10.1622
▁hacía	-10.1631
▁justicia	-10.1635
▁producción	-10.1635
▁oeste	-10.1644
▁error	-10.1652
▁institusiones	-10.1655
▁aumentar	-10.166
▁producsion	-10.1684
ese	-10.1691
▁vuestro	-10.1706
▁ten	-10.1707
▁soldado	-10.1709
▁nacionales	-10.1715
▁koronel	-10.1721
▁solución	-10.1746
▁pensamos	-10.1746
▁dicha	-10.1751
▁nasionales	-10.1752
▁pelea	-10.1753
▁pistola	-10.1762
▁conocer	-10.1764
▁negosio	-10.177
▁sa	-10.1775
▁presencia	-10.1775
▁fuente	-10.1778
▁decisiones	-10.1784
▁konsekuensa	-10.1786
▁elevos	-10.1791
ían	-10.1794
▁negocio	-10.1803
▁kolorado	-10.1814
▁dechiziones	-10.1835
▁haría	-10.1838
▁región	-10.1842
▁coronel	-10.1843
▁río	-10.1846
▁sentimientos	-10.1855
entonces	-10.1863
▁medra	-10.1872
▁naturaleza	-10.1874
▁próxima	-10.1881
bueno	-10.1887
▁vuelo	-10.1888
▁apuesto	-10.1889
▁sentado	-10.189
▁tuya	-10.1895
▁odio	-10.1908
ck	-10.1918
remos	-10.192
▁materiales	-10.1923
▁extraño	-10.1928
▁ira	-10.1936
▁extranyo	-10.1953
ados	-10.1974
▁kantidad	-10.1975
▁pudo	-10.1976
▁completamente	-10.1992
▁rejion	-10.1992
▁ku	-10.2
▁patin	-10.2001
▁promedio	-10.2009
▁piesa	-10.2011
ch	-10.2012
▁imposible	-10.2014
▁aseptar	-10.2018
▁basura	-10.2019
▁quienes	-10.202
▁propiedad	-10.203
▁kerer	-10.2036
ku	-10.2037
▁noviembre	-10.2039
▁oyir	-10.205
tan	-10.2069
▁egzisten	-10.2074
▁boca	-10.2075
▁pruebas	-10.2089
▁abierta	-10.209
ina	-10.2094
▁dejado	-10.2095
▁emposivle	-10.2097
▁fuimos	-10.2102
▁kompletamente	-10.2109
▁popular	-10.2109
▁mensaje	-10.211
▁cantidad	-10.2112
▁mierda	-10.2113
tra	-10.2114
▁orejas	-10.212
▁mueve	-10.2124
amos	-10.2125
▁euro	-10.2125
▁llega	-10.2125
puede	-10.2127
▁musyu	-10.2145
▁presensia	-10.2145
▁ja	-10.2151
▁práctica	-10.2152
▁regreso	-10.2156
▁uvo	-10.2167
▁objetivos	-10.2168
▁pudiera	-10.2173
▁existen	-10.2184
io	-10.2184
▁djeordje	-10.2187
▁pública	-10.2195
cu	-10.2196
▁doy	-10.2207
▁ayega	-10.2219
eres	-10.2233
▁v	-10.2241
▁hubo	-10.2252
▁komunikasion	-10.2257
▁marzo	-10.2274
▁tantas	-10.2276
▁peligro	-10.2278
▁onor	-10.228
▁noticias	-10.2281
▁trabajando	-10.2282
com	-10.2288
▁pe	-10.229
▁politiko	-10.2307
▁crisis	-10.2308
▁honor	-10.2312
▁intentando	-10.2313
▁puedi	-10.2316
▁unidas	-10.2317
ber	-10.2318
▁menor	-10.2323
▁lavorando	-10.2323
▁político	-10.2329
▁eskapo	-10.2329
▁arreglar	-10.2341
▁quiera	-10.2341
este	-10.2367
▁resivir	-10.237
▁profesionales	-10.2371
▁george	-10.2372
▁figura	-10.2381
▁perikolo	-10.2388
▁seres	-10.2389
▁probable	-10.2394
cha	-10.241
▁nuvelas	-10.2419
▁segura	-10.2422
▁independiente	-10.2423
▁salyo	-10.2427
▁pasada	-10.2432
▁verle	-10.2433
▁abandonar	-10.2433
▁objektivos	-10.2434
▁motivos	-10.2435
."	-10.2448
▁avion	-10.245
(	-10.245
▁redes	-10.2451
▁puederias	-10.2462
izo	-10.2472
▁aprender	-10.2473
▁parar	-10.2475
▁ayudas	-10.2477
▁damas	-10.2483
▁leer	-10.2491
sin	-10.2501
▁kriza	-10.2504
ver	-10.2506
▁and	-10.2511
▁aspecto	-10.2513
▁podido	-10.2517
▁evidente	-10.2524
▁kapachi	-10.2525
ley	-10.2527
▁pensaba	-10.2546
▁instrumento	-10.2561
▁mirada	-10.2572
▁capaz	-10.2583
▁reunion	-10.2585
▁oportunidades	-10.2586
▁conocido	-10.2586
▁fransia	-10.2588
▁pensava	-10.2589
▁comunicación	-10.2598
▁mismas	-10.2598
fi	-10.2608
▁krei	-10.2611
▁santa	-10.2612
▁carrera	-10.2614
▁revista	-10.263
▁super	-10.2638
▁pon	-10.2642
▁truer	-10.2644
▁mejora	-10.2648
▁déjame	-10.2655
▁r	-10.2659
▁escala	-10.2665
▁video	-10.2668
▁miren	-10.2672
▁escribir	-10.2673
▁karrera	-10.2675
▁francia	-10.2679
▁similar	-10.268
ye	-10.2681
▁detener	-10.2682
▁puedyera	-10.2687
▁sir	-10.2702
▁linda	-10.2709
▁dejó	-10.2716
▁demandi	-10.2724
▁gusto	-10.2727
▁aspekto	-10.2729
▁estabilidad	-10.2733
▁akabar	-10.2735
▁dura	-10.2741
▁km	-10.2743
▁motor	-10.2746
den	-10.2752
▁perfekto	-10.2754
▁terrorismo	-10.2755
▁especie	-10.2763
▁destruir	-10.2766
▁distintos	-10.2771
▁izquierda	-10.2775
▁reunión	-10.2779
▁siedra	-10.2782
sabe	-10.2785
▁adentro	-10.2807
▁adonde	-10.2814
rán	-10.2821
▁bebé	-10.2823
▁busca	-10.2824
▁supe	-10.2828
▁embiar	-10.2842
▁kera	-10.2845
▁realizado	-10.2846
bi	-10.2846
▁figra	-10.2848
dje	-10.285
▁kompetensia	-10.2852
▁michael	-10.286
▁modelos	-10.2861
sido	-10.2865
▁pocas	-10.2866
así	-10.2867
▁resolución	-10.2878
▁espesie	-10.288
▁nota	-10.2885
▁piedra	-10.2886
▁demostrar	-10.2886
▁eskala	-10.2894
▁diario	-10.2901
▁kedo	-10.2908
▁avrir	-10.2913
▁legal	-10.292
▁resolusion	-10.2925
▁escuchar	-10.2926
▁empeso	-10.2928
▁funsiona	-10.2935
tó	-10.2935
▁llamo	-10.2936
▁gsto	-10.2937
▁poli	-10.294
▁respeto	-10.2943
▁europeas	-10.2943
▁avión	-10.2951
▁riko	-10.2958
▁secreto	-10.2959
▁cuales	-10.2966
▁go	-10.2966
▁funciona	-10.2969
▁pared	-10.2969
▁paresia	-10.2975
▁kualkiera	-10.298
""""?"""	-10.2981
▁parís	-10.2993
▁karne	-10.3001
▁prosedimiento	-10.3005
▁llevo	-10.3009
▁procedimiento	-10.3021
▁presidensia	-10.3024
▁hambre	-10.3028
▁punta	-10.3041
▁relativa	-10.3044
▁sena	-10.3044
▁fostano	-10.3049
▁washington	-10.3052
▁camara	-10.3054
▁dispuesto	-10.3059
▁carga	-10.306
▁estaria	-10.3061
ito	-10.3063
▁cuánto	-10.3065
▁"""¿	-10.3076
▁tantos	-10.3077
▁akeya	-10.308
▁praktika	-10.3085
▁puestos	-10.3087
▁ingresos	-10.3095
▁contar	-10.3098
▁abril	-10.3106
▁competencia	-10.3108
▁gastos	-10.3123
▁entendido	-10.3127
▁gana	-10.3128
▁pone	-10.3135
▁fa	-10.3139
▁izimos	-10.314
▁eras	-10.3143
che	-10.3144
▁martin	-10.3147
▁estableser	-10.3158
▁x	-10.3163
▁espozorio	-10.3167
▁recordar	-10.3175
▁tengas	-10.3175
▁presidencia	-10.3179
▁traje	-10.3187
▁cualquiera	-10.3187
▁na	-10.3188
▁tabla	-10.3191
▁manejo	-10.3193
▁canción	-10.3201
ahora	-10.3201
▁cena	-10.3204
▁kantika	-10.3205
▁parecía	-10.3209
▁listos	-10.3211
▁esperanza	-10.3214
▁repente	-10.3219
▁tonto	-10.322
▁ambre	-10.322
▁libros	-10.3223
▁komandante	-10.3233
▁djestion	-10.3242
í	-10.3242
▁tenian	-10.3246
▁instrumentos	-10.325
du	-10.3251
▁realisar	-10.3253
▁sekreto	-10.3254
▁konosimiento	-10.3258
▁muerta	-10.327
▁carne	-10.3272
▁propozisions	-10.3275
▁alemanes	-10.3281
▁conocimiento	-10.3284
▁odrenes	-10.3294
it	-10.3315
▁cambios	-10.3317
▁perros	-10.3327
▁pa	-10.3328
▁presio	-10.3329
▁negocios	-10.3336
▁tasa	-10.334
▁pareja	-10.334
der	-10.3343
▁vosotros	-10.3344
▁próximo	-10.3354
▁placer	-10.3356
▁tomando	-10.3364
▁distintas	-10.3368
▁oferta	-10.3378
▁color	-10.3379
▁señal	-10.3384
▁imagen	-10.3391
▁ekonomika	-10.3391
▁compromiso	-10.3403
▁recuerda	-10.3407
▁trans	-10.3409
▁organizasion	-10.3412
▁temperatura	-10.3412
▁cámara	-10.3418
▁bob	-10.3433
▁privado	-10.3439
▁nariz	-10.3441
▁altura	-10.3445
▁siensias	-10.3449
▁kambios	-10.345
▁kuantos	-10.346
▁masa	-10.3463
▁comandante	-10.3464
▁hagas	-10.3466
▁korrekto	-10.3475
▁tomado	-10.3477
▁planta	-10.348
▁terminado	-10.3481
▁olvidado	-10.3492
▁karga	-10.3493
▁livros	-10.3504
▁yelado	-10.351
▁confianza	-10.351
▁fortuna	-10.3512
▁konosido	-10.3514
gan	-10.3517
▁kolor	-10.352
▁peter	-10.3531
▁entero	-10.3535
▁tendremos	-10.3536
▁delantre	-10.355
▁agas	-10.355
pro	-10.3558
▁data	-10.3558
▁ana	-10.3559
▁eksplika	-10.3561
▁negosios	-10.3563
▁aquella	-10.3564
▁podrá	-10.3564
chi	-10.3569
▁imaje	-10.3571
▁ted	-10.3572
▁determinar	-10.3575
▁tokar	-10.3578
▁precio	-10.358
▁politikos	-10.358
▁konfiensa	-10.3582
▁impuestos	-10.3601
▁tenían	-10.3604
▁afrika	-10.361
▁demonios	-10.3612
▁direktor	-10.3615
▁vestido	-10.362
▁fraguar	-10.3622
▁flota	-10.3626
▁escrito	-10.3628
▁refiere	-10.3631
▁topamos	-10.3634
▁serán	-10.364
▁presion	-10.3643
▁supone	-10.3644
▁humana	-10.3649
▁creí	-10.3652
▁konjunto	-10.3656
▁terrible	-10.3657
▁delante	-10.3657
?"""""""	-10.366
▁plantas	-10.3663
▁deberían	-10.3663
▁caja	-10.3667
▁invierno	-10.3671
▁pleno	-10.3675
▁organización	-10.3679
▁visitar	-10.3684
▁asente	-10.3697
▁cartas	-10.3701
ud	-10.3706
▁james	-10.3715
▁acciones	-10.3721
▁siente	-10.3725
▁conjunto	-10.3726
▁empresa	-10.3727
▁realizar	-10.3728
▁pequeños	-10.3733
ido	-10.3735
nes	-10.3739
▁tiro	-10.3739
▁estaré	-10.3744
▁trabajadores	-10.3753
▁kasha	-10.3758
▁konstrucsion	-10.3765
▁juegos	-10.3767
des	-10.3767
▁devias	-10.3772
▁trago	-10.3779
▁pasos	-10.3781
pi	-10.3782
▁pregunto	-10.3783
▁políticos	-10.3785
▁tia	-10.3786
▁estaría	-10.3787
▁estavas	-10.3788
▁refere	-10.3791
▁aspectos	-10.3794
▁económica	-10.3794
▁aqui	-10.3796
▁estación	-10.38
▁sezon	-10.3801
▁umana	-10.3802
▁maria	-10.3802
istas	-10.381
▁sucede	-10.381
▁bomba	-10.3812
▁entreprisa	-10.3813
▁construcción	-10.3817
▁febrero	-10.382
▁formasion	-10.3822
▁aksiones	-10.3831
▁alkansar	-10.3832
▁supoza	-10.3835
▁nombres	-10.384
▁puertas	-10.3841
▁charles	-10.3847
▁vash	-10.3851
▁cuestiones	-10.3853
▁susede	-10.3858
▁ed	-10.386
▁amerika	-10.386
▁aspektos	-10.3867
▁konsumo	-10.3869
▁económico	-10.3873
▁ekonomiko	-10.3873
▁terrivle	-10.3877
▁disenyo	-10.388
▁matado	-10.388
▁botika	-10.3882
▁mapa	-10.3884
▁construir	-10.391
▁pedir	-10.391
▁juicio	-10.3912
▁objeto	-10.3916
▁principios	-10.3918
▁consumo	-10.3918
▁madera	-10.3919
▁finales	-10.3923
▁violencia	-10.3924
▁aceptar	-10.3924
▁gustan	-10.3928
▁tienda	-10.3933
▁diria	-10.3938
▁veinte	-10.3939
▁juisio	-10.3939
▁devan	-10.3939
▁dale	-10.3941
▁vengo	-10.3954
▁profundo	-10.3961
▁partida	-10.3971
▁mata	-10.3977
▁jo	-10.3985
▁estudiantes	-10.3986
▁prezento	-10.399
▁plazen	-10.3993
▁matrimonio	-10.4005
▁oír	-10.4006
▁esperansa	-10.4008
▁romper	-10.4009
▁kestiones	-10.4009
▁preparado	-10.4009
per	-10.401
▁caballero	-10.4014
tiva	-10.4022
▁rozas	-10.4029
▁kontakto	-10.4029
▁mac	-10.403
▁clima	-10.4032
▁ampliasion	-10.404
▁voto	-10.4045
▁tendrian	-10.4054
▁objekto	-10.4059
▁pishin	-10.4059
▁paseo	-10.406
▁enamorado	-10.4063
▁dijeron	-10.4068
ias	-10.4074
▁violensia	-10.4077
▁vuelva	-10.4082
▁garantisar	-10.4085
▁kazamiento	-10.4088
▁abrigo	-10.4106
ita	-10.4111
▁mostra	-10.4113
▁entende	-10.4116
▁""""¿	-10.4123
▁firme	-10.4128
▁lavoro	-10.4128
▁hicieron	-10.4128
▁hermosa	-10.4129
▁asasino	-10.4132
▁enseguida	-10.4134
tengo	-10.4135
▁ése	-10.4146
▁viajar	-10.4149
▁isla	-10.4167
▁pezgo	-10.4175
¿	-10.418
▁aguas	-10.4189
ntes	-10.419
▁costa	-10.4203
▁nuclear	-10.4204
▁terminar	-10.4204
▁ruego	-10.4209
▁kolegos	-10.4211
▁deshe	-10.4212
▁maksimo	-10.4216
▁colegas	-10.422
▁tony	-10.4221
▁ciencia	-10.4232
▁nesesitan	-10.4246
▁actividades	-10.4248
▁sinyor	-10.4268
▁kompleto	-10.4269
▁aktividades	-10.4272
▁bever	-10.4272
▁ok	-10.4274
▁órdenes	-10.4278
puedes	-10.4286
kar	-10.4287
am	-10.4289
▁observar	-10.429
▁hiciste	-10.4303
▁israel	-10.4307
▁formación	-10.4311
▁ermoza	-10.4319
▁bonito	-10.4333
▁senyores	-10.4336
▁ampliación	-10.4341
▁laboriozoes	-10.4349
▁espada	-10.4351
▁pude	-10.4351
▁ocurrió	-10.4362
▁velosidad	-10.4363
▁testigo	-10.4366
▁estabas	-10.4374
▁kargo	-10.4375
▁efectos	-10.4385
ji	-10.4388
▁correcto	-10.4389
▁daré	-10.4395
dji	-10.4403
fueron	-10.4407
▁bala	-10.4415
▁kreasion	-10.4422
▁polvo	-10.443
▁agosto	-10.4433
▁director	-10.4437
▁regiones	-10.4438
▁estavamos	-10.444
▁maraviyoso	-10.4445
▁necesitan	-10.4452
▁votar	-10.4465
▁true	-10.4466
▁oriente	-10.4466
▁presión	-10.4469
▁lokal	-10.4472
▁amplia	-10.4473
▁izla	-10.4477
▁verdadero	-10.4479
▁sentir	-10.448
▁velocidad	-10.4481
▁cargo	-10.4501
▁américa	-10.451
▁pensas	-10.451
▁tamanyo	-10.4511
▁borracho	-10.4511
▁vedradero	-10.4515
▁debía	-10.452
▁gestión	-10.4523
▁kontinuar	-10.4526
▁deuda	-10.4527
▁perikolozo	-10.4529
▁ri	-10.4531
▁tamaño	-10.4538
dra	-10.454
▁man	-10.4541
fuitesh	-10.455
▁puedas	-10.4556
▁protedjer	-10.4556
?"""	-10.4564
▁dezeya	-10.4566
▁francés	-10.4567
▁santo	-10.4571
▁sinyal	-10.4572
usted	-10.4573
▁asperava	-10.4578
adas	-10.4587
▁beber	-10.459
▁atake	-10.4603
tal	-10.4606
▁trae	-10.4611
▁señores	-10.4611
▁tercer	-10.4614
▁abogado	-10.4616
▁dichas	-10.4618
▁tendría	-10.4619
▁garantizar	-10.4623
▁mision	-10.4646
▁creación	-10.4669
▁aksidente	-10.4673
cion	-10.4678
▁pareser	-10.4678
▁efektos	-10.4679
▁alcanzar	-10.468
mas	-10.4682
▁ce	-10.4686
bu	-10.4687
▁consultado	-10.4687
▁konoses	-10.4689
▁frío	-10.4699
%,	-10.4699
▁sheriff	-10.4701
▁ataque	-10.4702
▁steve	-10.4705
▁fuertes	-10.4708
▁suma	-10.4712
▁korte	-10.472
▁diseño	-10.4723
▁diría	-10.4724
▁cocina	-10.4727
fuimos	-10.4738
▁lu	-10.474
▁esperaba	-10.4745
▁puerto	-10.475
▁accidente	-10.475
▁encuentro	-10.4759
▁local	-10.4761
▁veras	-10.4764
▁tía	-10.4764
▁web	-10.4767
▁maravilloso	-10.4775
▁ensenyar	-10.4779
▁áfrica	-10.478
▁aktualmente	-10.4782
▁comercio	-10.4784
▁deje	-10.4785
▁regla	-10.4788
▁ande	-10.4791
▁bio	-10.4794
▁evaluación	-10.4796
"""	-10.48
▁avre	-10.4802
▁salido	-10.4807
ida	-10.4808
▁vistazo	-10.4816
bles	-10.4821
▁tendré	-10.4825
▁preocupa	-10.4826
▁carsel	-10.483
▁pozitivo	-10.4831
▁actuar	-10.4834
▁blu	-10.4836
nse	-10.4837
▁actualmente	-10.4838
▁treser	-10.4838
▁ap	-10.4849
▁cita	-10.4851
▁area	-10.4858
▁aktuar	-10.4859
▁temporada	-10.4861
▁desea	-10.4862
▁evaluasion	-10.4863
▁plano	-10.4868
▁mono	-10.4868
▁avokato	-10.4876
▁fueran	-10.4878
▁kapital	-10.488
▁cárcel	-10.4885
▁amar	-10.4893
gar	-10.4908
▁corte	-10.4917
▁normalmente	-10.4917
▁komersio	-10.4917
▁estábamos	-10.4921
▁encontramos	-10.4925
▁konsultado	-10.4925
▁personalmente	-10.4926
▁chris	-10.4927
▁dizirlo	-10.4929
▁sonya	-10.4934
▁moral	-10.4935
▁obviamente	-10.4936
▁primavera	-10.4936
▁shara	-10.4938
▁acabo	-10.4948
▁baño	-10.495
▁sube	-10.4956
▁abrir	-10.4957
▁encontré	-10.4959
▁mike	-10.4963
▁banyo	-10.4971
▁términos	-10.4971
▁robert	-10.498
▁presenta	-10.4982
▁uniforme	-10.4982
▁llevó	-10.4987
▁aparte	-10.4991
▁kreia	-10.4995
▁pelear	-10.4997
▁identidad	-10.4998
▁kurto	-10.4998
▁ritmo	-10.501
▁cuál	-10.5018
▁amplio	-10.5022
▁nesesitas	-10.5022
▁silensio	-10.5024
▁sacar	-10.5025
▁epoka	-10.5032
▁dé	-10.5035
▁brasil	-10.5038
▁partisipasion	-10.5038
▁capital	-10.5039
▁permiten	-10.5039
▁st	-10.5039
▁new	-10.5043
▁rapidamente	-10.5049
▁participación	-10.5049
ándose	-10.505
▁dis	-10.5051
▁digamos	-10.506
▁área	-10.506
▁terminos	-10.5084
▁ministros	-10.5087
▁umo	-10.5091
▁autor	-10.5093
▁cenar	-10.5094
▁kazar	-10.5094
▁imediatamente	-10.5103
▁inkreible	-10.5106
▁fonksion	-10.5108
▁ro	-10.511
▁preokupa	-10.5112
▁rezolver	-10.5114
▁reales	-10.5115
▁evaluar	-10.5116
▁excelente	-10.5116
▁rejiones	-10.5119
▁estratedjia	-10.5123
▁inmediatamente	-10.5123
▁estuvites	-10.5124
or	-10.5124
▁breve	-10.5127
todo	-10.513
▁estrategia	-10.5134
▁ekselente	-10.5136
▁presentar	-10.5136
▁variables	-10.5139
▁contacto	-10.5139
▁bo	-10.514
ás	-10.5141
▁malas	-10.5147
siones	-10.5148
▁estructura	-10.5152
▁cambiado	-10.5159
▁oyo	-10.5163
▁trampa	-10.5164
▁novio	-10.5167
▁vyenen	-10.5171
▁recibir	-10.5173
▁estuvyera	-10.5187
▁pobres	-10.5197
ad	-10.5199
▁dyeron	-10.5199
yendo	-10.5208
▁salió	-10.5211
▁intereses	-10.5212
▁contexto	-10.5217
▁konteksto	-10.522
▁tierras	-10.5221
▁rápidamente	-10.5223
▁asesino	-10.5223
▁época	-10.5226
▁resolver	-10.5237
▁tocar	-10.5239
▁demokrasia	-10.524
▁estruktura	-10.5242
dr	-10.5256
▁creía	-10.5257
▁hablado	-10.5259
▁publikos	-10.5259
▁adultos	-10.5264
▁senyorias	-10.5274
▁permita	-10.5275
tar	-10.5275
▁elemento	-10.528
▁representantes	-10.5282
▁aktividad	-10.5289
ner	-10.529
▁verano	-10.5291
▁logro	-10.5294
▁actividad	-10.5295
▁vía	-10.5298
gi	-10.5316
▁misión	-10.5316
▁proposito	-10.5316
▁laboral	-10.5317
▁defender	-10.5318
▁enteresoes	-10.5323
▁primeras	-10.5326
▁saverlo	-10.5328
▁venta	-10.5329
▁frecuencia	-10.5331
▁lukar	-10.5351
▁kullanear	-10.5353
▁pequeñas	-10.5356
▁período	-10.5357
▁moneda	-10.5363
▁democracia	-10.5363
▁progreso	-10.5363
▁enchikeser	-10.5366
▁jane	-10.5369
▁ninguno	-10.5385
▁kartas	-10.5389
▁responsables	-10.539
▁exterior	-10.5392
ves	-10.5396
▁señorías	-10.5397
▁militares	-10.5402
▁mató	-10.5418
▁tendrás	-10.5421
▁trabaja	-10.5422
▁frekuensia	-10.5423
▁kumplir	-10.5423
▁pedido	-10.5425
▁puso	-10.5426
▁tira	-10.5426
▁makina	-10.5427
▁espiritu	-10.543
▁madame	-10.5432
▁konta	-10.5435
▁hogar	-10.5441
▁kedan	-10.5442
▁diversos	-10.5448
▁función	-10.5449
▁flores	-10.5452
▁tra	-10.5455
▁podamos	-10.5461
▁fuentes	-10.5467
▁kreen	-10.5469
▁cu	-10.5471
▁jean	-10.5476
▁factores	-10.5477
▁podrías	-10.5478
mar	-10.5478
▁pedrida	-10.5483
▁komenzo	-10.5487
),	-10.5489
▁té	-10.5496
▁entorno	-10.55
▁abashar	-10.5502
land	-10.5502
iko	-10.5506
▁proves	-10.5506
▁reducir	-10.5509
▁cuándo	-10.5516
▁declarasion	-10.552
▁okupado	-10.5521
▁roza	-10.5523
▁edifisio	-10.5523
▁bruido	-10.5527
▁viernes	-10.5528
▁bi	-10.5534
rte	-10.5536
▁puedamos	-10.5538
podría	-10.5538
▁suena	-10.554
▁beso	-10.5548
▁vienen	-10.5548
▁sostenible	-10.5551
▁peso	-10.5556
ser	-10.5557
▁naturales	-10.5566
▁kultura	-10.5566
▁entro	-10.5566
▁eliminar	-10.5568
▁clara	-10.5568
▁faktores	-10.5572
▁lavora	-10.5573
▁usa	-10.5579
▁cultura	-10.5582
▁nesesitar	-10.5582
▁altos	-10.5582
▁propósito	-10.5584
▁completo	-10.5584
▁dosis	-10.559
▁similares	-10.5604
tos	-10.5612
▁topan	-10.5616
▁sita	-10.5618
▁ne	-10.5623
▁direkto	-10.5625
▁komite	-10.5628
▁konosi	-10.5636
▁sardjento	-10.5642
▁individuos	-10.5642
▁lunes	-10.5643
▁karakter	-10.5643
▁esposo	-10.5645
▁pieza	-10.5646
▁cine	-10.5647
▁aviones	-10.5649
▁droga	-10.5654
▁bonita	-10.5654
▁ogar	-10.5655
lu	-10.5655
▁gobiernos	-10.5656
▁soportar	-10.5656
▁mental	-10.5658
▁toka	-10.5663
▁entendes	-10.5664
▁distancia	-10.5666
▁prinsipales	-10.5668
▁debajo	-10.5671
▁indios	-10.5677
▁mm	-10.5686
▁haremos	-10.569
▁principales	-10.5691
▁razonable	-10.5693
ero	-10.5697
▁limpia	-10.5702
▁be	-10.5703
té	-10.5704
▁chi	-10.5704
▁caballos	-10.5705
lin	-10.5705
▁eksterior	-10.5706
▁bill	-10.5707
ly	-10.5707
▁bote	-10.5708
▁prometo	-10.5715
▁),	-10.572
▁kavayos	-10.5722
▁graves	-10.5722
▁esfuerzo	-10.5723
▁valiente	-10.5726
ine	-10.5726
▁for	-10.5729
▁declaración	-10.573
▁consecuencias	-10.5735
▁kuidar	-10.5736
nt	-10.574
▁naciones	-10.5743
▁edificio	-10.5745
▁chay	-10.5746
▁conferencia	-10.5747
▁comportamiento	-10.5748
▁deseos	-10.5768
▁pais	-10.5769
▁tranquilo	-10.5772
▁prechizamente	-10.5772
▁tri	-10.5775
▁encontró	-10.578
▁ayudarme	-10.578
▁konferensia	-10.5781
▁tumba	-10.5783
▁marina	-10.5786
tiko	-10.5789
▁sitios	-10.5793
▁precisamente	-10.5794
▁poca	-10.5797
▁distansia	-10.5798
st	-10.5803
▁enemigos	-10.5804
enza	-10.5819
▁komportamiento	-10.5819
▁necesitas	-10.5821
▁pretende	-10.5823
▁ermozos	-10.5834
▁ba	-10.5839
▁marka	-10.5843
▁tareas	-10.5848
▁kayer	-10.5853
▁ruido	-10.5857
▁limpiar	-10.5859
▁kondision	-10.5867
▁reformas	-10.587
▁manejar	-10.587
▁tuvyera	-10.5871
▁konsekuensas	-10.588
▁monsieur	-10.5881
▁enfermo	-10.5881
▁bienvenida	-10.5885
▁proyectos	-10.5886
▁pido	-10.5887
▁teksto	-10.5893
▁carácter	-10.5895
fer	-10.5897
▁arena	-10.5898
▁pesca	-10.5916
▁inteligente	-10.5917
▁jurado	-10.5921
▁establecer	-10.5921
▁baile	-10.5928
▁cumplir	-10.5928
▁piso	-10.5935
▁imperio	-10.5935
▁tengamos	-10.5938
▁du	-10.5949
▁aca	-10.595
▁piloto	-10.5955
▁eddie	-10.5956
tion	-10.5957
▁azul	-10.5962
▁informar	-10.5963
ll	-10.5965
▁barrio	-10.5967
▁susedyo	-10.5973
▁niza	-10.5975
id	-10.5976
▁regresar	-10.5977
▁ra	-10.5979
▁lago	-10.5979
▁asia	-10.5984
▁irlanda	-10.5985
▁espíritu	-10.5988
▁enfermedades	-10.599
▁nuevamente	-10.5991
▁juez	-10.5993
▁maneras	-10.5994
▁rico	-10.5994
▁comité	-10.5996
▁parecer	-10.5999
tivo	-10.5999
▁decirte	-10.6003
▁calor	-10.6004
▁rato	-10.6007
▁permanente	-10.6009
▁egzersis	-10.6009
ay	-10.6027
▁sargento	-10.6028
▁intelijente	-10.6028
▁deshi	-10.6033
kom	-10.6035
▁decirme	-10.6037
▁lindo	-10.6045
▁vimos	-10.6049
▁bienestar	-10.6051
fo	-10.6054
tro	-10.6054
men	-10.6055
▁anual	-10.6063
▁directamente	-10.6068
▁entera	-10.608
▁legislación	-10.6082
▁enverano	-10.6088
▁gas	-10.6092
▁proyektos	-10.6095
▁baylar	-10.6097
▁kayntor	-10.6098
▁muestras	-10.6098
▁quieras	-10.6101
▁virus	-10.6108
▁etapa	-10.6113
▁silencio	-10.6117
▁increíble	-10.6119
▁máquina	-10.6123
▁techo	-10.6124
▁anna	-10.6129
▁autores	-10.6137
▁sobrevivir	-10.6138
▁ledjislasion	-10.614
▁interna	-10.6145
▁tv	-10.6146
▁sinema	-10.6148
▁literatura	-10.6148
▁komensar	-10.6152
▁prezenta	-10.6158
▁yelada	-10.6159
▁plenamente	-10.616
▁mupak	-10.6161
▁temas	-10.6163
▁monton	-10.6164
hola	-10.6164
▁djenial	-10.6165
▁papeles	-10.6166
▁luchar	-10.6173
▁federal	-10.6173
▁formar	-10.6175
▁meti	-10.6177
▁util	-10.6178
▁vengan	-10.6182
▁evidencia	-10.6188
ización	-10.619
▁kura	-10.6194
▁bailar	-10.6196
▁toca	-10.6198
il	-10.6199
▁consecuencia	-10.6199
▁inferior	-10.6204
ren	-10.6204
▁ejercicio	-10.6206
▁fines	-10.6214
▁vyendo	-10.6214
▁ishalla	-10.6215
ru	-10.6215
▁asilo	-10.6223
▁medicina	-10.6223
▁etc	-10.6223
▁superar	-10.6226
▁ayude	-10.6226
tre	-10.6228
▁peska	-10.6232
▁texto	-10.6235
▁vaso	-10.6236
▁disponible	-10.6238
bar	-10.6239
▁direktamente	-10.6241
▁ii	-10.6244
▁residuos	-10.625
▁hechos	-10.6253
▁prestar	-10.6254
▁espanyol	-10.6258
▁gano	-10.6259
▁genial	-10.6271
gue	-10.6272
estoy	-10.6272
cia	-10.6273
nada	-10.6277
▁esforso	-10.628
▁ayege	-10.6282
▁volvió	-10.6283
▁kupa	-10.6286
▁aprendizaje	-10.6288
▁tropas	-10.6292
▁primo	-10.6297
fe	-10.6298
▁rojo	-10.6299
▁administrasion	-10.63
▁keras	-10.6302
▁empesa	-10.6306
▁sufrir	-10.6308
""	-10.6308
▁libres	-10.631
▁solos	-10.6314
▁creen	-10.6314
▁agan	-10.6318
▁horrible	-10.6324
pre	-10.6325
▁pedri	-10.6329
▁robo	-10.6339
▁akodras	-10.634
▁ésa	-10.6342
▁prioridad	-10.6348
▁entision	-10.6351
▁verá	-10.6354
selo	-10.6354
▁gasto	-10.6359
▁hazino	-10.6362
▁banda	-10.6365
▁manda	-10.6366
▁ciudades	-10.6366
▁reto	-10.6368
▁inyervozo	-10.6368
▁escapar	-10.6371
▁sirve	-10.6371
▁mark	-10.638
▁tratados	-10.6381
ed	-10.6384
▁kije	-10.6384
▁vedre	-10.6384
▁perfecto	-10.6386
bien	-10.6389
▁sivdades	-10.6391
▁hey	-10.6396
▁mu	-10.6397
▁sancho	-10.6399
▁vision	-10.6405
▁esforsos	-10.641
▁aeropuerto	-10.641
mer	-10.6415
▁emisiones	-10.6421
▁desayuno	-10.6421
▁post	-10.6425
▁okazion	-10.6429
▁hagan	-10.643
▁tenyendo	-10.6439
▁flako	-10.644
▁diversas	-10.6441
▁medisina	-10.6443
▁piensas	-10.6449
▁diversidad	-10.645
bra	-10.6451
▁akaso	-10.6451
▁tino	-10.6454
▁llena	-10.6458
▁nueve	-10.6462
▁esfuerzos	-10.6464
▁sexo	-10.6464
▁puente	-10.6464
▁inisiativa	-10.6466
▁llegue	-10.647
▁intención	-10.6473
▁parecen	-10.6478
▁tuvyeron	-10.6479
endo	-10.6481
▁fuites	-10.6481
▁impulso	-10.6487
▁abre	-10.6488
▁kodjer	-10.6489
▁españa	-10.6492
▁encanta	-10.6495
▁pedryo	-10.6496
▁encuentran	-10.6502
▁pasan	-10.6503
▁kar	-10.6505
▁hazinuraes	-10.6505
▁nesesarios	-10.6512
▁verde	-10.6512
▁unidades	-10.6523
ju	-10.6524
▁empezó	-10.6526
▁comenzó	-10.6526
▁braso	-10.6526
▁bayle	-10.6527
▁ocasión	-10.6529
▁nick	-10.653
▁espanya	-10.6532
!"""""""	-10.6541
▁w	-10.6542
▁orivle	-10.6543
cho	-10.6552
▁dezeyo	-10.6569
▁decidido	-10.6569
▁sekso	-10.6579
▁adjente	-10.6579
▁teniendo	-10.659
▁uu	-10.6592
▁iniciativa	-10.6592
▁ta	-10.6594
▁paresen	-10.6595
▁utilizar	-10.6596
▁ojalá	-10.6596
▁bushka	-10.6601
▁teoriya	-10.6602
tika	-10.6616
▁historias	-10.6618
▁montón	-10.6622
mira	-10.6628
▁estén	-10.663
▁invitados	-10.663
▁profundamente	-10.6641
▁viva	-10.6643
▁firmar	-10.6643
th	-10.6646
▁arry	-10.6649
car	-10.6654
▁empieza	-10.6655
▁lleno	-10.6656
▁quedan	-10.6658
▁prision	-10.6661
▁movimientos	-10.6666
▁garganta	-10.6672
izasion	-10.6675
▁kuantas	-10.6679
▁prinsipios	-10.6681
▁toparon	-10.6681
▁metodo	-10.6685
▁istorias	-10.6687
▁inversiones	-10.6693
▁show	-10.6696
▁metas	-10.6698
cuando	-10.6702
▁tomas	-10.6704
▁volumen	-10.6717
▁dulce	-10.6718
▁método	-10.672
▁alternativa	-10.672
▁orkestra	-10.6723
ella	-10.6742
▁diferensyas	-10.6743
▁ventaja	-10.6744
rás	-10.6747
echo	-10.6749
▁relativo	-10.6754
▁televisión	-10.6755
▁celulas	-10.6758
▁televizyon	-10.6759
▁presentado	-10.6759
▁preokupes	-10.676
▁kantar	-10.6762
▁dulse	-10.6767
▁plata	-10.6773
▁serve	-10.6774
▁proteger	-10.6777
▁anteriores	-10.6779
▁evidentemente	-10.678
▁amistad	-10.6781
▁aplausos	-10.6786
▁amante	-10.6792
ng	-10.6796
▁yave	-10.6803
▁dizirme	-10.681
▁noel	-10.6821
▁civil	-10.6822
▁yeno	-10.6824
▁devolver	-10.6826
▁enkanta	-10.6828
▁talento	-10.6831
▁agente	-10.6832
▁whisky	-10.6833
▁excepto	-10.6833
▁kontinua	-10.6834
▁enfermera	-10.6835
et	-10.6838
▁células	-10.6839
▁impakto	-10.6839
sia	-10.6842
▁familiares	-10.6846
▁sivil	-10.6849
▁brazo	-10.6853
ry	-10.6857
▁jerry	-10.6859
▁uh	-10.6861
▁arbol	-10.6862
▁verla	-10.6864
▁responde	-10.6865
▁solas	-10.6866
▁preocupes	-10.6867
▁boston	-10.6867
▁oí	-10.6869
▁aumenta	-10.6869
▁loca	-10.6872
▁asegrar	-10.6873
▁teoría	-10.6873
áis	-10.6877
▁konsumidores	-10.688
▁ekseptado	-10.6887
▁estupido	-10.6891
▁deprisa	-10.6891
▁consumidores	-10.69
▁estupendo	-10.6901
▁propyos	-10.6901
▁pidió	-10.6911
▁aspere	-10.6913
▁vini	-10.6916
▁volveré	-10.6921
▁copa	-10.6925
▁prisión	-10.6939
▁vea	-10.694
▁tomamos	-10.6943
▁cuentas	-10.6944
▁gritar	-10.6945
▁ru	-10.6945
▁promesa	-10.6945
▁gloria	-10.6947
▁diferencias	-10.6948
▁mandar	-10.6948
▁estreya	-10.695
▁entrega	-10.6954
▁maldita	-10.6957
▁nena	-10.6959
▁canser	-10.6959
ales	-10.696
▁kuentas	-10.6967
▁extraña	-10.6968
▁puesta	-10.6973
▁profunda	-10.6974
▁veyga	-10.6974
▁adn	-10.6974
▁tele	-10.6974
qui	-10.6978
▁damos	-10.6979
▁claridad	-10.6983
▁juventud	-10.6985
▁pishkado	-10.6987
▁suele	-10.6988
▁granpapa	-10.6988
▁olvides	-10.6991
▁lengua	-10.6993
▁kasado	-10.7001
ana	-10.7003
▁cáncer	-10.7014
sti	-10.7014
▁intervension	-10.7022
▁entregar	-10.7024
▁pedron	-10.7024
▁impacto	-10.7033
▁referencia	-10.7044
▁konsidera	-10.7044
▁mentira	-10.7044
▁estrella	-10.7048
▁hablo	-10.705
▁alimentaria	-10.705
▁rumbo	-10.7056
▁revisar	-10.7063
▁tercera	-10.7066
▁torre	-10.7067
▁superficie	-10.7068
▁referensia	-10.7068
▁tersera	-10.707
▁meksiko	-10.7073
▁yaman	-10.7075
▁karl	-10.7077
▁desastre	-10.7081
▁verás	-10.7085
▁limpio	-10.7086
▁arrimar	-10.7092
fuistes	-10.7095
▁abuelo	-10.7096
▁muro	-10.71
▁"""""""¿	-10.7106
▁ekstra	-10.7108
▁estuviera	-10.711
▁or	-10.7114
▁llave	-10.7123
ña	-10.7125
▁ga	-10.7129
▁korre	-10.713
▁aygan	-10.7132
▁doktoos	-10.7136
▁sierta	-10.7148
▁mataron	-10.715
tor	-10.7153
▁roto	-10.7156
▁asistir	-10.7163
▁estuvimos	-10.7163
▁hayan	-10.7165
▁cierta	-10.7166
▁harry	-10.7168
▁algno	-10.7178
▁oridjen	-10.7184
▁caliente	-10.7184
▁postura	-10.7185
zi	-10.7197
▁pecho	-10.7199
▁moda	-10.7201
▁realiza	-10.7202
▁visión	-10.7203
▁kontenido	-10.7204
▁intervención	-10.7218
▁entrevista	-10.7223
▁apartado	-10.7225
▁loka	-10.7226
▁sigues	-10.7226
▁origen	-10.7227
▁marca	-10.7227
▁malos	-10.7229
▁tuviera	-10.7232
▁fu	-10.7233
lar	-10.7236
▁méxico	-10.7238
▁jurnal	-10.724
▁solia	-10.7243
gen	-10.7253
▁felicidad	-10.7254
▁beyeza	-10.7259
▁invitado	-10.7261
▁periódico	-10.7267
▁pedrido	-10.7268
▁troko	-10.727
ur	-10.7283
soy	-10.7283
▁cuello	-10.7284
▁mr	-10.7284
▁memoria	-10.7287
▁kosto	-10.7288
▁sonido	-10.7292
▁médicos	-10.7302
▁espere	-10.7306
▁superfisie	-10.7309
▁belleza	-10.7309
▁konto	-10.731
▁navidad	-10.7311
▁respetar	-10.7311
▁trasero	-10.7313
▁asosiasion	-10.7314
▁sentimiento	-10.7315
▁caer	-10.7317
▁vide	-10.7329
▁administración	-10.7337
▁viendo	-10.7344
▁orozo	-10.7346
▁prisioneros	-10.7357
▁considera	-10.7358
▁aluenga	-10.7358
▁plaza	-10.7359
rra	-10.736
▁distinto	-10.7362
▁bosque	-10.7363
▁sorprendente	-10.7363
▁diciembre	-10.7373
▁ocurrido	-10.7373
▁evolusion	-10.7376
▁piano	-10.7377
▁peligroso	-10.7379
▁pasaron	-10.7384
▁personales	-10.7386
▁miro	-10.7389
▁crimen	-10.7394
▁jimmy	-10.7395
▁aleman	-10.7396
▁traído	-10.7398
han	-10.7399
▁fumar	-10.7409
▁observa	-10.741
imos	-10.741
▁asociación	-10.7412
▁instante	-10.7413
▁solar	-10.7419
▁demandarle	-10.7419
▁basado	-10.7419
ika	-10.7423
▁atrapar	-10.7428
▁konvertyo	-10.7434
▁prioridades	-10.744
▁llamó	-10.7441
▁kodo	-10.7442
▁iremos	-10.7443
▁kompleta	-10.7455
▁contenido	-10.7455
▁serlo	-10.7458
▁resistencia	-10.7459
▁enfrentar	-10.7463
nunca	-10.7466
▁enferma	-10.7468
▁llaman	-10.7468
▁pasajeros	-10.7468
▁maldito	-10.7474
▁bajar	-10.7475
▁mezcla	-10.7475
▁basa	-10.7476
▁jenero	-10.7477
▁ilegal	-10.7483
gra	-10.7488
▁segndos	-10.7492
▁ministerio	-10.7492
▁blanka	-10.7497
▁disponibles	-10.7502
▁gramama	-10.7502
▁kayente	-10.7504
▁desiembre	-10.7513
▁basada	-10.7515
▁usuarios	-10.7517
▁condición	-10.7517
▁batalla	-10.7519
▁juan	-10.752
▁resistensia	-10.7521
▁acabar	-10.7521
▁hicimos	-10.7524
▁millón	-10.7525
▁oja	-10.7525
▁segundos	-10.753
▁hubiese	-10.7531
▁tenias	-10.7531
▁trabajos	-10.7534
▁árbol	-10.7538
▁sonrisa	-10.7541
▁apoyar	-10.7542
dora	-10.7542
▁explicar	-10.7543
▁reducción	-10.7546
▁manka	-10.7547
▁kayyo	-10.7547
▁ensayo	-10.7548
▁komisaria	-10.7553
▁acá	-10.7558
▁extra	-10.7561
▁car	-10.7564
▁grados	-10.7568
▁rekonoser	-10.7568
▁brazos	-10.7569
▁fecha	-10.757
▁altas	-10.7572
▁abuela	-10.7573
▁privada	-10.7582
▁organizaciones	-10.7583
▁minimum	-10.7588
tt	-10.7589
▁irte	-10.759
▁cantar	-10.7591
▁saltar	-10.7592
▁recibido	-10.7593
▁taza	-10.7601
▁batalia	-10.7607
▁milyon	-10.7611
▁korrer	-10.7613
▁olvido	-10.7615
▁metro	-10.7618
tri	-10.7619
▁conciencia	-10.7626
▁crea	-10.7629
▁opiniones	-10.763
▁sako	-10.7631
▁felisidad	-10.7637
▁industrial	-10.7647
▁guardia	-10.7653
▁mg	-10.7655
▁prechizo	-10.7658
▁krimen	-10.7663
▁continuar	-10.7664
▁cura	-10.7668
▁vigor	-10.767
▁técnica	-10.767
▁lesiones	-10.7672
▁realizo	-10.7676
▁veygamos	-10.7683
▁konsepto	-10.7688
▁organismos	-10.7694
▁conoces	-10.7695
▁reloj	-10.77
▁yevava	-10.771
▁útil	-10.7711
by	-10.7716
um	-10.7716
▁necesidades	-10.772
▁corta	-10.772
▁características	-10.7726
▁ingreso	-10.7727
▁colega	-10.7737
▁estadounidense	-10.7738
▁rango	-10.7741
▁veamos	-10.7741
▁gadria	-10.7742
▁uzando	-10.775
▁imágenes	-10.7752
▁buz	-10.7753
▁ermanos	-10.7755
▁perdón	-10.7757
▁tomó	-10.7761
▁hermanos	-10.7762
▁kostum	-10.7762
▁organizasiones	-10.7763
▁japon	-10.777
▁investigar	-10.7774
dios	-10.7774
▁asumir	-10.7779
▁republika	-10.778
▁brasos	-10.7782
▁reducsion	-10.7793
ted	-10.7805
▁pat	-10.7807
lla	-10.7808
▁enero	-10.7809
▁hermoso	-10.7816
▁opera	-10.7825
▁ciento	-10.7826
rlo	-10.7835
▁llevado	-10.7836
▁teniamos	-10.7838
▁posteriormente	-10.7847
▁irnos	-10.7851
▁código	-10.7853
▁correr	-10.7856
▁negociaciones	-10.7857
▁promover	-10.7859
▁inspektor	-10.786
▁existencia	-10.786
ger	-10.7861
▁noticia	-10.7861
▁relativas	-10.7862
▁bajos	-10.7863
▁territorio	-10.7865
?""""	-10.7871
▁ivan	-10.7875
▁solía	-10.7876
▁em	-10.7878
▁negosiasiones	-10.7879
▁desarroyar	-10.788
▁rara	-10.7887
▁nesesidades	-10.7889
▁concepto	-10.7899
▁mortalidad	-10.7902
ndose	-10.791
▁monte	-10.7913
tina	-10.7915
mis	-10.7916
asi	-10.7917
▁letra	-10.7919
▁krea	-10.7921
▁bira	-10.7928
▁kontrato	-10.7931
▁establese	-10.7931
artagnan	-10.7932
▁completa	-10.7932
em	-10.7937
▁serrar	-10.7941
▁nosotras	-10.7943
▁disculpe	-10.7945
▁dedos	-10.7959
▁blanca	-10.7961
▁karakteristikas	-10.797
▁tono	-10.7975
▁desarrollar	-10.7978
▁irá	-10.7982
▁italiano	-10.7989
▁verdadera	-10.799
▁representante	-10.799
▁kolego	-10.7991
shi	-10.7997
▁ruso	-10.7999
▁hu	-10.8004
isar	-10.8005
▁siga	-10.8007
▁alemán	-10.8008
▁korso	-10.8011
▁nuvela	-10.8013
▁infantil	-10.8018
▁biven	-10.8023
▁uza	-10.8024
▁eksistensia	-10.8027
▁quedó	-10.8028
▁cerveza	-10.8032
▁cerrar	-10.8032
▁rekere	-10.8033
▁toman	-10.8035
▁salvaje	-10.8037
▁pekado	-10.8037
▁estrellas	-10.8037
▁elecciones	-10.8039
▁amas	-10.8039
▁anestesia	-10.8047
▁compartir	-10.8055
▁riesgos	-10.8056
▁ponga	-10.8058
▁internacionales	-10.8058
▁alguno	-10.8068
▁comenzar	-10.807
▁investigadores	-10.8074
▁corre	-10.8078
▁thomas	-10.8089
▁imajes	-10.809
▁avlamos	-10.809
▁oido	-10.8095
▁mina	-10.8098
▁konsensya	-10.8104
▁científicos	-10.8105
▁comprender	-10.8108
▁desidir	-10.8116
▁reconocer	-10.8119
rnos	-10.8122
▁octubre	-10.8123
▁prefero	-10.8127
▁sientifikos	-10.8128
aplausos	-10.8133
djer	-10.8133
▁lady	-10.8137
▁requiere	-10.8144
▁internasyonales	-10.8145
▁vayas	-10.8147
▁eskuze	-10.8148
▁estreyas	-10.8148
▁enviar	-10.8161
▁eleksiones	-10.8162
▁llevan	-10.8163
▁sucedió	-10.8166
▁seré	-10.8175
▁yevan	-10.8179
▁dispositivo	-10.8192
▁dialogo	-10.8193
▁influencia	-10.8196
q	-10.8201
▁levin	-10.8204
porque	-10.8205
▁habido	-10.8207
kas	-10.8208
▁usando	-10.8209
▁acabó	-10.8212
▁penal	-10.822
▁kumbre	-10.822
rias	-10.8221
▁reir	-10.8221
▁preokupado	-10.8224
▁enfoque	-10.8228
▁produkto	-10.8228
▁viven	-10.8229
▁konsidero	-10.8232
▁hielo	-10.8232
▁maría	-10.8232
▁plato	-10.8235
▁kalma	-10.8235
▁rekuperar	-10.8237
▁vedradera	-10.8238
▁lisboa	-10.8239
▁llevaba	-10.8242
can	-10.8245
▁cumbre	-10.8248
▁alegre	-10.8252
él	-10.8262
▁kompartir	-10.8265
▁producto	-10.8268
cree	-10.8269
▁viktimas	-10.827
▁veremos	-10.8271
▁enamorada	-10.8272
▁enormes	-10.8275
▁fabrika	-10.8276
▁kedarse	-10.8276
▁eleksion	-10.8279
▁ocupado	-10.828
▁esten	-10.8289
▁metyendo	-10.8291
▁estúpido	-10.8292
▁fiscal	-10.8292
▁olvida	-10.8294
wa	-10.8305
▁japón	-10.831
▁rizikos	-10.8314
▁inspector	-10.8322
▁flujo	-10.8322
▁acto	-10.8322
▁temporal	-10.833
▁república	-10.8331
▁perspektiva	-10.8334
▁enfoke	-10.8334
▁prinsipalmente	-10.8335
▁limite	-10.8342
▁iii	-10.8342
▁evidensia	-10.8342
▁representan	-10.8347
monos	-10.835
▁equivocado	-10.8357
▁curso	-10.8357
▁eskuro	-10.8358
▁cambia	-10.836
ey	-10.8362
▁com	-10.8367
▁roja	-10.8367
▁olvide	-10.8371
▁aventura	-10.8377
▁konsiderar	-10.8385
▁locales	-10.8387
via	-10.8391
▁ideal	-10.8392
▁piernas	-10.8393
▁torni	-10.8397
▁siguros	-10.8399
▁pide	-10.8399
▁corto	-10.8404
▁von	-10.8405
▁segramente	-10.8405
▁pasamos	-10.8406
▁elección	-10.8407
▁pura	-10.8413
▁reuniones	-10.8414
▁kulpable	-10.8416
▁vistas	-10.8416
▁seguramente	-10.8419
▁diálogo	-10.8421
▁logrado	-10.8428
▁presios	-10.8428
▁decirlo	-10.8435
the	-10.8435
▁hablamos	-10.8439
▁individual	-10.8439
izimos	-10.8442
▁considerar	-10.8447
▁oktubre	-10.8448
▁prosedimientos	-10.8451
▁perspectiva	-10.8454
▁sorprende	-10.8457
▁culpable	-10.8476
rri	-10.8478
▁procedimientos	-10.8478
▁asenti	-10.8486
don	-10.8488
▁prefiero	-10.849
▁echa	-10.8491
▁rayos	-10.8493
▁principalmente	-10.8495
alguna	-10.85
▁esperado	-10.8503
ster	-10.8507
▁pi	-10.8513
▁decidir	-10.8514
▁monstruo	-10.8516
▁kaminar	-10.8516
▁familias	-10.8521
▁truyo	-10.8521
▁teníamos	-10.8521
huenyos	-10.8521
▁cuidar	-10.8524
▁alcance	-10.8524
▁terroristas	-10.8531
▁quedarse	-10.8532
▁kedate	-10.8536
▁príncipe	-10.8538
vimos	-10.8543
▁lokales	-10.8544
▁eskapa	-10.8547
san	-10.8548
▁precios	-10.8548
▁kandidatos	-10.8551
▁eskrivyo	-10.8555
▁termino	-10.8555
▁diagnostiko	-10.8555
▁testigos	-10.8557
▁terapia	-10.8559
▁entrenamiento	-10.8561
▁akto	-10.8563
▁merese	-10.8564
▁trafiko	-10.8565
▁guerta	-10.8567
▁za	-10.8571
▁fi	-10.8579
▁candidatos	-10.858
▁lider	-10.858
▁sigua	-10.8592
▁dormido	-10.8593
▁víctimas	-10.8596
▁ofrir	-10.8604
▁alkanse	-10.8609
..."""	-10.8612
▁criterios	-10.8616
▁shena	-10.8618
▁asperamos	-10.8619
▁pérdida	-10.8624
▁inisio	-10.8626
▁konduzir	-10.8626
▁saberlo	-10.8626
▁sonete	-10.8627
▁charsis	-10.8631
▁norma	-10.8647
▁merece	-10.8648
▁habéis	-10.865
▁famiyas	-10.8653
▁ho	-10.8655
djen	-10.8656
▁darse	-10.8658
▁jonny	-10.8658
▁asentia	-10.8659
▁aplikar	-10.866
▁come	-10.8672
▁calma	-10.8673
▁liberar	-10.8675
sólo	-10.8678
▁reunir	-10.868
▁fuiste	-10.868
▁sentía	-10.8686
▁acabado	-10.8686
▁mc	-10.8699
▁bushkida	-10.8699
▁kontrolar	-10.8699
▁universal	-10.8703
▁caminar	-10.8704
▁deskuvrir	-10.8715
▁kriters	-10.8725
▁diablos	-10.8729
▁lee	-10.8732
▁vaygas	-10.8732
▁alerta	-10.8734
▁periodista	-10.8735
▁nadar	-10.8739
""."	-10.874
▁alteza	-10.8752
▁dificultades	-10.8753
▁escena	-10.8754
▁esperamos	-10.8757
▁interesado	-10.8758
▁mantenimiento	-10.876
▁australia	-10.8768
▁yeve	-10.8768
▁invitar	-10.8774
▁diagnóstico	-10.8774
▁búsqueda	-10.8777
ación	-10.8777
▁mandato	-10.8779
▁tejido	-10.8781
min	-10.8783
▁jugador	-10.8784
▁prima	-10.8791
▁espectáculo	-10.8793
cas	-10.8795
▁aparejar	-10.8802
▁sueños	-10.8802
▁necesaria	-10.8802
▁espejo	-10.881
yeron	-10.8814
▁luvya	-10.8814
▁mesajes	-10.882
▁preokupasion	-10.882
▁perfectamente	-10.8828
▁bodro	-10.8835
▁controlar	-10.8838
▁profundidad	-10.8839
▁johnny	-10.8846
▁perfektamente	-10.8851
▁podremos	-10.8853
▁midi	-10.8854
▁deber	-10.8856
▁ki	-10.8859
▁espektakolo	-10.8859
▁gratis	-10.886
▁propiedades	-10.8866
▁felizes	-10.8866
▁silla	-10.8871
▁influensa	-10.8872
▁ofre	-10.8883
▁fantasma	-10.8884
▁plena	-10.8885
ney	-10.8885
▁elijir	-10.8886
sos	-10.8887
▁lineas	-10.8891
▁tope	-10.8895
izado	-10.8897
▁dieron	-10.8897
vido	-10.8903
▁piezas	-10.8903
▁siglos	-10.8904
▁kijo	-10.8907
▁botella	-10.8911
▁definir	-10.8911
▁cuyo	-10.8917
▁falso	-10.8919
til	-10.8921
▁bella	-10.8921
▁paredes	-10.8922
▁dispuestos	-10.8923
▁asentes	-10.893
▁victoria	-10.8932
▁solidaridad	-10.8934
▁inutil	-10.8942
▁conseguido	-10.8943
▁tráfico	-10.8943
▁tendrán	-10.8945
ho	-10.8958
▁tomi	-10.8959
▁pachas	-10.8959
▁difikultades	-10.8965
▁ekspresion	-10.8969
▁pu	-10.8971
▁ayegi	-10.8975
▁oya	-10.8976
▁expresión	-10.8976
▁sufisientemente	-10.898
▁mercados	-10.8981
▁delito	-10.8991
▁desidi	-10.8993
▁procesos	-10.9005
ón	-10.9005
▁lise	-10.9011
▁elegir	-10.9012
▁suficientemente	-10.9014
▁aldea	-10.9016
▁fomentar	-10.9017
▁prosesos	-10.9021
▁cm	-10.9023
▁pos	-10.9024
▁kor	-10.9029
▁cientos	-10.9032
▁arboles	-10.9033
▁constituye	-10.9035
▁smit	-10.9036
▁austria	-10.9036
▁avle	-10.9037
nas	-10.9037
yera	-10.9043
▁árboles	-10.9044
▁veré	-10.9045
▁propias	-10.9056
▁oriental	-10.9057
▁medioambiental	-10.906
▁sar	-10.9061
mp	-10.9065
▁viktoria	-10.9068
▁debates	-10.9069
▁obvio	-10.9069
▁salen	-10.9077
▁"""""""¡	-10.9077
wood	-10.9081
▁preocupación	-10.9083
vyeron	-10.9086
▁arroz	-10.9089
▁circunstancias	-10.909
▁distrito	-10.9093
▁kreemos	-10.9094
▁votación	-10.9096
▁votasion	-10.9101
▁quedado	-10.9102
▁vaygan	-10.9107
▁fo	-10.9108
▁definitiva	-10.9108
▁descubierto	-10.9116
▁fueras	-10.912
vale	-10.9121
▁luces	-10.9124
▁senyoria	-10.9127
▁indisio	-10.9128
▁metido	-10.9132
▁salto	-10.9133
▁campos	-10.9134
melo	-10.9136
asion	-10.9138
▁kayes	-10.9139
▁""""""""	-10.9141
▁conocí	-10.9143
▁dejé	-10.9144
▁bordo	-10.9145
▁kedarme	-10.9153
▁moderna	-10.9153
▁creemos	-10.9153
▁djenero	-10.9157
▁gay	-10.9158
▁dokumentos	-10.9158
▁pedra	-10.9162
aquí	-10.9164
▁puro	-10.9164
▁vueltas	-10.9167
▁smith	-10.9169
▁pasta	-10.9175
ex	-10.9179
▁djuro	-10.918
▁suave	-10.9188
▁bokal	-10.9193
▁hable	-10.9194
▁salga	-10.9197
▁documentos	-10.9197
▁yena	-10.9207
▁molestar	-10.9208
▁avagar	-10.921
▁konversasion	-10.9211
▁prens	-10.9217
▁profesores	-10.9221
▁partisipar	-10.9221
nu	-10.9222
▁komersial	-10.9224
▁diavlos	-10.9226
▁cuesta	-10.9229
▁querer	-10.923
▁cien	-10.923
▁doc	-10.9231
▁rovar	-10.9232
▁evolución	-10.9236
▁expresar	-10.9237
▁premio	-10.9238
▁kan	-10.924
▁llame	-10.924
▁impresion	-10.9245
▁benefisios	-10.9246
▁aclarar	-10.9247
▁lados	-10.9247
▁felices	-10.9248
▁pedro	-10.9248
▁corriente	-10.9253
▁rikos	-10.9253
▁beneficios	-10.9256
izyeron	-10.9258
▁quédate	-10.9264
▁sensasion	-10.9264
▁posiblemente	-10.9266
▁broma	-10.9267
▁larry	-10.9267
▁preciso	-10.9271
▁po	-10.9274
▁chile	-10.9275
▁ios	-10.9277
todos	-10.928
▁aplicar	-10.9282
▁konvertir	-10.9284
▁azerle	-10.9286
▁rock	-10.9287
▁lleve	-10.9288
▁quedarme	-10.9289
▁traer	-10.9289
▁azerse	-10.9294
▁er	-10.9297
▁fisika	-10.9298
▁avlas	-10.9298
▁revision	-10.9299
▁entiende	-10.93
▁luses	-10.9301
▁autos	-10.9301
▁hazlo	-10.9302
▁hacerle	-10.9306
▁sensación	-10.9309
▁elevo	-10.9311
▁personaje	-10.9311
▁siya	-10.9313
▁casado	-10.9314
▁cor	-10.9319
▁pensan	-10.932
▁vayan	-10.932
▁quedar	-10.9321
▁termina	-10.9323
▁eventos	-10.9327
▁lesones	-10.9328
▁diskutir	-10.9328
dro	-10.933
▁posta	-10.9332
▁col	-10.9336
▁bienvenido	-10.9336
▁version	-10.9342
▁física	-10.9353
▁dra	-10.9355
▁líneas	-10.9355
▁confiar	-10.9355
dy	-10.9357
▁jardín	-10.9362
▁ayegaron	-10.9363
▁comunes	-10.9364
▁rosa	-10.9367
▁operación	-10.9367
▁shaka	-10.9367
▁vital	-10.9373
▁ray	-10.9374
▁ruta	-10.9374
▁fuese	-10.9374
▁vendrá	-10.9377
▁turkia	-10.9379
▁dejeme	-10.9381
at	-10.9383
nd	-10.9383
ken	-10.9386
▁dará	-10.9388
par	-10.9389
▁premyo	-10.9389
▁imaginar	-10.939
▁previsto	-10.9395
▁operasion	-10.9396
▁taksi	-10.9396
▁korriente	-10.9398
▁paresyo	-10.9407
▁brown	-10.9407
▁oa	-10.9417
www	-10.9418
▁turquía	-10.9418
▁seguros	-10.9424
bri	-10.9425
oso	-10.9425
▁poderoso	-10.9426
antes	-10.9428
▁egzamen	-10.9429
▁fred	-10.943
▁cha	-10.9431
▁participar	-10.9436
donde	-10.9437
▁demostra	-10.9438
▁diavlo	-10.9442
▁virtud	-10.9442
pues	-10.9445
▁firma	-10.9445
▁hacerse	-10.9449
▁refiero	-10.9454
▁quise	-10.9459
▁señoría	-10.946
▁comercial	-10.946
▁agricultura	-10.9462
▁sensible	-10.9465
▁económicos	-10.9465
rre	-10.9466
▁bra	-10.9467
▁rostro	-10.9469
▁clases	-10.947
▁areas	-10.947
▁disparo	-10.9473
▁miel	-10.9474
▁konfiar	-10.9474
▁humanidad	-10.9476
kan	-10.9479
▁avli	-10.9481
▁adecuado	-10.9491
solo	-10.9494
▁dimensiones	-10.9498
▁áreas	-10.9498
▁komunes	-10.9499
▁tenías	-10.9499
▁volverá	-10.95
▁elegante	-10.95
izites	-10.9503
▁conversación	-10.9507
▁kome	-10.9507
▁sha	-10.9507
▁detalyoes	-10.951
▁factor	-10.9511
▁sientes	-10.9523
▁faktor	-10.9525
▁montaña	-10.9527
▁bebida	-10.9527
▁meto	-10.953
▁darte	-10.9531
▁ventajas	-10.9531
▁sirkunstansias	-10.9535
▁muertes	-10.9538
dia	-10.9538
▁adekuado	-10.954
▁hi	-10.9543
dri	-10.9546
▁konstitue	-10.9547
▁montanya	-10.9549
izitesh	-10.955
▁kerias	-10.955
▁desgracia	-10.9555
▁apuesta	-10.9559
▁propoze	-10.956
▁aproximadamente	-10.9562
▁desidyo	-10.9564
▁nasiones	-10.9565
▁henry	-10.9566
▁ekonomikos	-10.9567
▁okupar	-10.9568
▁inferno	-10.9569
ze	-10.958
▁governos	-10.9584
▁yorar	-10.9585
podemos	-10.9585
▁llorar	-10.9586
▁danny	-10.9589
▁prácticas	-10.959
▁morgan	-10.9592
▁dejaré	-10.9594
▁kansado	-10.9596
▁cliente	-10.9602
ty	-10.9604
▁kereria	-10.9607
▁kolaborasion	-10.9611
▁haberlo	-10.9612
▁rápida	-10.9613
▁refero	-10.9618
pu	-10.962
▁diablo	-10.9622
▁troka	-10.9624
▁descubrir	-10.9625
▁recientemente	-10.9625
▁toneladas	-10.9627
▁umanidad	-10.9628
▁refleja	-10.9628
▁metodos	-10.9629
▁revisión	-10.9632
▁komenza	-10.9632
▁jenerasion	-10.9633
▁infierno	-10.9636
▁majiya	-10.9641
▁konvension	-10.9641
▁matarme	-10.9645
▁manziya	-10.9645
▁respuestas	-10.9645
▁meterse	-10.9651
▁lamentablemente	-10.9652
▁negra	-10.9656
▁propone	-10.9658
cos	-10.9659
▁métodos	-10.9661
▁tommy	-10.9661
del	-10.9666
▁kitty	-10.9668
://	-10.9672
▁prevenir	-10.9677
▁kompanyero	-10.9677
▁aktitud	-10.9678
▁versión	-10.9682
▁ofrecer	-10.9683
dre	-10.9685
▁ofrece	-10.9685
dan	-10.9685
▁oiga	-10.9694
fu	-10.9695
▁agrikultura	-10.9704
nia	-10.9704
▁enry	-10.971
▁futura	-10.9716
éis	-10.9723
▁revolusion	-10.9724
▁rural	-10.9724
▁kola	-10.9724
▁examen	-10.9726
▁detalles	-10.9727
quiero	-10.9727
▁eskape	-10.9741
▁pretos	-10.9742
▁convención	-10.9742
roksimativamente	-10.9744
▁pasará	-10.9745
im	-10.9748
▁conducir	-10.9751
▁relativamente	-10.9751
▁individuo	-10.9753
▁vakansas	-10.9753
▁eva	-10.9754
recuerdas	-10.9761
▁contrato	-10.9761
▁ekspresar	-10.9761
▁piensan	-10.9763
▁ventanas	-10.9766
▁generación	-10.9775
▁vacaciones	-10.9776
▁locura	-10.9779
ff	-10.978
▁retirar	-10.9782
▁kazarse	-10.9791
▁cansado	-10.9793
▁llevaré	-10.9801
▁inteligencia	-10.9801
▁pedrone	-10.9803
▁kortar	-10.9805
ek	-10.9808
▁alegriya	-10.9813
▁patron	-10.9814
▁cabe	-10.9815
▁verguenza	-10.9826
ul	-10.9828
▁libras	-10.9828
▁preguntar	-10.9831
▁probabilidad	-10.9837
alguien	-10.9841
▁funsionar	-10.9843
▁pertenese	-10.9845
▁susan	-10.9847
▁original	-10.9849
▁discurso	-10.9849
▁régimen	-10.9854
▁eksplia	-10.9858
▁taxi	-10.9861
▁pese	-10.9864
▁clinika	-10.9865
▁casarse	-10.9868
▁nucleares	-10.9874
▁dejes	-10.9876
▁daria	-10.9877
▁sosh	-10.9879
▁repuestas	-10.9884
▁compañero	-10.989
▁resientemente	-10.9893
▁oridjinal	-10.9895
▁reserva	-10.9896
▁digame	-10.9899
▁pertenece	-10.9901
▁temor	-10.9902
bas	-10.9903
▁escuche	-10.9905
▁coger	-10.9905
▁chanta	-10.9908
▁conocía	-10.991
▁blankos	-10.9913
▁dokumento	-10.9919
▁juzgar	-10.9921
▁salon	-10.9922
▁opsion	-10.9928
▁zirugia	-10.9929
▁empesi	-10.9929
ker	-10.993
▁che	-10.9931
▁lokura	-10.9935
▁cirugía	-10.9935
▁ofisiales	-10.9937
▁estuvyeron	-10.9941
▁igualdad	-10.9942
▁antigua	-10.9943
iza	-10.9946
▁sara	-10.9946
▁ekivokado	-10.995
▁igaldad	-10.9951
▁templo	-10.9952
ts	-10.9952
▁intelidjensia	-10.9953
▁estando	-10.9954
▁suelen	-10.9955
au	-10.9959
▁intentarlo	-10.9959
▁gravedad	-10.996
▁bombas	-10.9969
▁casas	-10.9972
▁esensial	-10.9972
▁deshes	-10.9973
▁cuya	-10.9973
▁actitud	-10.9976
▁diskurso	-10.998
▁sufrimiento	-10.998
▁superiores	-10.9981
▁mentiras	-10.9983
▁pista	-10.9984
▁corresponde	-10.9985
tenemos	-10.9985
▁preparados	-10.9985
▁bruselas	-10.9988
▁frontiera	-10.9994
▁patrones	-10.9995
adónde	-10.9995
▁markar	-10.9995
▁kliente	-10.9998
▁rechazo	-11.0002
▁mantene	-11.0003
▁pagan	-11.0003
▁demostrado	-11.0003
▁robar	-11.0006
▁estaremos	-11.0016
▁comunidades	-11.0017
▁resivyo	-11.002
▁kitar	-11.0031
▁máximo	-11.0032
▁aprobasion	-11.0034
▁kritika	-11.0035
▁frontera	-11.0036
▁junta	-11.0037
ábamos	-11.0038
▁terrenos	-11.0039
▁alegría	-11.0039
▁inmigrantes	-11.0039
▁devyo	-11.0048
nya	-11.0066
▁brillante	-11.0075
▁colaboración	-11.0077
for	-11.008
ear	-11.008
▁ci	-11.0082
▁estés	-11.0086
▁tí	-11.0088
▁bolsa	-11.0088
▁estarán	-11.0092
▁hablas	-11.0093
▁escenario	-11.0098
▁petróleo	-11.0104
▁gracioso	-11.0109
▁medianoche	-11.0109
▁prisionero	-11.011
▁cumpleaños	-11.0114
▁esencial	-11.0117
▁intentado	-11.0119
rle	-11.0121
▁maravillosa	-11.0126
▁cayó	-11.0128
▁personalidad	-11.013
▁dekada	-11.013
▁propuesto	-11.0131
▁klientes	-11.0131
▁ayudarle	-11.0141
▁kalifornia	-11.0147
▁pete	-11.0148
▁tor	-11.015
▁jeff	-11.0153
▁afecta	-11.0154
▁yame	-11.0156
▁petrolio	-11.0156
▁capaces	-11.0156
▁konveniente	-11.0161
▁redjimen	-11.0161
▁kilometros	-11.0163
▁inversion	-11.0165
▁anteriormente	-11.0167
▁onu	-11.0172
▁científico	-11.0173
▁cuadro	-11.0174
▁prenses	-11.0174
mu	-11.0177
▁saka	-11.0187
▁suzio	-11.0189
▁paro	-11.019
▁demasiada	-11.019
▁necesitaba	-11.0194
▁calles	-11.0194
▁essenario	-11.0198
▁perdone	-11.0198
▁grasioso	-11.0199
▁yevas	-11.0199
▁piedras	-11.0202
▁z	-11.0204
▁embio	-11.0204
▁komunidades	-11.0205
aron	-11.0208
▁clínica	-11.0209
▁kapachies	-11.021
▁sientifiko	-11.0211
▁década	-11.0212
▁carretera	-11.0212
▁aprobación	-11.0213
▁clientes	-11.0215
▁aniversaryo	-11.0218
▁demonio	-11.0221
▁lectura	-11.0222
▁ocasiones	-11.0223
▁revolución	-11.0223
ante	-11.0224
▁potencial	-11.0224
▁venganza	-11.0224
▁veneno	-11.0225
▁generales	-11.0232
kuando	-11.0237
▁roy	-11.0243
▁especies	-11.0245
▁antiguo	-11.0245
iamos	-11.0245
▁california	-11.0249
▁medias	-11.0249
▁meten	-11.0251
▁colegio	-11.0251
▁avyo	-11.0252
▁molesto	-11.0252
▁reconocimiento	-11.0256
▁tomaron	-11.0259
▁juro	-11.0269
▁demandando	-11.027
▁lento	-11.027
▁yamas	-11.0279
▁potensial	-11.0284
▁afekta	-11.0291
▁golpear	-11.0292
▁pare	-11.0293
▁serra	-11.0293
▁espesies	-11.0294
▁evento	-11.0298
vites	-11.0309
▁verg	-11.0311
▁distribusion	-11.0314
▁castillo	-11.0314
vaya	-11.0314
▁compra	-11.0318
▁rekonosimiento	-11.0318
▁barato	-11.0319
▁estemos	-11.0319
▁kompanyeros	-11.032
▁misterio	-11.0322
▁estelar	-11.0323
▁palacio	-11.0324
▁akonteser	-11.0325
eta	-11.0331
▁inosente	-11.0332
▁entró	-11.034
▁inyeve	-11.0342
▁llamas	-11.0343
▁briyante	-11.0343
▁indio	-11.0345
▁oficiales	-11.0347
▁jugando	-11.0352
▁eskuridad	-11.0357
▁terror	-11.0357
▁izyera	-11.0359
▁discutir	-11.0359
▁louis	-11.0362
▁oyi	-11.0364
▁alemana	-11.0366
▁campaña	-11.0367
▁djugando	-11.0367
▁acuerdos	-11.037
▁vuestros	-11.0374
▁opción	-11.0377
▁park	-11.0381
▁kaza	-11.0382
▁comienza	-11.0386
▁kam	-11.0389
▁negativo	-11.0391
▁trate	-11.0392
▁rompe	-11.0396
▁djenerales	-11.04
▁documento	-11.0401
▁palasio	-11.0401
▁tomen	-11.0402
▁implica	-11.0403
▁adecuada	-11.041
▁técnicas	-11.0412
▁aparece	-11.0413
▁meldadura	-11.0416
▁kave	-11.0416
▁dada	-11.042
▁querría	-11.0421
▁interesantes	-11.0423
▁averlo	-11.0425
▁disparar	-11.0425
▁parko	-11.0426
▁oo	-11.0426
eron	-11.0426
▁escribió	-11.043
▁sigo	-11.043
▁pedaso	-11.043
▁perra	-11.0433
▁akordos	-11.0437
▁éstos	-11.0437
▁nesesitava	-11.0444
sco	-11.0447
▁verse	-11.045
▁sepas	-11.0459
▁recuperar	-11.0461
▁sabido	-11.0461
esa	-11.0463
kos	-11.0464
▁utilidad	-11.0466
▁tuvieron	-11.0472
▁oites	-11.0472
▁instituto	-11.0473
▁digan	-11.0477
▁aviso	-11.0479
▁can	-11.0481
▁oceano	-11.0483
▁kilómetros	-11.0484
▁asegurar	-11.0485
▁título	-11.0485
▁parque	-11.0488
▁convertido	-11.0488
▁konkreto	-11.0489
▁pishkados	-11.0492
▁totalidad	-11.0494
▁enfrenta	-11.0494
▁okaziones	-11.0496
▁adjentes	-11.0498
ler	-11.0498
▁futbol	-11.0502
▁kuales	-11.0505
▁limites	-11.0508
▁dudo	-11.0508
▁kampanya	-11.0514
yer	-11.0514
▁bal	-11.0523
▁identifikar	-11.0523
▁pensada	-11.0524
▁conflicto	-11.0536
▁sientate	-11.0543
▁recoger	-11.0543
▁compañeros	-11.0546
▁kastiyo	-11.0547
▁ekilibrio	-11.0552
acaso	-11.0552
▁adekuada	-11.0553
▁espertar	-11.0557
▁vinimos	-11.056
▁viajes	-11.0561
▁ojas	-11.0562
▁konflikto	-11.0565
▁literalmente	-11.0567
▁afirma	-11.0574
▁ayudo	-11.0578
▁estatal	-11.0579
▁nubes	-11.0581
▁watson	-11.0586
▁invito	-11.0587
señor	-11.0587
▁seamos	-11.0589
▁produzir	-11.0589
▁rusos	-11.059
▁barba	-11.059
▁vyenes	-11.0591
▁ronda	-11.0592
▁alimentar	-11.0592
▁impresión	-11.0596
▁dígame	-11.0598
▁ajeno	-11.0599
ino	-11.06
▁comienzo	-11.0603
▁sensibilidad	-11.0606
▁gastar	-11.0606
▁aparese	-11.0609
más	-11.0614
▁marie	-11.0615
▁llevas	-11.0617
vide	-11.0619
▁titolo	-11.062
▁forman	-11.062
▁plataforma	-11.0623
▁my	-11.0624
▁libertades	-11.0624
▁nervioso	-11.0629
▁konosia	-11.0629
▁cola	-11.0629
▁querías	-11.0633
▁rekor	-11.0634
▁intente	-11.0635
▁fronteras	-11.0639
▁inútil	-11.0639
▁artículos	-11.0639
▁nervios	-11.064
▁vivienda	-11.0641
▁siguientes	-11.0643
▁averiguar	-11.0647
▁kuras	-11.0648
▁kultural	-11.0648
▁wa	-11.0652
▁cultural	-11.0652
▁distinta	-11.0653
▁límite	-11.0653
▁marino	-11.0654
!"""	-11.0656
▁inocente	-11.0658
▁kaya	-11.066
oye	-11.0663
▁preparativos	-11.0665
▁karla	-11.0666
▁imadjinar	-11.0672
▁concreto	-11.0673
▁definitivamente	-11.0678
▁domingo	-11.0678
bilidad	-11.068
tin	-11.0686
▁marte	-11.0688
▁ayudante	-11.0695
▁kombate	-11.0699
▁prometido	-11.07
▁emergencia	-11.0703
▁líder	-11.0704
▁agentes	-11.0707
▁desagradable	-11.0708
▁importar	-11.071
sar	-11.0714
▁antika	-11.0714
▁asenta	-11.0715
▁positivo	-11.0716
▁salimos	-11.0718
▁herido	-11.072
▁korryendo	-11.072
▁identificar	-11.0721
ug	-11.0727
▁largas	-11.0735
▁asistencia	-11.0737
▁jones	-11.0737
▁informado	-11.0738
rd	-11.0741
▁antonio	-11.0744
ling	-11.0746
▁inversión	-11.0746
▁gapa	-11.0746
▁combate	-11.0748
▁metal	-11.0755
▁maraviyoza	-11.0755
▁incluye	-11.0755
▁kal	-11.0756
▁favorito	-11.0759
▁individuales	-11.076
▁visual	-11.0761
▁pensamiento	-11.0765
▁presupuestos	-11.0768
▁sigientes	-11.0771
▁respirar	-11.0772
▁praktikas	-11.0773
▁lavar	-11.0774
▁equilibrio	-11.0775
▁secsion	-11.0776
▁dave	-11.0777
▁siertas	-11.0778
▁pense	-11.0778
▁simples	-11.0779
▁rapidez	-11.078
sio	-11.0785
▁tranquila	-11.0789
visto	-11.079
▁visitas	-11.0792
▁dejo	-11.0795
▁selebrar	-11.0797
▁seksual	-11.0798
▁corriendo	-11.0801
▁avisar	-11.0801
▁west	-11.0801
▁agradezco	-11.0806
▁asistensia	-11.0806
tz	-11.0808
▁otomobiles	-11.0809
▁socio	-11.0813
▁digale	-11.0817
▁satisfacsion	-11.0821
▁películas	-11.0826
▁despuess	-11.0831
▁organismo	-11.0835
▁sexual	-11.0836
▁ladrones	-11.0836
▁satisfacción	-11.0836
▁deberá	-11.0837
▁implika	-11.0838
▁sentí	-11.0839
▁funeral	-11.0839
▁emerdjensia	-11.084
▁bivos	-11.0844
sr	-11.0845
▁julie	-11.0846
▁software	-11.0846
▁pastor	-11.0846
▁asustado	-11.0847
▁komunitario	-11.085
▁lisa	-11.085
▁supo	-11.085
▁diamantes	-11.0851
▁duke	-11.0853
▁veía	-11.0856
▁institusion	-11.0859
▁comunitario	-11.086
▁humor	-11.0863
▁rancho	-11.0867
▁estima	-11.0867
▁aparato	-11.0874
izar	-11.0875
nde	-11.0881
▁odia	-11.0883
▁sectores	-11.0883
▁reacsion	-11.0885
▁apunta	-11.0886
▁permitido	-11.0886
▁fran	-11.0888
▁ampliar	-11.0888
▁parecido	-11.0891
▁mostro	-11.0892
▁dispuesta	-11.0896
▁buska	-11.0901
▁distribución	-11.0902
▁turismo	-11.0902
▁falsa	-11.0904
▁adesion	-11.0906
▁viste	-11.0909
ac	-11.0915
▁conde	-11.0916
▁produce	-11.0916
▁adjensia	-11.0916
▁venia	-11.0919
▁asegro	-11.0922
▁filmos	-11.0923
▁presupuestario	-11.0927
▁seguido	-11.0927
▁disposición	-11.0928
▁harás	-11.0929
▁institución	-11.0938
▁sektores	-11.0938
▁vecinos	-11.0938
▁pelota	-11.0945
▁tratan	-11.0945
▁nieve	-11.0945
▁ciertas	-11.0945
▁indica	-11.0948
▁encontraron	-11.0948
▁numerosos	-11.0951
▁alhad	-11.0952
▁konosen	-11.0952
▁tecnika	-11.0954
▁finansiasion	-11.0956
▁bolso	-11.0959
▁sedro	-11.0964
▁pareció	-11.0964
tur	-11.0965
▁pedí	-11.0966
▁tuvites	-11.0966
▁ong	-11.0967
▁artikolos	-11.097
▁preparar	-11.097
▁déjeme	-11.0971
▁minas	-11.0974
▁pensiones	-11.0974
ok	-11.0975
▁plaj	-11.0989
bre	-11.099
▁madres	-11.0991
▁telegrama	-11.0994
▁empesijo	-11.0995
▁lenguaje	-11.0996
▁walter	-11.1
▁disposision	-11.1003
toria	-11.1005
▁hacerme	-11.1007
▁podré	-11.101
▁apropiado	-11.1011
ró	-11.1016
▁leon	-11.1019
▁labor	-11.1019
▁agencia	-11.1021
▁azerme	-11.1027
▁frontieras	-11.1029
▁lengaje	-11.103
▁aburrido	-11.1031
▁vesinos	-11.1032
▁límites	-11.1033
▁resistir	-11.1039
▁barra	-11.1041
way	-11.1041
▁esperta	-11.1043
▁prevension	-11.1046
▁princesa	-11.1048
▁interno	-11.1049
▁pinta	-11.106
▁salón	-11.1061
▁peces	-11.1061
▁perdió	-11.1062
arse	-11.1065
▁ejekusion	-11.1065
▁utilizado	-11.1067
▁entrenador	-11.1069
▁errores	-11.107
▁kanal	-11.1072
▁estash	-11.1072
▁paisaje	-11.1077
▁podrán	-11.1078
▁flor	-11.108
▁siego	-11.1082
▁sois	-11.1088
sko	-11.109
▁numerosas	-11.1097
▁agradesko	-11.1097
cuántos	-11.11
▁computadora	-11.1106
▁correo	-11.1109
▁koledjio	-11.1109
▁bu	-11.1111
▁bestia	-11.1112
▁finansieros	-11.1112
▁ejecución	-11.1113
▁famoso	-11.1114
▁sosio	-11.1116
▁llegué	-11.1118
▁sali	-11.1121
ez	-11.1124
▁océano	-11.1125
▁mínimo	-11.1125
▁mostran	-11.1135
▁inklue	-11.1138
▁americano	-11.1142
▁desa	-11.1143
▁produze	-11.1143
▁cadena	-11.1146
▁guevos	-11.1153
▁canal	-11.1159
▁pagos	-11.1162
▁resiente	-11.1162
▁ladron	-11.1164
▁sano	-11.1166
▁fraude	-11.1168
▁may	-11.1168
▁estable	-11.117
▁adhesión	-11.117
▁faltaes	-11.1171
▁lanzamiento	-11.1171
lina	-11.1172
▁fría	-11.1172
▁konde	-11.1175
▁playa	-11.1175
▁intervenir	-11.1178
▁komputadora	-11.1179
▁cayate	-11.1181
▁robot	-11.1185
▁olvidi	-11.1186
▁ricos	-11.1187
▁max	-11.1189
cal	-11.1191
▁vende	-11.1194
▁grano	-11.1195
▁averigar	-11.1196
▁herramientas	-11.1198
▁parto	-11.1198
▁maks	-11.12
▁tonta	-11.1202
▁siguo	-11.1202
▁normales	-11.1204
▁rose	-11.1206
▁tokio	-11.1207
▁financiación	-11.1207
▁wilson	-11.1207
▁subrayar	-11.1209
▁sesión	-11.1215
▁investigaciones	-11.1218
▁famozo	-11.1219
ías	-11.122
▁financiera	-11.1221
▁multi	-11.1222
▁considero	-11.1223
▁mantiene	-11.1224
▁definision	-11.1227
▁financieros	-11.1227
▁comisaria	-11.1233
▁korresponde	-11.1237
▁shi	-11.1238
▁kol	-11.1239
▁senyoras	-11.1242
▁berlin	-11.1244
▁xx	-11.1247
▁efikaz	-11.1251
▁gira	-11.1252
▁karas	-11.1254
▁martes	-11.1254
▁presta	-11.1256
▁regional	-11.1257
▁anne	-11.1258
ii	-11.1259
▁jackson	-11.1268
▁intra	-11.1268
▁redjional	-11.1269
▁balas	-11.127
▁mon	-11.127
▁oso	-11.127
▁konosemos	-11.1274
▁suba	-11.1275
▁éstas	-11.1275
▁habló	-11.1276
có	-11.1277
▁sta	-11.1278
▁yevaron	-11.1282
cio	-11.1284
▁convirtió	-11.1286
▁sesion	-11.1287
▁ju	-11.1289
▁arto	-11.1289
hi	-11.129
▁grito	-11.1292
▁puedian	-11.1295
▁eficaz	-11.1299
▁gobernador	-11.1299
▁universidades	-11.1299
siempre	-11.1299
▁movilidad	-11.1303
▁motores	-11.1304
▁impuesto	-11.1305
▁kadena	-11.1305
▁serás	-11.1305
ville	-11.1306
▁definición	-11.1307
▁miyas	-11.1309
▁muere	-11.131
▁erramientas	-11.1311
▁sake	-11.1311
▁eskrito	-11.1311
▁temer	-11.1311
sal	-11.1311
▁públicos	-11.1312
▁alcohol	-11.1312
▁quiso	-11.1319
▁lluvia	-11.1321
▁ahi	-11.1324
▁integrasion	-11.1324
▁deskansar	-11.133
▁liberal	-11.1332
▁finansiera	-11.1333
▁pedazos	-11.1334
▁alkalde	-11.1334
▁alcalde	-11.1334
▁posibles	-11.1336
▁cuento	-11.1337
▁medicamentos	-11.134
▁débil	-11.1344
▁integración	-11.135
▁podían	-11.1352
▁fenomeno	-11.1353
vitesh	-11.1357
▁término	-11.1358
▁transportes	-11.1363
▁primaria	-11.1365
▁consiguiente	-11.1372
▁mure	-11.1374
▁vuelvo	-11.1376
ú	-11.1378
▁suiza	-11.138
▁richadr	-11.1382
▁robado	-11.1384
▁liga	-11.139
▁revistas	-11.1392
▁estrecha	-11.1395
▁ekspertos	-11.1403
▁preguntó	-11.1404
▁papi	-11.1406
▁resumen	-11.1408
▁satisfecho	-11.141
▁umor	-11.141
nto	-11.1411
▁millas	-11.1413
▁ph	-11.1415
▁date	-11.1416
▁escuchado	-11.142
sito	-11.1425
▁harán	-11.1427
▁realizó	-11.1431
▁empecé	-11.1435
nio	-11.1441
▁dole	-11.1443
▁huevos	-11.1445
▁patrón	-11.1452
medioambientales	-11.1452
▁igualmente	-11.1452
▁alkol	-11.1454
▁leído	-11.1459
▁ber	-11.1459
▁explica	-11.146
gu	-11.1462
▁rol	-11.1463
▁djira	-11.1466
▁aparentemente	-11.1469
▁kolay	-11.1473
▁konsegyo	-11.1473
▁posivles	-11.1477
dis	-11.1477
▁decirles	-11.1478
▁absoluta	-11.1481
ut	-11.1484
▁agarra	-11.1485
▁jurnals	-11.1486
nsia	-11.1487
▁kede	-11.1488
▁sencillo	-11.1488
▁colombia	-11.1492
▁numeros	-11.1497
▁spock	-11.15
▁conocen	-11.15
▁kilos	-11.1501
▁muestran	-11.1502
▁vamonos	-11.1504
▁pantalon	-11.1505
▁despertar	-11.1505
▁manifiesto	-11.1505
▁justamente	-11.1508
▁agrada	-11.151
▁guía	-11.1513
▁chan	-11.1514
▁presupuestaria	-11.1515
▁obras	-11.1516
▁permitan	-11.1516
▁oral	-11.1519
iendo	-11.152
▁limitar	-11.1521
▁formal	-11.1524
▁señales	-11.1526
▁akompanyar	-11.1527
▁gi	-11.1528
ura	-11.1529
nie	-11.1529
▁expertos	-11.153
▁defensor	-11.1532
▁eksaminar	-11.1532
▁investigasiones	-11.1535
▁ultimas	-11.1541
▁estructuras	-11.1542
▁kontribuir	-11.1542
▁registro	-11.1543
▁volando	-11.1547
▁mencionar	-11.1549
▁ladrón	-11.1549
▁determinado	-11.1553
▁leo	-11.1555
▁daría	-11.1555
▁sufisientes	-11.1556
▁descansar	-11.1558
▁delitos	-11.156
▁fiel	-11.1562
▁nasyo	-11.1565
▁miras	-11.1568
▁movimiena	-11.1571
▁konkluzion	-11.1575
▁sh	-11.1576
▁meldi	-11.1578
▁realizados	-11.158
▁extranya	-11.1581
▁pierna	-11.1581
▁kolombia	-11.1585
▁enviado	-11.1587
▁alianza	-11.1592
▁recompensa	-11.1593
aba	-11.1593
▁señoras	-11.1595
eros	-11.1595
▁presentan	-11.1597
▁proprietario	-11.1598
▁tecnologias	-11.1598
▁asentar	-11.16
▁deshas	-11.1603
lang	-11.1606
▁llevará	-11.1607
▁pesado	-11.1608
▁prevención	-11.1609
▁periódicos	-11.161
▁basikamente	-11.161
▁arruinar	-11.1612
▁desempleo	-11.1614
▁vih	-11.1617
▁irán	-11.1619
▁oscuridad	-11.162
▁elevado	-11.1626
dar	-11.1631
▁hablan	-11.1631
▁últimas	-11.1634
▁difisiles	-11.1635
rro	-11.1635
▁korrekta	-11.1636
▁resien	-11.1639
▁únicamente	-11.1639
▁mortal	-11.1641
▁inkluyendo	-11.1642
▁tecnologías	-11.1646
▁indika	-11.1646
▁igalmente	-11.1648
▁ancho	-11.1652
▁ayegamos	-11.1655
▁conclusión	-11.1658
▁segimiento	-11.1658
▁incluyendo	-11.166
▁solusiones	-11.166
▁declarar	-11.1663
▁fábrica	-11.1664
▁periodistas	-11.1664
▁niñas	-11.1665
▁matarlo	-11.1668
▁levanta	-11.1668
▁examinar	-11.1669
mé	-11.1669
▁sección	-11.1669
▁tablo	-11.167
▁estatuto	-11.1675
▁richard	-11.1675
ak	-11.1676
▁prezentan	-11.1677
▁rendimiento	-11.1681
▁sensiyo	-11.1681
▁usado	-11.1681
▁transmitir	-11.1682
▁creado	-11.1683
▁legales	-11.1684
cen	-11.1685
▁jake	-11.1689
▁conocemos	-11.1691
▁matt	-11.1692
▁emperador	-11.1696
▁puse	-11.1697
▁biblioteca	-11.1697
▁paquete	-11.1697
▁pacha	-11.1698
▁konstitusion	-11.1699
ario	-11.17
▁komunitaria	-11.1703
▁benefisio	-11.1703
▁unikamente	-11.1703
▁montanyas	-11.1705
▁lideres	-11.1705
▁abiertos	-11.1708
▁eksplikasion	-11.171
▁biblioteka	-11.1719
▁liderazgo	-11.1719
▁fundamento	-11.1721
ment	-11.1724
▁google	-11.1724
▁bush	-11.1725
nta	-11.1725
▁aniyo	-11.1726
▁alternativas	-11.1727
▁cerdo	-11.1727
▁diles	-11.1728
▁avlava	-11.173
▁soluciones	-11.1731
▁español	-11.1732
▁coge	-11.1733
▁meterme	-11.1739
▁serkano	-11.174
▁actuales	-11.1741
▁botas	-11.1743
▁hazina	-11.1743
▁siéntate	-11.1745
▁feo	-11.1745
▁debió	-11.1752
▁cal	-11.1752
▁merko	-11.1752
▁saludar	-11.1753
▁dígale	-11.1755
▁situaciones	-11.1758
▁ducha	-11.176
komo	-11.1764
▁pueblos	-11.1766
..."""""""	-11.1768
▁disminuir	-11.1769
▁plazyo	-11.1774
▁comunitaria	-11.1775
▁entenderlo	-11.1778
▁latina	-11.1784
▁detenido	-11.1786
▁transparensia	-11.1791
line	-11.1792
▁votos	-11.1792
▁artista	-11.1793
▁regalos	-11.1794
▁mensionar	-11.1797
▁monedas	-11.1797
▁aves	-11.1798
▁maestra	-11.1798
pon	-11.1799
▁yevamos	-11.1802
▁hiciera	-11.1803
▁sinyales	-11.1804
tch	-11.1807
íamos	-11.1808
▁enfermeras	-11.1813
▁viktima	-11.1814
▁anunsio	-11.1815
▁inglezes	-11.1821
▁afrontar	-11.1825
▁aquello	-11.1825
▁partikularmente	-11.1825
▁inkremento	-11.183
▁aktuales	-11.1831
▁bola	-11.1831
▁letras	-11.1831
▁dodje	-11.1833
▁portugal	-11.1835
▁ekonomikas	-11.1837
sis	-11.1839
▁previa	-11.1841
▁mate	-11.1842
▁ruedas	-11.1846
▁dick	-11.1846
field	-11.1847
▁akeyo	-11.1849
▁llegamos	-11.1849
tikos	-11.185
▁governador	-11.1852
▁gar	-11.1854
▁rastro	-11.1855
tivas	-11.1855
▁vean	-11.1856
▁lástima	-11.1858
▁seguimiento	-11.1858
▁vaygamos	-11.1858
▁terminó	-11.1863
▁difíciles	-11.1864
▁pri	-11.1867
▁despierta	-11.187
▁demandas	-11.1871
▁próximos	-11.1871
▁fresko	-11.1871
▁imperador	-11.1871
▁género	-11.1871
rie	-11.1873
▁fácilmente	-11.1873
▁bri	-11.1874
▁pakete	-11.1877
▁siertamente	-11.188
▁ridikulo	-11.188
▁miserable	-11.188
▁ann	-11.1883
▁relacionados	-11.1884
tis	-11.1885
▁suficientes	-11.1885
▁puevlos	-11.1885
▁yamava	-11.1886
▁alevantar	-11.1889
▁transparencia	-11.1892
▁lodr	-11.19
▁perdí	-11.1901
▁charla	-11.1902
▁reciente	-11.1902
▁metes	-11.1909
▁dispositivos	-11.1909
▁teknisyen	-11.1911
▁ambiental	-11.1913
▁atakar	-11.1913
▁kulo	-11.1914
nza	-11.1914
▁dirá	-11.1914
▁sesiones	-11.1918
cker	-11.1918
▁veygan	-11.1919
net	-11.1919
▁correcta	-11.1925
▁ausencia	-11.1925
kri	-11.1926
▁llevamos	-11.1929
▁producir	-11.193
▁metyeron	-11.1931
▁debashos	-11.1932
▁pop	-11.1933
izada	-11.1936
dado	-11.1938
están	-11.1939
eo	-11.1942
▁representar	-11.1942
▁rayo	-11.1948
▁hablaba	-11.1948
▁números	-11.195
▁resultar	-11.1951
▁cortar	-11.1951
▁viviendo	-11.1954
▁situasiones	-11.196
▁esperas	-11.1961
▁godro	-11.1961
▁intenti	-11.1963
▁cero	-11.1971
▁pintar	-11.1974
▁gu	-11.1976
▁preocupe	-11.1977
▁akeyas	-11.1978
▁demuestra	-11.198
▁negativa	-11.1981
▁funsionamiento	-11.1983
▁montañas	-11.1985
▁cesar	-11.1985
▁lord	-11.1989
▁costo	-11.1989
▁simon	-11.199
▁dezierto	-11.1993
▁trabajado	-11.1995
▁you	-11.1998
▁opina	-11.1999
▁variable	-11.2002
▁pen	-11.2003
▁fotografia	-11.2003
▁enfirmeria	-11.2005
▁vayamos	-11.2005
▁ferido	-11.2007
▁diputado	-11.2007
▁utilizasion	-11.2007
▁dueño	-11.2008
▁culo	-11.2008
▁ciertamente	-11.2009
▁"""(	-11.201
▁preokupe	-11.2013
▁bart	-11.2014
▁multitud	-11.2016
▁fútbol	-11.2016
▁explicación	-11.2017
▁contento	-11.2018
▁funcionamiento	-11.2023
▁públicas	-11.2026
▁económicas	-11.2027
▁excelencia	-11.2027
▁obtenidos	-11.2027
lan	-11.2029
▁senador	-11.203
pp	-11.2031
▁kanada	-11.2031
▁esfera	-11.2031
▁pata	-11.2031
▁respekta	-11.2033
▁utilización	-11.204
▁kontinuasion	-11.2041
▁sentavos	-11.2042
▁llamaba	-11.2042
▁francesa	-11.2044
▁básicamente	-11.2046
▁doce	-11.2046
▁centavos	-11.2048
▁boy	-11.2048
▁bivyendo	-11.205
▁fijar	-11.2051
▁kamion	-11.2053
▁ambezi	-11.2054
▁ross	-11.2054
▁ausensia	-11.2056
▁demandava	-11.2057
▁relasionados	-11.2058
▁determinados	-11.206
▁estudiante	-11.2061
▁particularmente	-11.2062
▁trajo	-11.2063
▁konsiste	-11.2063
▁estudiando	-11.2066
▁selo	-11.2071
▁consiste	-11.2074
▁disculpa	-11.208
▁eje	-11.2084
ol	-11.2086
▁sero	-11.2087
▁anillo	-11.2089
▁estarás	-11.2089
▁eksselensia	-11.209
ador	-11.2095
▁mati	-11.2099
▁ordenador	-11.21
▁iban	-11.21
▁kodje	-11.2104
▁avlan	-11.2108
▁maraviya	-11.2112
▁dava	-11.2116
▁sospechoso	-11.2117
▁reacción	-11.2119
▁perfecta	-11.2121
▁polonia	-11.2125
▁nu	-11.2125
▁aktualidad	-11.2127
▁guapa	-11.2129
algo	-11.213
lia	-11.213
▁bushko	-11.2132
▁lanza	-11.2133
▁artisto	-11.2135
▁archivos	-11.2135
▁respecta	-11.2136
rías	-11.2138
▁estomago	-11.2139
▁atrapado	-11.2144
▁daba	-11.2144
mbo	-11.2147
▁importe	-11.2148
▁recién	-11.2148
▁paresido	-11.215
ncia	-11.2152
▁utiliza	-11.2153
▁enfermería	-11.2154
▁eksperimento	-11.2165
▁aprendido	-11.2171
▁avran	-11.2172
▁infraestructura	-11.2177
espera	-11.2179
▁esperan	-11.2181
▁científica	-11.2182
▁otobus	-11.2182
▁enseñar	-11.2184
ette	-11.2185
▁pagado	-11.2188
▁autobús	-11.2188
▁konverte	-11.2189
▁separar	-11.2192
▁hacerte	-11.2193
▁cae	-11.2194
▁apostar	-11.2195
▁char	-11.2198
▁uvyeran	-11.2203
▁griego	-11.2205
▁elegido	-11.2205
▁moderno	-11.2206
▁significado	-11.2209
▁invita	-11.2213
▁ned	-11.2216
▁embarazada	-11.2217
▁platos	-11.2218
▁continuación	-11.2218
▁ayegan	-11.2219
▁dezeyaria	-11.2222
▁siguyendo	-11.2223
▁restaurante	-11.2233
▁ab	-11.2237
▁risa	-11.2237
▁independientes	-11.2239
▁lavoran	-11.2239
▁beneficio	-11.224
▁solitario	-11.224
stra	-11.2242
▁golpes	-11.2243
▁ultimamente	-11.2243
▁menores	-11.2243
rios	-11.2244
▁kuchiyo	-11.2244
▁merki	-11.2248
▁sienta	-11.2248
▁entiendes	-11.2255
▁sientifika	-11.2257
▁avansar	-11.2258
gracias	-11.2261
▁mekical	-11.2264
▁ze	-11.2265
▁savias	-11.2271
▁albert	-11.2274
tura	-11.2274
▁médica	-11.2275
▁abodrar	-11.2276
▁convierte	-11.2276
▁bivimos	-11.228
▁elaborar	-11.2281
▁turno	-11.2292
▁eroe	-11.2293
▁sumamente	-11.2294
▁constitución	-11.2296
▁abandono	-11.2299
▁pares	-11.2302
▁bovedaas	-11.2311
seguro	-11.2312
▁pozo	-11.2317
▁propozo	-11.2322
▁abitantes	-11.2324
▁abordar	-11.2326
▁comprendo	-11.2331
▁directo	-11.2332
▁grasia	-11.2336
▁fuga	-11.2342
▁actualidad	-11.2342
▁gracia	-11.2343
▁replikar	-11.2345
▁dimos	-11.2349
▁inkluir	-11.2351
▁exteriores	-11.2352
▁esquina	-11.2352
▁vacío	-11.2352
▁habitantes	-11.236
▁ajenos	-11.2362
▁koste	-11.2365
▁mor	-11.2369
sta	-11.237
▁retiro	-11.237
▁golf	-11.2374
▁vuestras	-11.2375
▁funciones	-11.2381
▁tornando	-11.2382
▁asesinado	-11.2385
▁fenómeno	-11.2388
▁conflictos	-11.2392
▁desierto	-11.2393
▁piesas	-11.2399
ot	-11.2399
▁porsentaje	-11.24
▁ridículo	-11.2405
▁frakaso	-11.2406
▁clark	-11.2411
▁finansiero	-11.2411
▁desearía	-11.2412
▁preocupado	-11.2412
▁trabajan	-11.2413
torio	-11.2413
ers	-11.2413
▁poeta	-11.2418
▁hagamos	-11.2422
▁formula	-11.2425
▁restorante	-11.243
▁kuida	-11.2432
bro	-11.2432
val	-11.2432
▁chicago	-11.2433
▁koodrinasion	-11.2435
▁carro	-11.2436
▁muchacha	-11.2438
▁senyalar	-11.2439
▁decidió	-11.2441
▁aktiva	-11.2443
▁kontinuo	-11.2447
▁normativa	-11.2448
▁asperan	-11.2448
▁naves	-11.2448
▁dates	-11.2452
▁restos	-11.2453
▁desaparecido	-11.2454
▁suministro	-11.2457
▁siguimos	-11.2457
▁japonezo	-11.2459
▁dimension	-11.246
▁envió	-11.246
▁praktikamente	-11.2461
▁aquellas	-11.2462
▁continúa	-11.2463
▁llegan	-11.2464
▁idiotas	-11.2464
▁beve	-11.2466
▁despierto	-11.2466
▁album	-11.2467
▁konvenser	-11.2468
▁kanta	-11.247
mon	-11.2476
▁financiero	-11.2477
▁hecha	-11.2489
mb	-11.2493
▁señalar	-11.2494
▁ocupa	-11.2495
▁víctima	-11.2495
adr	-11.2498
▁tadrar	-11.2504
▁marko	-11.2506
▁secundaria	-11.2506
▁otan	-11.2506
▁página	-11.2507
sie	-11.2508
▁negros	-11.2508
▁bancos	-11.2511
▁phil	-11.2511
▁palestina	-11.2518
▁sueldo	-11.2521
▁estrukturas	-11.2522
▁eksteriores	-11.2523
▁tabako	-11.2531
ente	-11.2532
▁konfliktos	-11.2534
▁entendemos	-11.2537
▁am	-11.254
▁kong	-11.254
▁venía	-11.2541
▁contado	-11.2544
▁imadjino	-11.2548
▁altamente	-11.2551
▁tenerlo	-11.2553
▁dejen	-11.2554
▁duele	-11.2555
▁desharon	-11.256
▁plantea	-11.256
▁pib	-11.2562
▁agradeser	-11.2565
▁fonksiones	-11.2567
▁chu	-11.2568
▁toro	-11.2569
▁camión	-11.2572
▁pensó	-11.2572
▁guarda	-11.2573
▁vaziyo	-11.2574
aria	-11.2576
▁avanzar	-11.2577
▁pedrona	-11.2577
▁aliento	-11.2579
▁resivi	-11.2579
▁justa	-11.2581
▁llegará	-11.2589
▁biblia	-11.259
▁afortunadamente	-11.2591
▁líderes	-11.2592
▁objetos	-11.2593
▁coordinación	-11.2596
▁tim	-11.26
▁canta	-11.2602
▁cuchillo	-11.2605
▁abandonado	-11.2605
▁salario	-11.2608
▁objektos	-11.2608
▁empedir	-11.2609
▁regresa	-11.261
▁retirada	-11.261
▁despedir	-11.2611
nda	-11.2615
▁kontene	-11.2615
hace	-11.2616
▁extranjero	-11.2617
▁dieta	-11.2617
▁votado	-11.2617
▁gatos	-11.2619
▁estimados	-11.262
▁actuación	-11.262
▁daniel	-11.2624
desde	-11.2625
duc	-11.2626
▁chikago	-11.263
▁kra	-11.2631
▁konkluziones	-11.2633
▁preciosa	-11.2635
▁oscuro	-11.2635
aes	-11.2636
▁omc	-11.2637
▁andjelo	-11.2638
▁gustaba	-11.2646
▁salta	-11.2646
▁adoptado	-11.2648
▁llamaré	-11.2649
▁kosovo	-11.2651
▁necesarias	-11.2656
▁respaldo	-11.2657
▁konsegi	-11.2658
▁tratamientos	-11.2659
▁ponen	-11.266
ivo	-11.2662
▁diskusion	-11.2663
mme	-11.2665
▁komersiales	-11.2667
▁asepto	-11.2669
▁billy	-11.267
▁vivido	-11.2673
▁neuro	-11.2675
▁quince	-11.2676
▁salvajes	-11.2678
▁lucy	-11.2681
▁konsulta	-11.2682
▁prácticamente	-11.2684
▁amado	-11.2684
▁minores	-11.2686
▁máxima	-11.2693
▁héroe	-11.2694
▁ron	-11.2695
▁llegaron	-11.2695
▁nación	-11.2696
▁ángeles	-11.2698
▁amenazas	-11.2698
▁sede	-11.2698
▁nació	-11.2702
▁pasear	-11.2705
▁demandamos	-11.2709
▁jugadores	-11.2711
▁estadounidenses	-11.2711
▁sepan	-11.2711
▁plazia	-11.2713
▁aktuasion	-11.2713
▁akodre	-11.2714
bel	-11.2715
talks	-11.2717
▁sufre	-11.2723
▁porcentaje	-11.2727
▁desaparecyo	-11.273
▁avanse	-11.2731
▁espasial	-11.2734
▁conclusiones	-11.2736
▁kayentura	-11.2736
▁dejas	-11.2736
▁ensenyo	-11.2736
stru	-11.274
kin	-11.2744
▁eficacia	-11.2748
▁agamos	-11.2749
▁observasion	-11.2751
▁chino	-11.2753
▁felisitar	-11.2754
▁komparasion	-11.2755
▁lio	-11.2755
▁parientes	-11.2756
mina	-11.2762
pen	-11.2763
▁puedido	-11.2765
▁felicitar	-11.2767
▁replika	-11.2768
▁tendensia	-11.277
▁baron	-11.2771
▁perdona	-11.2771
▁entendi	-11.2773
▁valle	-11.2773
▁positiva	-11.2773
▁adivina	-11.2778
▁tabaco	-11.2779
▁iraq	-11.2779
ue	-11.2781
▁lecsion	-11.2782
▁inmediata	-11.2786
▁suseder	-11.2788
▁bobby	-11.2798
▁largos	-11.2799
▁muchachoa	-11.2804
▁agujero	-11.2807
estamos	-11.2811
sol	-11.2811
▁pescado	-11.2813
▁djuga	-11.2813
▁variedad	-11.2814
▁palo	-11.2822
▁discusión	-11.2822
fr	-11.2823
▁insistir	-11.2828
▁afirmar	-11.2828
▁resulto	-11.2828
cito	-11.2831
▁alimento	-11.2832
▁livra	-11.2832
▁vias	-11.2835
▁ekspozision	-11.2836
▁travo	-11.2836
▁bondad	-11.2838
▁estómago	-11.284
rian	-11.2841
▁deshen	-11.2846
muy	-11.2849
▁encantado	-11.285
ring	-11.2851
▁conformidad	-11.2853
▁ekstraodrinaria	-11.2853
▁matando	-11.2854
idas	-11.2856
zu	-11.2857
▁kim	-11.2859
▁forsar	-11.2861
▁rekompensa	-11.2861
▁consulta	-11.2861
▁tortura	-11.2863
▁quedará	-11.2865
▁logra	-11.2868
▁agjero	-11.2869
▁tornan	-11.287
▁presentó	-11.2872
▁guadrar	-11.2872
▁comerciales	-11.2876
▁incluir	-11.2877
▁tonterías	-11.2879
▁pendiente	-11.2888
▁bankos	-11.2889
▁ole	-11.2891
▁kate	-11.2893
▁ur	-11.2894
tivos	-11.2897
▁personajes	-11.2897
▁limitado	-11.2902
▁lección	-11.2903
▁muryeron	-11.2909
▁giador	-11.2909
▁sostener	-11.2912
▁analisar	-11.2912
▁alan	-11.2916
▁urdjente	-11.2917
▁ciertos	-11.2917
▁cerrado	-11.292
▁gozar	-11.2921
▁division	-11.2922
▁makinas	-11.2925
▁informa	-11.2932
▁viuda	-11.2934
pan	-11.2935
sus	-11.2939
▁refudjiados	-11.2939
▁intensidad	-11.294
▁ambientales	-11.294
también	-11.2944
▁funcionar	-11.2945
▁vinyeron	-11.2948
ny	-11.2948
▁tendencia	-11.2949
▁pensarlo	-11.2949
▁kuriozo	-11.2964
▁inisiativas	-11.2966
▁quede	-11.2966
tero	-11.2972
▁urgente	-11.2974
▁centros	-11.2974
▁hayas	-11.2974
▁sales	-11.2976
ces	-11.2976
cl	-11.2979
▁danyos	-11.2982
▁pasé	-11.2982
▁inmigrasion	-11.2984
▁trenta	-11.2984
▁piense	-11.2985
▁máquinas	-11.299
▁viejas	-11.2992
▁pega	-11.2994
▁presiosa	-11.2996
▁vinites	-11.2997
▁yami	-11.2999
▁igales	-11.3001
▁test	-11.3002
▁salva	-11.3002
▁mover	-11.3005
▁operaciones	-11.301
▁nasyon	-11.301
▁realizada	-11.3011
viye	-11.3013
▁vivos	-11.3022
gas	-11.3024
▁profitar	-11.3025
▁kompanyias	-11.3025
▁climatiko	-11.3027
▁quijote	-11.3028
▁progresos	-11.3028
▁iran	-11.3028
▁espesiales	-11.303
▁blancos	-11.3031
▁empleados	-11.3031
▁celebrar	-11.3033
▁imagino	-11.3034
▁vaye	-11.3036
dyeron	-11.3036
▁vivimos	-11.3038
▁analizar	-11.3039
▁holmes	-11.304
▁rusa	-11.3042
▁climático	-11.3047
▁enkantado	-11.3047
▁machs	-11.3049
▁fisiko	-11.3053
▁lingua	-11.3053
▁fama	-11.3055
▁saca	-11.3057
▁konformidad	-11.3059
▁locos	-11.3059
▁kaida	-11.3061
▁entradas	-11.3062
▁yamamos	-11.3066
▁durar	-11.3068
▁contiene	-11.307
▁especiales	-11.3073
▁big	-11.3074
▁aseguro	-11.3078
ting	-11.3078
ándome	-11.3083
▁fiebre	-11.3084
▁vronsky	-11.3084
▁francisco	-11.3085
osa	-11.3088
▁iguales	-11.3088
▁selecsion	-11.3089
▁sentros	-11.3091
▁prodi	-11.3091
▁lewis	-11.3092
▁bivia	-11.3092
▁activa	-11.3097
▁bud	-11.3098
▁kreser	-11.3099
▁cruzar	-11.3099
▁refugiados	-11.3104
▁paliza	-11.3105
▁decidí	-11.3105
▁puerpos	-11.3106
▁fr	-11.3106
▁efikasia	-11.311
▁recibió	-11.311
▁aprovechar	-11.3113
▁envía	-11.3114
▁inmigración	-11.3116
▁pantaya	-11.3116
▁convertirse	-11.3118
ensia	-11.3121
▁tubo	-11.3125
▁espacial	-11.3126
▁monta	-11.313
▁eksperiensias	-11.3131
▁rea	-11.3135
▁orgyoso	-11.3136
▁intentan	-11.3137
▁asistente	-11.3137
rían	-11.3138
▁prezentes	-11.3138
▁operasiones	-11.314
▁aygas	-11.314
voy	-11.3141
▁onda	-11.3144
▁saludable	-11.3144
▁pierre	-11.3145
▁golpea	-11.3146
gre	-11.3146
▁cuida	-11.3147
▁encantadora	-11.315
ham	-11.3152
▁enkantadora	-11.3153
▁mirad	-11.3158
▁rurales	-11.3158
▁deskanso	-11.3161
▁comparación	-11.3161
▁arresto	-11.3162
▁ampliamente	-11.3162
▁indise	-11.3165
▁americanos	-11.3167
claro	-11.3169
▁wiy	-11.317
▁declaro	-11.3172
▁fruta	-11.3175
▁observación	-11.3176
▁directa	-11.3178
▁soporte	-11.3181
▁imadjinasion	-11.3183
▁usan	-11.3187
▁aviamos	-11.3192
▁amerikanos	-11.3192
▁olmes	-11.3199
▁cho	-11.3199
▁materias	-11.32
tia	-11.3203
▁andar	-11.3207
▁impulsar	-11.3209
▁siertos	-11.3209
itas	-11.3211
disho	-11.3213
▁utilizados	-11.3214
▁inevitable	-11.3215
▁apuestas	-11.3216
▁partidos	-11.3218
▁vol	-11.322
▁favorable	-11.322
▁limita	-11.322
▁iniciativas	-11.3224
▁vengas	-11.3226
▁llamamos	-11.3226
▁contribuir	-11.3226
▁deshan	-11.323
▁toque	-11.3231
▁caído	-11.3232
▁aprobado	-11.3233
▁actor	-11.3236
▁tenesh	-11.3238
▁atreve	-11.3241
▁lokos	-11.3243
▁sinsero	-11.3249
▁intentamos	-11.325
▁incremento	-11.3251
▁religión	-11.3251
▁bebido	-11.3253
▁robots	-11.3256
▁rica	-11.3258
▁wi	-11.326
▁pegar	-11.326
▁podrás	-11.3261
estas	-11.3262
▁sufrido	-11.3264
▁vienes	-11.3266
▁físico	-11.3272
▁granja	-11.3279
▁audiensia	-11.3283
▁kullanea	-11.3283
▁empesamos	-11.3285
▁fig	-11.3289
▁enkargar	-11.3289
▁treinta	-11.3289
▁presentes	-11.3291
▁deshates	-11.3292
▁pedirle	-11.3292
▁siguiendo	-11.3293
▁empezamos	-11.3295
▁kinze	-11.3296
▁almirante	-11.3297
▁avances	-11.3299
▁condena	-11.3301
▁inicial	-11.3302
▁miran	-11.3303
cre	-11.331
▁uzan	-11.3311
▁inisial	-11.3315
▁suyos	-11.3315
▁lye	-11.3316
ico	-11.332
▁marta	-11.3324
▁aerea	-11.3324
▁transformar	-11.3327
▁rick	-11.3328
wey	-11.333
▁shabat	-11.3331
▁renta	-11.3332
▁daños	-11.3334
▁añadir	-11.3335
▁protesta	-11.3336
▁museo	-11.3337
▁asesinatos	-11.3338
▁sobra	-11.3339
▁pregunté	-11.334
▁dejan	-11.3341
▁cuerpos	-11.3342
▁gra	-11.3344
▁margaret	-11.3344
▁karo	-11.3347
▁presento	-11.3349
mann	-11.3352
▁síntomas	-11.3353
cé	-11.3353
kal	-11.3355
▁trezoro	-11.3357
illa	-11.3359
▁consumidor	-11.3359
▁rota	-11.336
▁kerian	-11.3366
▁caída	-11.3366
▁tomé	-11.3366
tada	-11.3367
▁traiga	-11.3369
▁firmado	-11.3372
▁disposiciones	-11.3374
▁experimento	-11.3376
▁trataba	-11.3379
cer	-11.338
▁deshado	-11.3381
▁pasaba	-11.3382
▁abuso	-11.3384
▁berlín	-11.3387
▁rueda	-11.339
▁sintomas	-11.3395
▁compañías	-11.3395
▁prestado	-11.3399
▁aktor	-11.34
▁vapoos	-11.34
▁chiflik	-11.3401
▁desarrollado	-11.3402
dimos	-11.3406
▁okupa	-11.3407
▁densidad	-11.3407
▁kresiente	-11.3407
▁seguimos	-11.3408
▁islas	-11.3412
▁atacar	-11.3412
▁sekretos	-11.3418
▁verdaderamente	-11.3419
▁fransisko	-11.3427
▁ganador	-11.3427
▁piedad	-11.3427
▁rutina	-11.343
▁anyadir	-11.3433
op	-11.3433
▁relijion	-11.3434
▁araba	-11.3435
▁kinezo	-11.3436
▁aldikera	-11.3436
▁división	-11.3439
▁barbara	-11.3442
▁conocida	-11.3443
▁bienes	-11.3444
▁olvidé	-11.3446
▁sonyar	-11.3448
▁formular	-11.3458
▁gresia	-11.3459
▁agenda	-11.3459
▁efectivamente	-11.3461
▁crítica	-11.3462
▁asero	-11.3463
▁planteamiento	-11.3463
▁alfa	-11.3465
▁pantalones	-11.3466
▁futuras	-11.3467
xi	-11.3467
▁experiencias	-11.3468
▁orgulloso	-11.347
▁pareses	-11.347
▁avanses	-11.3472
▁descanso	-11.3472
▁fea	-11.3472
▁king	-11.3474
tado	-11.3477
▁vedraderamente	-11.3478
▁pongo	-11.3478
ller	-11.348
cierto	-11.3482
▁costumbre	-11.3482
▁avance	-11.3483
▁pareces	-11.3484
▁creciente	-11.3485
▁konvertirse	-11.3486
nder	-11.3487
▁kijote	-11.349
ben	-11.3492
ei	-11.3493
▁parada	-11.3495
▁pez	-11.3495
▁tornaron	-11.3496
kre	-11.3499
▁verán	-11.35
▁fbi	-11.3507
▁vivía	-11.3507
▁disposisiones	-11.3507
▁sábado	-11.3509
▁pozitivos	-11.3509
▁enojado	-11.3509
▁dudas	-11.351
▁digno	-11.3513
▁topado	-11.3519
▁artes	-11.3519
▁imbesil	-11.352
▁planetas	-11.352
▁polo	-11.3522
▁supyera	-11.3523
▁tirado	-11.3524
▁notar	-11.3525
▁audiencia	-11.3528
▁parado	-11.3529
ini	-11.3529
▁tornen	-11.3531
▁temprana	-11.3539
▁dishera	-11.3544
▁ic	-11.3546
▁consigo	-11.3549
▁jenny	-11.3552
▁annie	-11.3552
▁konsentrasion	-11.3553
ikos	-11.3556
▁criminal	-11.3559
▁"""¡	-11.356
▁barcos	-11.3561
ning	-11.3564
▁aportar	-11.3565
▁aliados	-11.3568
▁revela	-11.3568
▁imaginación	-11.3572
▁últimamente	-11.3573
▁komplikasiones	-11.3574
▁mancha	-11.3575
▁fotografía	-11.3576
ale	-11.3578
▁djuzgoes	-11.3581
▁hubieran	-11.3584
▁demostro	-11.3585
▁pesa	-11.3586
▁labios	-11.359
ica	-11.3594
▁detective	-11.3595
▁campamento	-11.3598
▁bur	-11.3599
mm	-11.3599
▁agrícola	-11.3602
stro	-11.3607
▁animo	-11.3609
▁enkuentro	-11.3609
▁estatales	-11.361
▁tripulasion	-11.3611
▁asalto	-11.3611
▁actores	-11.3612
▁viena	-11.3614
▁dimensión	-11.3618
▁sensores	-11.362
▁estáis	-11.3623
▁presentasion	-11.3629
▁representasion	-11.3634
▁relativos	-11.3634
▁británico	-11.3636
▁tornes	-11.3642
▁sentados	-11.3643
▁tenéis	-11.3645
▁ayudarte	-11.3646
▁capa	-11.3648
▁futuros	-11.3657
▁participantes	-11.3657
▁tratava	-11.3659
▁tesoro	-11.3663
▁vieron	-11.3665
chu	-11.3665
▁faya	-11.367
▁idioma	-11.367
▁empiegados	-11.367
▁armado	-11.3671
▁kaveyo	-11.3672
▁devi	-11.3672
▁fatal	-11.3674
safortunadamente	-11.3678
▁efektivamente	-11.368
▁debatir	-11.3681
ible	-11.3681
▁eu	-11.3682
▁laborales	-11.3685
▁olor	-11.3691
rita	-11.3692
▁azúcar	-11.3695
▁tempesta	-11.3696
▁bel	-11.3698
▁potencia	-11.3699
▁voluntarios	-11.3702
▁ángel	-11.3703
▁avias	-11.3704
▁konsumidor	-11.3709
▁poderosa	-11.371
▁combustible	-11.3711
▁cabello	-11.3711
▁lógica	-11.3713
▁occidental	-11.3713
▁cruz	-11.3715
▁aktores	-11.3719
▁vías	-11.3721
▁organizado	-11.3721
hasta	-11.3724
▁deshando	-11.3724
iva	-11.3727
yi	-11.3728
▁frase	-11.3728
▁konstante	-11.3728
▁andjeles	-11.373
▁falla	-11.3731
▁entran	-11.3733
▁poezia	-11.3738
▁rifle	-11.3738
▁pratiko	-11.3738
▁preferaria	-11.3738
▁petision	-11.3741
▁hablé	-11.3746
▁concentración	-11.3746
▁eric	-11.3749
▁arreglado	-11.3751
▁demandan	-11.3751
▁komplejo	-11.3752
uno	-11.3755
toma	-11.3755
▁presentadas	-11.3756
▁dioses	-11.3756
▁bay	-11.3757
▁notable	-11.3758
▁fantástico	-11.3759
▁kriminal	-11.3761
▁arterial	-11.3762
▁amigas	-11.3762
▁ali	-11.3764
▁kita	-11.3764
▁brindar	-11.3765
iano	-11.3766
▁ayegado	-11.3766
▁genio	-11.3768
▁grecia	-11.3773
▁chipre	-11.3774
▁causas	-11.3775
▁mura	-11.3776
▁topava	-11.3778
▁episodio	-11.3786
ung	-11.3788
▁tarta	-11.3789
▁continua	-11.379
▁camisa	-11.3793
▁corona	-11.3793
▁fuyir	-11.3793
▁inicio	-11.3793
▁cierra	-11.3797
▁kausas	-11.3798
▁tornemos	-11.3799
▁detalle	-11.38
▁elektrisita	-11.38
▁compré	-11.3802
▁alevanta	-11.381
▁mentiroso	-11.3811
▁querían	-11.3811
dyo	-11.3812
▁electricidad	-11.3814
▁lealtad	-11.3814
▁complicaciones	-11.3814
vin	-11.3817
▁joey	-11.3818
▁pastel	-11.3819
▁kostumbre	-11.382
▁magnitud	-11.382
▁kruz	-11.3823
aún	-11.3827
▁yaves	-11.3828
▁teknisyens	-11.3831
▁detektive	-11.3832
▁aérea	-11.3834
▁soltar	-11.3834
▁secretario	-11.3835
ima	-11.3837
▁constante	-11.3838
▁preparada	-11.3838
▁debí	-11.3839
▁konsiderando	-11.384
▁muchisimo	-11.3841
▁kamiza	-11.3841
▁disko	-11.3847
▁llevaron	-11.3847
▁enterprise	-11.3848
▁adjenda	-11.3848
▁tecnikas	-11.3848
▁white	-11.3853
▁mejoras	-11.3853
▁ueyas	-11.3857
▁bajas	-11.3857
▁sopa	-11.3858
▁efectivo	-11.3858
▁llaves	-11.3858
▁ansiedad	-11.3861
▁habíamos	-11.3867
▁deudas	-11.3868
▁micro	-11.3869
▁djenio	-11.387
▁truco	-11.387
▁dji	-11.3871
▁presentación	-11.3871
▁amaba	-11.3876
▁poniendo	-11.3877
▁tratamos	-11.3881
▁sagrado	-11.3882
eks	-11.3882
▁á	-11.3884
uk	-11.3885
▁kapa	-11.3885
▁edifisios	-11.3886
▁contó	-11.3887
▁complejo	-11.3889
▁tormenta	-11.3889
▁interesados	-11.389
▁sana	-11.389
▁kategoria	-11.3891
▁truko	-11.3896
▁submarino	-11.3896
▁orgullo	-11.3896
▁impedir	-11.3899
▁ó	-11.39
▁termine	-11.3901
lé	-11.3902
▁salsa	-11.3903
▁siguyo	-11.3903
▁patria	-11.3903
▁bromeando	-11.3904
▁bruto	-11.3906
▁sinken	-11.3907
rk	-11.3909
▁agrikola	-11.391
▁sinyifikasion	-11.3911
▁kuan	-11.3915
▁despedida	-11.3915
▁mostraron	-11.3915
▁aniversario	-11.3916
▁taylor	-11.3916
▁q	-11.3916
▁mecanismo	-11.3917
▁parlamentaria	-11.3917
▁fraza	-11.392
▁coches	-11.3921
▁matan	-11.3921
▁kondukta	-11.3924
▁muzeo	-11.3924
▁interpretar	-11.3925
nar	-11.3926
▁ekipos	-11.3929
▁dekadas	-11.393
▁tribunales	-11.393
▁pensadas	-11.3931
▁protokolo	-11.3931
▁estructurales	-11.3934
▁diarios	-11.3935
▁escuelas	-11.3939
▁opsiones	-11.3941
▁orgolyo	-11.3944
▁lisensia	-11.3944
▁internos	-11.3946
▁debilidad	-11.3948
▁ram	-11.3949
▁correspondiente	-11.3951
▁asukar	-11.3951
▁mushos	-11.3952
▁décadas	-11.3953
▁romano	-11.3957
▁empleos	-11.3959
▁limpieza	-11.3965
stre	-11.3965
▁times	-11.3972
▁licencia	-11.3972
▁globo	-11.3973
▁pierde	-11.3976
▁asiento	-11.3978
▁invernadero	-11.3979
▁desafio	-11.3979
▁demasiadas	-11.3981
▁dejalo	-11.3983
▁considerado	-11.3984
▁acero	-11.3985
▁despacho	-11.3985
▁madrid	-11.3986
▁exposición	-11.3986
▁rumores	-11.3986
▁permitanme	-11.3989
▁konsigo	-11.399
▁desnuda	-11.399
▁mikro	-11.399
pres	-11.3991
▁kortijo	-11.3993
▁monetaria	-11.3994
▁viviendas	-11.3997
len	-11.3998
▁mentes	-11.3999
▁rechaza	-11.3999
▁permityo	-11.3999
▁savor	-11.4
▁pato	-11.4
▁archivo	-11.4
▁bruja	-11.4001
▁nube	-11.4001
▁cheke	-11.4002
▁almuerzo	-11.4006
▁bolsillo	-11.4007
▁ciego	-11.4008
▁tapa	-11.4008
▁alarma	-11.4009
▁proporsion	-11.4012
▁lamentable	-11.4013
▁kullaneando	-11.4013
idos	-11.4013
▁protocolo	-11.4015
▁art	-11.4015
▁utilizando	-11.4015
▁gota	-11.4019
▁reparar	-11.4019
▁publisidad	-11.402
▁kombustible	-11.4021
▁estrukturales	-11.4023
▁korrespondiente	-11.4027
▁rompyo	-11.4027
▁tar	-11.4028
▁rekuedro	-11.4028
▁efektivo	-11.4029
▁bre	-11.403
estaba	-11.403
▁comprobar	-11.4033
▁partisipantes	-11.4034
gui	-11.4035
▁consciente	-11.4039
▁equipos	-11.404
▁industriales	-11.4043
▁darles	-11.4044
▁pala	-11.4045
▁observando	-11.4046
▁mundiales	-11.4047
▁kondena	-11.4047
▁aparesyo	-11.4048
▁festival	-11.4051
▁caro	-11.4054
ide	-11.4056
▁huellas	-11.4056
▁asentador	-11.4056
▁interrumpir	-11.4057
▁azlo	-11.4057
tesh	-11.4057
▁destinado	-11.4061
▁lavorava	-11.4061
cur	-11.4062
▁canciones	-11.4071
▁ovligasion	-11.4072
tus	-11.4075
▁masiva	-11.4076
▁alas	-11.4077
▁andy	-11.4079
▁cheque	-11.4081
▁ventas	-11.4081
▁dignidad	-11.4083
▁muchísimo	-11.4083
▁mios	-11.4084
▁rekuedros	-11.4089
▁demande	-11.409
▁opciones	-11.409
▁kontinente	-11.4092
▁detalyo	-11.4092
▁promesas	-11.4097
▁dinyidad	-11.4097
▁eksplio	-11.4097
▁franz	-11.4099
▁djeneralmente	-11.4104
▁kredito	-11.4105
▁sugjera	-11.4106
▁dólar	-11.4106
▁kastigo	-11.4111
lis	-11.4112
▁patas	-11.4113
▁eskolas	-11.4115
▁conducta	-11.412
▁determinadas	-11.4121
▁kadaver	-11.4122
▁soledad	-11.4123
dio	-11.4124
▁competencias	-11.4126
▁ocsidental	-11.4127
▁convencido	-11.4127
▁cubierta	-11.413
▁huir	-11.4133
▁avyertura	-11.4139
▁disponibilidad	-11.4139
▁edificios	-11.4139
▁kazo	-11.414
▁je	-11.4142
▁""""¡	-11.4143
kor	-11.4143
▁levantar	-11.4146
▁femenino	-11.4149
▁favorita	-11.4149
▁deriva	-11.415
▁vendedor	-11.4151
▁fila	-11.4151
▁retos	-11.4152
▁stanley	-11.4154
▁publicidad	-11.4154
▁míos	-11.4154
▁reyes	-11.4154
▁averme	-11.4155
ski	-11.4155
ris	-11.4155
▁ocurrir	-11.4156
ee	-11.4157
eya	-11.416
▁embarazo	-11.4161
▁realizan	-11.4161
itos	-11.4166
▁destrucción	-11.4167
▁apertura	-11.4167
▁proporsionar	-11.4169
▁derrota	-11.417
▁liras	-11.4174
▁adopción	-11.4174
▁asusta	-11.4174
▁sekreter	-11.4175
▁estrategias	-11.4175
▁asustada	-11.4177
▁casarme	-11.4182
▁fantastiko	-11.4183
▁joder	-11.4183
▁continente	-11.4184
▁¡¿	-11.4186
▁sombra	-11.4186
▁aunar	-11.4191
▁luis	-11.4194
tti	-11.4195
▁kantikaes	-11.4195
▁infeliz	-11.4196
▁kampo	-11.4198
▁valioso	-11.4198
▁cansada	-11.42
rin	-11.42
▁empesando	-11.4201
▁maten	-11.4203
▁puedyeron	-11.4203
▁permanecer	-11.4205
▁álbum	-11.421
▁diskriminasion	-11.4211
▁chocolate	-11.4213
▁jefes	-11.4215
▁dubios	-11.4217
▁obligación	-11.4218
▁volviendo	-11.4219
sas	-11.4225
estado	-11.4226
▁tejidos	-11.4231
▁grasa	-11.4231
▁excepción	-11.4231
▁fasilitar	-11.4232
▁mekanismo	-11.4234
mil	-11.4238
▁entrado	-11.4241
▁epi	-11.4241
▁ovejas	-11.4241
▁rasa	-11.4244
▁urbano	-11.4245
▁stone	-11.4248
dme	-11.4253
▁golor	-11.4255
▁copia	-11.4256
pas	-11.4259
▁tarjeta	-11.4263
▁kuedra	-11.4263
▁seda	-11.4263
▁cambió	-11.4267
▁sekundaria	-11.427
llo	-11.4279
▁petición	-11.4281
▁casualidad	-11.4281
▁wiyiam	-11.4284
▁embia	-11.4289
▁eramos	-11.4289
▁pensamientos	-11.4291
ig	-11.4292
ang	-11.4294
▁amava	-11.4295
▁costes	-11.4296
▁necesarios	-11.43
▁complicado	-11.4302
▁gris	-11.4302
▁convertir	-11.4302
▁eskrivi	-11.4303
mor	-11.4303
▁vestir	-11.4305
▁asemejante	-11.4306
▁gritos	-11.4307
▁serian	-11.4308
▁pasion	-11.4308
▁fracaso	-11.4314
▁lansar	-11.4314
cuántas	-11.4319
▁long	-11.432
▁black	-11.4322
▁kay	-11.4323
▁seremonia	-11.4324
▁verdes	-11.4324
▁kasualidad	-11.4324
▁generalmente	-11.4324
▁escalera	-11.4328
▁lastimar	-11.433
▁vietnam	-11.4331
▁ganó	-11.4332
▁alarm	-11.4332
▁quita	-11.4334
▁avlemos	-11.4336
▁curioso	-11.4338
▁privados	-11.4339
▁asombroso	-11.4342
▁yerva	-11.4343
▁impresionante	-11.4343
aki	-11.4347
▁pulso	-11.4348
vino	-11.4356
▁siudadano	-11.4357
▁relacionadas	-11.4359
▁sucedido	-11.436
▁permítanme	-11.436
▁relasionadas	-11.4362
▁miss	-11.4363
▁crédito	-11.4363
▁preguntaba	-11.4366
▁guste	-11.4366
▁florida	-11.4368
▁actos	-11.4368
▁parezca	-11.4369
▁oyes	-11.4369
▁trauma	-11.4373
▁publika	-11.4374
▁gritando	-11.4375
▁vámonos	-11.4375
▁previo	-11.4376
▁indispensable	-11.4379
sto	-11.4379
ska	-11.438
otra	-11.438
▁empezando	-11.4381
▁bushkan	-11.4385
▁categoría	-11.4386
▁chicolata	-11.4389
▁komprobar	-11.439
▁fort	-11.4395
ones	-11.4396
dé	-11.4396
▁amy	-11.4399
▁konvensido	-11.4402
▁iria	-11.4402
▁brevemente	-11.4404
tón	-11.4406
▁relevante	-11.4408
▁gapo	-11.4409
ap	-11.441
▁revelar	-11.4411
▁consigue	-11.4412
pin	-11.4413
▁tribu	-11.4413
▁destrucsion	-11.4418
▁etapas	-11.4418
▁trono	-11.4418
lle	-11.4419
▁extraordinaria	-11.4422
▁integral	-11.4423
▁guardar	-11.4423
ua	-11.4425
▁urbana	-11.4426
▁korona	-11.4429
▁realizasion	-11.4429
▁ekstraodrinario	-11.4432
▁eksepsion	-11.4435
▁julia	-11.4435
▁recuerde	-11.4436
▁presa	-11.4436
▁kompetensias	-11.444
▁crecer	-11.4442
▁limitada	-11.4443
▁conforme	-11.4444
▁estratedjias	-11.4447
▁trabajaba	-11.4447
▁solombra	-11.445
gon	-11.445
▁ambitos	-11.4451
▁aktos	-11.4452
▁bro	-11.4452
▁avryo	-11.4454
▁mostrado	-11.4459
▁sufren	-11.446
▁finanzas	-11.4461
▁lojika	-11.4461
▁kubierta	-11.4461
▁compromisos	-11.4462
▁imbécil	-11.4464
▁juega	-11.4466
▁volví	-11.4466
▁ciudadano	-11.4468
▁operar	-11.4468
▁profesora	-11.447
▁empa	-11.4473
▁define	-11.4473
▁retraso	-11.4474
creo	-11.4475
▁aceite	-11.4476
▁invento	-11.4477
▁llegada	-11.4479
▁preguntarle	-11.448
▁kazarme	-11.4481
▁mecanismos	-11.4483
▁desharlo	-11.4483
▁castigo	-11.4483
▁habías	-11.4483
▁kansada	-11.4484
▁estupenda	-11.4487
▁on	-11.4488
▁congreso	-11.449
▁echizo	-11.4491
▁desente	-11.4492
▁ponerse	-11.4495
▁afganistan	-11.4497
▁reverendo	-11.4498
▁combatir	-11.4499
▁digital	-11.45
▁tristeza	-11.4502
▁meldo	-11.4503
rar	-11.4505
deja	-11.4509
▁vidrio	-11.4509
▁konforme	-11.4512
▁imagina	-11.4513
▁iv	-11.4513
▁lagrimas	-11.4515
▁cristal	-11.4515
▁sorprendido	-11.4519
▁mensionado	-11.4523
▁pintura	-11.4524
yen	-11.4525
▁arquitectura	-11.4527
▁cap	-11.4527
▁separado	-11.453
▁hallar	-11.4531
▁testimonio	-11.4532
▁drama	-11.4533
▁prepara	-11.4534
▁sielos	-11.4534
▁pasen	-11.4536
▁ganando	-11.4538
▁buck	-11.4539
▁disminusion	-11.4541
▁eskalera	-11.4547
▁estandar	-11.4552
▁qui	-11.4554
lie	-11.4556
▁preferiría	-11.4556
▁mencionado	-11.4559
▁planeado	-11.4559
▁rezerva	-11.4562
▁tenis	-11.4564
▁rekuperasion	-11.4565
▁cadáver	-11.4566
▁acepta	-11.457
▁quedarte	-11.457
▁considerando	-11.4571
▁anderson	-11.4571
▁organos	-11.4573
▁william	-11.4575
▁pantalla	-11.4577
▁kirk	-11.4581
▁didjital	-11.4581
▁gal	-11.4586
▁ámbitos	-11.4586
▁quitar	-11.4588
▁yamando	-11.4589
▁procede	-11.4592
▁aceptado	-11.4594
▁mantenga	-11.4594
▁nacido	-11.4598
▁hablemos	-11.4598
▁klaros	-11.4599
▁star	-11.46
▁piensen	-11.4604
▁fla	-11.4604
▁abra	-11.4605
▁ferida	-11.4607
yu	-11.4611
▁cometido	-11.4614
▁espozorios	-11.4615
▁adopsion	-11.4615
▁kuriozita	-11.4615
▁deshamos	-11.4619
▁kubrir	-11.4621
▁vela	-11.4621
▁yevando	-11.4622
▁independencia	-11.4622
▁margen	-11.4624
▁haberme	-11.4624
▁órganos	-11.4625
▁kombatir	-11.4627
▁respondyo	-11.4628
▁mardjen	-11.4628
▁noruega	-11.463
▁testamento	-11.463
▁negativos	-11.463
▁ovligado	-11.4633
▁cuerda	-11.4636
▁saludo	-11.4639
ió	-11.4643
▁destruido	-11.4645
gos	-11.4646
▁konsege	-11.4647
▁recuperación	-11.4652
▁policías	-11.4656
▁komi	-11.4657
▁rovo	-11.466
▁konssiente	-11.4663
venga	-11.4664
▁yerro	-11.4667
▁traidor	-11.4668
▁herida	-11.4669
▁marea	-11.4673
▁serias	-11.4674
▁sho	-11.4677
▁pedryendo	-11.4682
▁kontroles	-11.4684
▁inisiar	-11.4688
▁decírselo	-11.4689
▁innovación	-11.4689
▁independensia	-11.4689
▁averse	-11.4689
ion	-11.469
▁entidades	-11.4691
▁konfio	-11.4692
▁buenoes	-11.4695
▁kostes	-11.4695
▁cerrada	-11.4696
▁kausar	-11.4698
▁koneksion	-11.47
vio	-11.4701
▁serrada	-11.4701
▁circulación	-11.4704
▁vernos	-11.4707
▁significativa	-11.4709
▁korea	-11.471
▁paresa	-11.4713
▁franceses	-11.4713
▁poderes	-11.4714
▁jesus	-11.4719
art	-11.472
▁montar	-11.4721
▁mantenerse	-11.4726
▁criatura	-11.4726
▁indjeniero	-11.4726
▁conexión	-11.4726
▁embajada	-11.4726
▁lanzar	-11.4727
▁sabio	-11.4728
▁encuentre	-11.4728
▁atraer	-11.4728
▁comido	-11.4731
we	-11.4732
▁arreglo	-11.4735
▁dejarlo	-11.4739
▁acusado	-11.4743
▁diridjir	-11.4743
▁sociedades	-11.4745
▁evita	-11.4746
▁torpe	-11.4746
▁supa	-11.4747
▁semejante	-11.4749
▁transparente	-11.4749
▁producido	-11.4749
▁entendimiento	-11.4749
▁parejas	-11.4752
▁innovasion	-11.4752
▁sugiere	-11.4753
▁parlamentos	-11.4755
▁bienvenidos	-11.4756
▁asenten	-11.4756
▁sirkulasion	-11.4756
▁estupida	-11.4757
▁guapo	-11.4757
▁pilar	-11.4759
▁borde	-11.4763
▁komplikado	-11.4764
▁sierra	-11.4764
▁recuerdos	-11.4768
▁alcanzado	-11.4768
▁existentes	-11.4769
▁tripulación	-11.4771
▁francos	-11.4773
▁adulto	-11.4779
▁us	-11.478
ise	-11.4781
▁sinta	-11.4782
ft	-11.4783
▁kongreso	-11.4786
▁kontaminasion	-11.4788
▁buscan	-11.4789
▁yegada	-11.479
▁agricultores	-11.4795
▁armados	-11.48
▁cruel	-11.4801
▁disminución	-11.4801
▁agradecer	-11.4804
▁ensupito	-11.4809
▁escuché	-11.4809
▁invisible	-11.4809
▁excusa	-11.4809
ola	-11.481
▁huele	-11.4811
▁ren	-11.4812
ifikasion	-11.4817
▁barreras	-11.4823
▁ingeniero	-11.4825
▁sientese	-11.4827
▁polisiyas	-11.483
▁sospecha	-11.4832
up	-11.4834
▁kampeon	-11.4835
▁realización	-11.4836
▁dispara	-11.4841
▁emosion	-11.4843
▁manual	-11.4847
▁respira	-11.4847
▁kaves	-11.4847
▁kapitulo	-11.4847
▁contestar	-11.4848
▁kedi	-11.4848
▁desapareser	-11.4849
kto	-11.485
▁eksistentes	-11.485
▁profesion	-11.485
▁magnifiko	-11.4854
▁sanitaria	-11.4855
ford	-11.4856
▁eche	-11.4857
▁avanzada	-11.4857
▁engañar	-11.4857
▁ge	-11.4858
ava	-11.4859
▁brian	-11.486
▁bus	-11.4861
▁ignorar	-11.4864
▁lenta	-11.4866
▁femenina	-11.487
▁bravo	-11.4871
▁sosiedades	-11.4873
▁espaldas	-11.4877
▁perdiendo	-11.4877
▁dibujo	-11.4878
▁aprendí	-11.4878
▁múltiples	-11.4879
▁aktivo	-11.4882
▁probado	-11.4882
▁toko	-11.4883
▁oyyendo	-11.4883
▁deskuvri	-11.4887
▁modales	-11.4887
jen	-11.4891
ela	-11.4892
▁organizar	-11.4894
▁casarte	-11.4894
▁ajuste	-11.4895
▁mekanismos	-11.4896
▁cierre	-11.4897
▁saldrá	-11.4899
▁hierro	-11.4899
▁oksidjeno	-11.4899
kov	-11.4901
▁firmemente	-11.4902
sor	-11.4906
▁triunfo	-11.4907
let	-11.4909
▁metan	-11.4911
▁ban	-11.4912
▁previamente	-11.4912
▁secretos	-11.4912
▁consenso	-11.4913
telo	-11.4913
▁presioso	-11.4914
▁preokupasiones	-11.4914
▁pluma	-11.492
▁organisar	-11.492
▁ajedrez	-11.4922
▁curiosidad	-11.4922
▁indo	-11.4923
▁haberte	-11.4924
▁raza	-11.4924
ier	-11.4927
▁seno	-11.4928
▁odreno	-11.4931
▁establecido	-11.4932
▁pasava	-11.4932
eras	-11.4932
lon	-11.4933
▁pudiese	-11.4936
▁djenerar	-11.4936
▁abandona	-11.4943
▁moto	-11.4944
▁paciencia	-11.4945
▁prometi	-11.4948
▁alza	-11.4951
▁introducir	-11.4953
▁komyendo	-11.4953
dí	-11.4953
mó	-11.4954
▁puedesh	-11.4954
▁belga	-11.4956
▁kruel	-11.496
▁signifikativa	-11.496
▁apareser	-11.496
▁controles	-11.4961
▁keresh	-11.4963
▁demora	-11.4964
▁casada	-11.4969
tte	-11.4969
▁eksidje	-11.497
ete	-11.4976
▁consideración	-11.4978
▁extremo	-11.4985
▁haberse	-11.4987
▁enganyar	-11.4987
▁bodre	-11.4987
▁senado	-11.499
▁constituyen	-11.4991
▁apareció	-11.4994
▁organo	-11.4995
▁generar	-11.4995
▁propietario	-11.4997
▁evitarlo	-11.4998
▁lío	-11.5003
▁pondré	-11.5007
▁riqueza	-11.5009
▁plasma	-11.5009
▁serían	-11.5009
▁puederes	-11.501
▁ekstremo	-11.5011
▁sucio	-11.5012
▁egzistir	-11.5012
▁viaja	-11.5014
▁terrestre	-11.5016
▁busco	-11.5016
▁intercambio	-11.5017
▁afganistán	-11.5022
▁dekarselo	-11.5022
▁resuelto	-11.5024
▁bandera	-11.5024
▁kontribusyon	-11.5033
fina	-11.5036
cí	-11.5036
▁frankos	-11.5037
▁simpson	-11.5037
▁encantaría	-11.5039
▁rekonose	-11.5039
▁kriatura	-11.504
▁davis	-11.504
▁produzyo	-11.5045
▁resultó	-11.5045
▁repetir	-11.5051
▁establece	-11.5051
enta	-11.5051
▁vidjilansia	-11.5053
▁kompasion	-11.5053
▁resive	-11.5054
▁sangrado	-11.5055
▁arriesgar	-11.5056
▁sabrá	-11.5062
▁judio	-11.5063
▁dissiplina	-11.5067
▁atmosfera	-11.5068
▁contaminación	-11.5068
▁ejemplos	-11.5072
▁egzempyos	-11.5073
▁manifestar	-11.5074
▁multiples	-11.5075
▁emplear	-11.5077
▁rikeza	-11.5079
▁genera	-11.5079
▁norman	-11.5083
▁llamé	-11.5088
▁prosede	-11.5089
▁erramienta	-11.5089
▁suvir	-11.5089
▁kg	-11.5091
▁interiores	-11.5091
▁eksakto	-11.5091
▁maneja	-11.5091
▁interkambio	-11.5094
▁aumentando	-11.5097
▁gustó	-11.5099
▁agrikultores	-11.5101
nny	-11.5102
tuvo	-11.5103
▁judios	-11.5104
▁arkitektura	-11.5107
▁vigilancia	-11.5107
▁industrias	-11.5108
▁sida	-11.5109
▁pendientes	-11.5109
▁iniciar	-11.5109
▁juridiko	-11.511
▁furioso	-11.5114
fodr	-11.5115
▁apetito	-11.5115
▁akseptar	-11.5118
▁siviles	-11.5118
▁echado	-11.5118
bil	-11.5119
▁posterior	-11.5119
▁observo	-11.512
▁konsenso	-11.5121
▁íbamos	-11.5122
rt	-11.5123
▁identifikasion	-11.5125
▁incluidos	-11.5126
▁gen	-11.5128
▁tumor	-11.5128
▁mostró	-11.513
▁xix	-11.513
▁puedimos	-11.5133
▁jurídico	-11.5133
▁introduzir	-11.5133
ct	-11.5133
▁salvado	-11.5133
▁insiste	-11.5136
▁bla	-11.5137
▁moleste	-11.5138
▁profundas	-11.5145
▁scott	-11.5145
▁lin	-11.5154
▁logramos	-11.5155
ñe	-11.516
▁ayudando	-11.5161
▁almas	-11.5161
▁obama	-11.5161
▁akaban	-11.5163
▁intentas	-11.5164
▁poblasiones	-11.5164
▁estimado	-11.5165
rum	-11.5168
▁intervenciones	-11.5169
▁lesion	-11.5169
▁acaban	-11.5169
▁ad	-11.5169
▁konsiderado	-11.517
▁danza	-11.5173
▁recibe	-11.5175
▁laura	-11.5175
▁importaria	-11.5176
▁yamadas	-11.5176
▁precioso	-11.5178
▁roka	-11.5179
▁preocupaciones	-11.5179
▁iría	-11.518
▁edjipto	-11.5185
▁establecimiento	-11.5185
▁fer	-11.5186
▁duerme	-11.5193
▁intervensiones	-11.5195
▁umbral	-11.5196
▁konsiderasion	-11.5199
▁ciclo	-11.5199
riko	-11.52
▁egipto	-11.52
▁índice	-11.5204
▁lograrlo	-11.5205
▁contribución	-11.5208
▁establesimiento	-11.5208
▁cállate	-11.5208
▁empezado	-11.5209
▁res	-11.5209
ple	-11.5211
podrías	-11.5212
▁bandiera	-11.5212
▁conocimientos	-11.5212
▁diste	-11.5216
▁orbita	-11.5216
▁bata	-11.5218
▁ciencias	-11.522
▁carl	-11.5221
▁adam	-11.5222
ense	-11.5226
día	-11.5228
▁salas	-11.5229
▁disciplina	-11.5231
▁oxígeno	-11.5232
▁formulada	-11.5234
▁garantiza	-11.5237
▁intentó	-11.5239
▁dolores	-11.524
▁observaciones	-11.5241
▁lou	-11.5242
▁interesan	-11.5243
▁vulnerabilidad	-11.5247
▁despacio	-11.5247
▁vuelven	-11.5248
▁capítulo	-11.5249
▁desafío	-11.5252
ure	-11.5253
▁presentada	-11.5253
▁feria	-11.5255
tom	-11.5256
▁judisial	-11.5258
▁lágrimas	-11.5263
▁mago	-11.5266
▁johnson	-11.5267
fundamentalmente	-11.5268
▁konosimientos	-11.5268
▁um	-11.527
▁reputasion	-11.5271
▁preokupar	-11.5272
▁durme	-11.5273
▁contenta	-11.5274
▁akusado	-11.5276
▁ias	-11.5278
▁bebes	-11.5284
▁palestinos	-11.5284
▁harto	-11.5286
▁maldision	-11.5287
well	-11.5288
▁disco	-11.5289
▁pol	-11.529
▁cinta	-11.529
▁facilitar	-11.5294
dale	-11.5295
▁tigre	-11.5296
eran	-11.5298
▁mesurar	-11.5299
▁eskapado	-11.53
poli	-11.53
▁humo	-11.53
tando	-11.5301
yas	-11.5302
▁skott	-11.5302
▁enkantaria	-11.5307
▁kostos	-11.5307
▁tardes	-11.5309
▁sinkuenta	-11.531
▁intentos	-11.5312
▁judicial	-11.5315
▁magnífico	-11.5316
▁suelta	-11.5317
▁influir	-11.5318
▁espantozo	-11.5318
ice	-11.5321
▁eskrive	-11.5323
▁colores	-11.5325
▁pensen	-11.5326
▁corea	-11.5327
▁foro	-11.5332
▁costos	-11.5334
▁nerviosa	-11.5337
▁convencer	-11.534
▁retardo	-11.5341
▁mami	-11.5342
▁vitesh	-11.5345
▁órgano	-11.5347
▁notas	-11.5347
▁civiles	-11.5354
▁we	-11.5356
▁hablaré	-11.5358
▁prezentaron	-11.5358
▁karvon	-11.5358
▁melda	-11.5359
▁proibision	-11.5361
▁guadra	-11.5362
▁akabado	-11.5366
▁sustancias	-11.537
▁intenté	-11.5374
▁identificación	-11.5374
▁importan	-11.5375
▁éramos	-11.5375
lado	-11.5376
▁kolecsion	-11.538
▁pasara	-11.5381
▁brecha	-11.5384
▁supiera	-11.5387
▁herramienta	-11.5387
▁reír	-11.539
▁compasión	-11.539
▁finlandia	-11.539
▁pedrimos	-11.5392
▁exige	-11.5394
▁residentes	-11.5396
▁barro	-11.5398
▁deseado	-11.5401
▁perikolozos	-11.5402
▁ekivokada	-11.5403
▁serrado	-11.5403
▁jan	-11.5404
sina	-11.5406
ps	-11.5407
ea	-11.5408
▁obtenido	-11.5409
▁cobarde	-11.5411
▁molestia	-11.5412
▁tasas	-11.5413
▁ogares	-11.5413
▁dje	-11.5416
dle	-11.5418
▁disfrutar	-11.5418
▁imperial	-11.5421
▁globales	-11.5422
▁cuáles	-11.5423
▁espanta	-11.5425
▁karbono	-11.5425
▁mediados	-11.5426
▁milagro	-11.5427
▁elefante	-11.5428
▁infecsion	-11.543
▁kantante	-11.5431
▁oliver	-11.5431
▁enyega	-11.5433
▁carbono	-11.5433
▁existir	-11.5433
nk	-11.5434
▁empleado	-11.5438
▁llamadas	-11.5438
▁pasión	-11.5439
▁bendiga	-11.544
▁gustado	-11.5441
▁vuelvas	-11.5443
▁propozar	-11.5443
▁realizadas	-11.5443
▁declarado	-11.5444
▁sienten	-11.5445
▁establesyo	-11.5447
▁golfo	-11.5449
▁plasa	-11.5453
▁atmósfera	-11.5454
▁reputación	-11.5454
▁diridje	-11.5457
▁vasos	-11.5458
▁infección	-11.546
▁pasharo	-11.546
será	-11.546
▁poblaciones	-11.5462
▁determinada	-11.5464
▁ppe	-11.547
▁merkaras	-11.5472
▁sosios	-11.5473
ic	-11.5475
▁seguirá	-11.5476
▁prosperidad	-11.5478
ano	-11.5478
▁habilidades	-11.5481
▁duque	-11.5482
▁aplica	-11.5482
ngo	-11.5482
▁hogares	-11.5486
▁musulmanes	-11.5488
▁aplika	-11.549
▁vehículos	-11.5491
▁librar	-11.5492
tienen	-11.5493
▁mirakolo	-11.5493
▁proporcionar	-11.5494
▁profesión	-11.5494
tico	-11.5498
▁jonson	-11.5499
berg	-11.5502
▁comentarios	-11.5504
▁kole	-11.5504
▁ras	-11.5505
▁milady	-11.5507
▁escribe	-11.5507
▁maleta	-11.5514
▁transportar	-11.5518
▁aprobar	-11.552
▁terseros	-11.5523
idades	-11.5526
▁exacto	-11.5526
▁presiones	-11.5526
▁acabe	-11.5527
▁entrando	-11.5528
▁reforzar	-11.5532
▁importaría	-11.5532
▁fortaleza	-11.5533
▁instrucciones	-11.5534
▁ocupada	-11.5537
▁repetar	-11.5538
▁equivocada	-11.5538
▁cielos	-11.5541
▁dirige	-11.5542
▁aislamiento	-11.5543
▁suesia	-11.5544
ai	-11.5544
▁eterna	-11.5545
▁tomemos	-11.5547
cie	-11.5547
▁amantes	-11.5549
▁déjalo	-11.5552
▁sustansias	-11.5555
▁disparos	-11.5556
▁djugeves	-11.5559
▁kin	-11.5559
▁agarrar	-11.556
▁sospeka	-11.5562
▁pollo	-11.5573
ep	-11.5573
▁editor	-11.5574
▁reushir	-11.5575
▁reforsar	-11.5575
▁ilegales	-11.5577
▁italianos	-11.5581
ial	-11.5581
▁incidencia	-11.5583
▁ataques	-11.5583
▁planos	-11.5584
▁inc	-11.5587
▁respeta	-11.559
▁sinyatura	-11.5591
▁deskuvryo	-11.5591
▁dejando	-11.5591
▁maestros	-11.5593
mba	-11.5594
▁reconoce	-11.5594
▁kolores	-11.5598
▁integridad	-11.5599
▁extremadamente	-11.5599
▁reparto	-11.56
vete	-11.5602
▁empresarial	-11.5604
▁fantasmas	-11.5606
▁helen	-11.5606
▁interpretasion	-11.5606
▁declara	-11.5608
▁cantante	-11.5609
▁mel	-11.5609
▁representación	-11.5613
▁izkiedro	-11.5616
ky	-11.5616
cada	-11.562
▁socios	-11.5623
▁asepta	-11.5623
▁declarasiones	-11.5624
▁observasiones	-11.5624
▁insidensia	-11.5624
▁bases	-11.5627
▁admitir	-11.5628
▁tradicional	-11.5629
▁siclo	-11.563
ula	-11.563
▁bagaje	-11.5632
▁discriminación	-11.5636
ena	-11.5636
▁pájaro	-11.5637
▁quedaré	-11.5639
forma	-11.564
mada	-11.5641
▁okultar	-11.5642
▁tadres	-11.5643
▁viktor	-11.5644
▁kombinasion	-11.5645
▁ayudarlo	-11.5647
▁terceros	-11.5648
▁fransezes	-11.5649
▁nasimiento	-11.5649
▁productores	-11.5649
▁funsionarios	-11.5656
▁validja	-11.5656
▁describir	-11.5657
▁topates	-11.5661
▁ponentes	-11.5662
sé	-11.5663
▁declaraciones	-11.5666
▁grita	-11.5667
▁huesos	-11.5667
ló	-11.5667
▁tumores	-11.5669
▁podéis	-11.567
▁izquierdo	-11.5673
▁avenida	-11.5673
▁despedido	-11.5674
▁nombrado	-11.5676
▁eeuu	-11.5678
▁pavo	-11.5678
▁roca	-11.5679
▁afekto	-11.5681
▁cubrir	-11.5682
▁komentarios	-11.5684
bin	-11.5684
▁atakes	-11.5686
▁kimikos	-11.5687
▁ingeniería	-11.5689
▁garaje	-11.569
▁preguntado	-11.569
▁velo	-11.5691
▁coste	-11.5692
izados	-11.5692
▁abilidades	-11.5693
sión	-11.5696
▁salarios	-11.5696
▁puertos	-11.5696
▁reservas	-11.5697
▁habilidad	-11.5697
ció	-11.57
▁bazaes	-11.57
▁liberales	-11.5701
▁ayudame	-11.5702
▁privadas	-11.5703
áramos	-11.5704
pul	-11.5705
▁eksperto	-11.5706
▁refleksion	-11.5709
▁quedé	-11.571
ví	-11.5714
▁deterioro	-11.5714
▁bor	-11.5716
▁instrucsiones	-11.5718
▁dijera	-11.5719
▁sifras	-11.572
▁irás	-11.5721
▁arraviado	-11.5722
▁compras	-11.5723
▁estadio	-11.5725
▁agantar	-11.5727
▁hubieras	-11.5728
▁burla	-11.5729
▁ayudado	-11.573
▁komprension	-11.5731
▁prevalensia	-11.5731
▁unanimidad	-11.5731
▁juramento	-11.5731
▁gadrias	-11.5732
▁ayudará	-11.5734
▁savesh	-11.5736
gg	-11.5738
▁ekstremadamente	-11.5739
▁repeto	-11.5739
▁benzin	-11.5739
bb	-11.574
▁medir	-11.5741
▁aleks	-11.5742
▁utilizada	-11.5744
▁contesta	-11.5745
quien	-11.5747
▁estúpida	-11.5748
▁nacimiento	-11.5748
▁azete	-11.5749
▁abilidad	-11.5756
ios	-11.5757
▁bon	-11.5759
▁shin	-11.5762
tres	-11.5762
▁escúchame	-11.5764
▁."""	-11.5765
▁salyendo	-11.5765
▁saque	-11.5767
▁teksas	-11.5772
▁usuario	-11.5773
▁chimenea	-11.5773
▁suceder	-11.5776
rina	-11.5777
▁djen	-11.5778
▁lois	-11.5779
▁aereo	-11.5781
lly	-11.5783
▁magia	-11.5783
▁gayna	-11.5784
▁perfil	-11.5785
moslo	-11.5786
ona	-11.5787
▁dependen	-11.5787
▁perfume	-11.579
▁indjenieria	-11.5804
▁texas	-11.5805
▁volvamos	-11.5807
▁kid	-11.581
▁cifras	-11.5813
▁raras	-11.5814
▁eléctrica	-11.5816
▁karajo	-11.5818
▁ac	-11.5819
▁esperanzas	-11.582
▁lamentar	-11.5821
▁atender	-11.5823
mento	-11.5823
mal	-11.5824
▁ave	-11.5825
▁sujeta	-11.5825
ificación	-11.5826
▁permítame	-11.5826
▁enfrentamos	-11.5826
▁abiertas	-11.5829
vie	-11.583
▁comprensión	-11.583
▁soporto	-11.583
▁cumplido	-11.5831
▁rezervas	-11.5832
▁sumo	-11.5835
▁negar	-11.5837
▁jueves	-11.5839
▁prevalencia	-11.5839
▁savria	-11.584
▁tension	-11.5841
▁podria	-11.5843
▁akabe	-11.5844
▁dyera	-11.5844
▁tomaré	-11.5845
▁dejamos	-11.5846
▁atraktivo	-11.5847
▁bezar	-11.5847
▁habitaciones	-11.5848
▁espacios	-11.585
▁pila	-11.5852
▁dirigir	-11.5856
▁semi	-11.5857
▁sp	-11.5858
▁emosiones	-11.586
▁posisiones	-11.586
rm	-11.5861
ston	-11.5863
▁produktores	-11.5863
▁gordo	-11.587
▁espasios	-11.5871
▁konstruido	-11.5872
▁sorprender	-11.5875
▁sacado	-11.5875
▁elektrika	-11.5878
▁kamaretaes	-11.5879
▁pacifiko	-11.588
▁desnudo	-11.5883
▁obliga	-11.5885
▁ocultar	-11.5886
fra	-11.5887
▁campeón	-11.5889
▁deskrivir	-11.589
▁barón	-11.589
▁depresion	-11.589
▁uvyeras	-11.5891
▁sustituir	-11.5893
▁veikulos	-11.5894
▁funcionarios	-11.5895
▁apoya	-11.5897
▁novle	-11.5898
▁promosion	-11.5899
cy	-11.5899
nal	-11.59
▁film	-11.5901
▁fatiga	-11.5905
▁edward	-11.5906
▁tradision	-11.5909
▁sabías	-11.5909
▁yendo	-11.5909
▁barrera	-11.591
▁enkargo	-11.5914
▁esperansas	-11.5915
▁siguan	-11.5916
▁marinero	-11.5916
▁city	-11.5917
ño	-11.5917
▁oigo	-11.592
▁carbón	-11.5922
dame	-11.5926
▁ambasador	-11.5926
▁fayo	-11.5927
▁it	-11.5929
▁visible	-11.5929
▁resientes	-11.5931
▁konvene	-11.5932
▁diana	-11.5935
▁consiguió	-11.5936
▁decente	-11.5936
▁odiar	-11.5936
bus	-11.5936
▁iamos	-11.5937
▁movimieno	-11.5939
▁enterrar	-11.5941
▁epidemia	-11.5941
▁imadjina	-11.5942
▁diversion	-11.5945
▁pin	-11.5946
▁island	-11.5947
▁amanecer	-11.5949
▁cable	-11.5949
"".	-11.5949
▁piko	-11.5952
▁accidentes	-11.5955
▁voses	-11.5955
▁entrevistas	-11.5956
tividad	-11.5956
▁betty	-11.5956
▁emociones	-11.5956
▁min	-11.5958
▁disputa	-11.5959
dita	-11.596
▁quieran	-11.5963
▁consideramos	-11.5965
doras	-11.5967
dera	-11.5968
▁ánimo	-11.5968
▁llamando	-11.5969
▁respondió	-11.5969
ington	-11.5973
▁aksidentes	-11.5974
her	-11.5975
▁djenera	-11.5976
▁haberle	-11.5978
▁presos	-11.5981
▁kullaneo	-11.5981
dicho	-11.5983
▁venda	-11.5987
▁escuchando	-11.5988
▁césar	-11.599
tta	-11.5997
▁ayegando	-11.5999
▁amables	-11.6001
▁tomates	-11.6003
▁artistas	-11.6005
▁charlotte	-11.6008
ár	-11.6008
▁jose	-11.6008
▁artur	-11.6011
▁destinados	-11.6014
▁alex	-11.6016
▁arabe	-11.6017
sky	-11.602
▁sch	-11.6023
▁deporte	-11.6024
ara	-11.6024
amiento	-11.6032
▁eleva	-11.6032
▁nombrar	-11.6033
mus	-11.6034
▁patatas	-11.6034
▁prudente	-11.6035
▁confío	-11.6041
▁suecia	-11.6041
▁aktua	-11.6041
ieron	-11.6044
▁enyego	-11.6049
▁amariyo	-11.605
sha	-11.605
▁estatua	-11.6053
▁truo	-11.6056
▁blues	-11.6057
▁subsidiariedad	-11.6058
▁saliendo	-11.6059
▁ekonomizar	-11.606
▁acontecimientos	-11.6061
▁patente	-11.6062
▁fuma	-11.6062
▁kurar	-11.6063
▁tolerar	-11.6063
▁equipaje	-11.6066
▁kable	-11.607
dlo	-11.607
▁ivas	-11.6071
▁pacífico	-11.6079
▁akordas	-11.6079
▁"""""""...	-11.6081
▁espiritual	-11.6082
▁dejenme	-11.6082
▁barata	-11.6082
▁nancy	-11.6084
yan	-11.6084
▁dioes	-11.6087
▁adorable	-11.6087
▁ligado	-11.6088
nadie	-11.6092
▁estupidez	-11.6092
zas	-11.6099
▁konstituen	-11.61
▁sigan	-11.6102
▁fruto	-11.6105
▁finalidad	-11.6108
▁posiciones	-11.6108
▁elevada	-11.6109
▁amaneser	-11.6109
▁obtenyo	-11.6109
▁atractivo	-11.6109
▁obligado	-11.6109
▁konduktor	-11.6111
▁leyenda	-11.6113
sk	-11.6113
▁bruno	-11.6117
▁balance	-11.6118
▁arthur	-11.6118
sida	-11.6122
▁eskapi	-11.6122
▁someter	-11.6125
▁mankan	-11.6126
▁siéntese	-11.6127
tter	-11.6127
▁sentensia	-11.6127
▁mostrando	-11.6129
▁juzgado	-11.6132
▁formado	-11.6133
▁aktrisa	-11.6135
▁incluyen	-11.6136
▁desharia	-11.6137
▁extraordinario	-11.6139
▁sekuensia	-11.6139
▁demokratika	-11.6142
▁proporción	-11.6144
▁agradecimiento	-11.6144
▁condesa	-11.6144
conoce	-11.6146
inas	-11.6152
▁kolorados	-11.6153
▁calla	-11.6155
▁experto	-11.6156
▁deskonosido	-11.6156
▁encantador	-11.6158
▁abejas	-11.6159
▁posee	-11.6161
▁uzamos	-11.6161
▁sincero	-11.6165
▁financieras	-11.6166
▁chaqueta	-11.6169
▁brandon	-11.6171
▁ermanas	-11.6172
▁world	-11.6172
▁terremoto	-11.6173
▁recientes	-11.6175
pri	-11.6178
▁combinación	-11.6178
▁seguida	-11.6179
▁konsideramos	-11.618
▁kasar	-11.6181
▁hables	-11.6184
▁mapas	-11.6184
▁introduksion	-11.6187
vis	-11.6188
▁pasharos	-11.6189
▁separados	-11.6191
▁alfombra	-11.6191
able	-11.6191
▁acuerdas	-11.6192
jas	-11.6192
▁democrática	-11.6193
▁akontesa	-11.6195
▁murieron	-11.6195
▁difikultad	-11.6197
▁supera	-11.6197
▁tradisional	-11.6202
▁rekomendasiones	-11.6206
▁gri	-11.621
▁naci	-11.6214
wi	-11.6216
▁medianas	-11.6217
▁fresco	-11.6217
▁mares	-11.6219
▁cincuenta	-11.622
▁konduze	-11.6222
▁guesos	-11.6222
▁traslado	-11.6222
▁avrian	-11.6226
▁say	-11.6226
chas	-11.6228
▁superman	-11.6233
▁demandaron	-11.6233
▁intestinal	-11.6236
▁pones	-11.6237
cher	-11.6239
▁zapato	-11.624
nlo	-11.6241
sita	-11.6242
▁zo	-11.6242
▁usamos	-11.6243
▁secuencia	-11.6243
ene	-11.6246
▁senyala	-11.6247
▁alevanto	-11.6247
▁recomendaciones	-11.6247
▁fre	-11.6248
▁digna	-11.6254
▁ch	-11.6255
▁ocurra	-11.6256
▁grant	-11.6257
▁judíos	-11.6257
▁eskritor	-11.6258
▁promete	-11.6259
todavía	-11.626
▁mosu	-11.6264
▁primas	-11.6265
▁yenos	-11.6269
▁serbia	-11.627
▁inventar	-11.627
▁bonos	-11.6273
▁probarlo	-11.6275
▁salí	-11.6276
▁ayudan	-11.6284
▁rais	-11.6284
▁terriblemente	-11.6285
▁mini	-11.6286
▁juntas	-11.6286
▁infrastruktura	-11.6287
rla	-11.6288
▁konserto	-11.6288
habla	-11.629
▁durmiendo	-11.6291
▁demasiados	-11.6296
▁poseda	-11.6297
▁casar	-11.6298
▁kru	-11.6298
▁traigo	-11.63
▁prohibición	-11.63
▁dejaría	-11.63
▁oposision	-11.6301
▁vedres	-11.6301
▁kondesa	-11.6301
▁bat	-11.6301
▁irak	-11.6306
▁konservar	-11.6307
▁entenden	-11.6308
▁santiago	-11.6308
▁vendido	-11.631
▁konsegimos	-11.6311
▁brinda	-11.6313
▁sometidos	-11.6315
lum	-11.6315
▁matriz	-11.6318
dd	-11.6318
▁siguió	-11.6318
▁islam	-11.6319
▁clan	-11.632
▁kasa	-11.632
▁akontesimientos	-11.632
▁kelly	-11.6323
▁monos	-11.6324
▁trajedia	-11.6326
▁balanse	-11.6327
▁antiguos	-11.6328
▁dificultad	-11.6328
▁ácido	-11.633
kra	-11.633
▁tornamos	-11.633
▁miramos	-11.6331
▁pájaros	-11.6335
▁ibas	-11.6338
▁luke	-11.634
▁dezeyan	-11.6341
die	-11.6342
▁kansas	-11.6342
▁tradición	-11.6343
▁reza	-11.6343
▁voces	-11.6348
▁desidido	-11.635
▁durmyendo	-11.6352
ase	-11.6353
▁conductor	-11.6353
▁aéreo	-11.6358
▁metites	-11.6359
▁hermanas	-11.6367
▁kedaron	-11.6367
▁oradores	-11.6369
▁moscú	-11.637
▁apetece	-11.637
▁encanto	-11.637
▁necesitar	-11.6371
▁eskuza	-11.6372
▁siria	-11.6372
▁bello	-11.6373
ín	-11.638
▁responda	-11.638
▁komponentes	-11.6381
▁aparatos	-11.6382
tio	-11.6383
▁conviene	-11.6384
▁maravilla	-11.6385
▁bovos	-11.6387
▁cuantos	-11.6389
▁escaleras	-11.6392
▁desconocido	-11.6393
▁azerias	-11.6394
▁alcanza	-11.6394
▁kumplimiento	-11.6396
▁trati	-11.6397
▁enormemente	-11.6398
siderablemente	-11.6399
nga	-11.64
▁tersero	-11.64
▁tercero	-11.6402
▁llevando	-11.6402
▁entidad	-11.6402
▁componentes	-11.6405
▁tirando	-11.6407
▁andrew	-11.6411
▁compró	-11.6414
▁producen	-11.6417
▁finansieras	-11.6418
▁way	-11.6418
▁bebidas	-11.6419
logia	-11.6422
▁prometyo	-11.6423
▁cumplimiento	-11.6423
▁kanon	-11.6423
▁remedio	-11.6423
▁emoción	-11.6423
▁segida	-11.6424
▁libremente	-11.6424
▁eskondido	-11.6425
nis	-11.6426
gó	-11.6426
▁barrios	-11.6428
▁djaketa	-11.6431
▁fomento	-11.6432
▁emocionante	-11.6433
▁enterrado	-11.6433
dero	-11.6434
▁leal	-11.6438
▁desplazamiento	-11.6438
▁bretaña	-11.644
▁pac	-11.6441
cita	-11.6447
▁jaula	-11.6447
▁suisidio	-11.6449
▁mentir	-11.6454
▁cre	-11.6456
▁mesura	-11.6457
▁agradesimiento	-11.6458
▁abitual	-11.6461
anos	-11.6461
pli	-11.6462
▁saco	-11.6463
ate	-11.6466
▁velar	-11.6467
▁seremos	-11.6468
▁recibí	-11.6469
▁avles	-11.6469
uri	-11.6473
▁prometida	-11.6474
▁universitario	-11.6474
▁obligaciones	-11.6477
▁reporte	-11.6478
▁solusionar	-11.648
▁mario	-11.6481
iana	-11.6481
▁proba	-11.6482
▁misiones	-11.6483
▁terry	-11.6485
▁famosa	-11.6485
▁italiana	-11.6488
▁kalmos	-11.6488
▁realista	-11.6489
itis	-11.6489
▁libra	-11.6493
▁introducción	-11.6494
▁pidiendo	-11.6494
▁peri	-11.6495
▁institucional	-11.6496
▁leí	-11.6496
▁produzen	-11.6496
▁emily	-11.6496
▁conduce	-11.6497
▁sity	-11.6498
▁usd	-11.65
▁michel	-11.6501
▁dezeyava	-11.6506
▁comprado	-11.6508
▁asentada	-11.6509
▁anuales	-11.6509
▁vinido	-11.651
▁kanto	-11.6515
lli	-11.6518
▁lamenta	-11.6518
▁entraron	-11.652
▁marianne	-11.6521
▁inf	-11.6523
▁escritor	-11.6524
▁acaso	-11.6524
▁aprobada	-11.6528
▁conversaciones	-11.653
▁elaboración	-11.653
▁barney	-11.6531
estuvo	-11.6532
▁argentina	-11.6538
▁mutuo	-11.6538
▁torneo	-11.654
▁llego	-11.654
▁realisaron	-11.654
nge	-11.6541
▁sabría	-11.6541
▁transmision	-11.6545
▁enkantador	-11.6547
jan	-11.655
▁navegar	-11.6552
▁sentencia	-11.6555
▁chikez	-11.6556
▁alivio	-11.6556
▁decide	-11.6561
▁desean	-11.6562
▁encargado	-11.6569
saben	-11.6571
▁institusional	-11.6572
▁habrían	-11.6574
▁león	-11.6574
▁ceremonia	-11.6574
▁durasion	-11.6577
▁ramo	-11.6577
▁prefera	-11.6578
▁alimenta	-11.6581
▁bushkava	-11.6581
▁shu	-11.6583
▁kimika	-11.6583
▁deskripsion	-11.6584
▁arrastrar	-11.6584
▁gane	-11.6586
▁pedimos	-11.6587
▁demedio	-11.6589
gor	-11.659
▁cirkulo	-11.6591
▁saluda	-11.6591
▁vulgar	-11.6592
▁guardias	-11.6595
ónica	-11.6595
▁rein	-11.6595
cido	-11.6598
▁donna	-11.6601
▁joyas	-11.6601
▁eskaleras	-11.6603
▁duros	-11.6605
▁venden	-11.6607
▁cri	-11.6607
mino	-11.6608
tí	-11.6608
▁culturales	-11.6608
▁kullanean	-11.661
ard	-11.6611
▁vulnerables	-11.6614
mpi	-11.6614
▁democrático	-11.6618
▁resultan	-11.6619
elo	-11.662
▁estudia	-11.662
▁yevado	-11.6621
▁kompra	-11.6623
▁mona	-11.6625
▁doloroso	-11.6627
▁urdjensia	-11.6627
▁hitler	-11.6628
▁trató	-11.6629
▁judy	-11.6632
▁investigando	-11.6632
▁inusual	-11.6635
▁kane	-11.6636
▁oposición	-11.6637
▁ec	-11.6639
▁empesaron	-11.6643
▁regular	-11.6643
▁xxi	-11.6644
▁vidjilar	-11.6644
zar	-11.6644
▁desapareció	-11.6646
▁konversasiones	-11.6653
▁demokratiko	-11.6655
▁divorsio	-11.6655
▁itler	-11.6657
▁estándar	-11.6659
▁emosionante	-11.6659
lito	-11.666
smo	-11.6662
▁multa	-11.6662
▁dados	-11.6666
▁ética	-11.6667
▁perlas	-11.667
▁divertir	-11.6672
▁bretanya	-11.6673
▁grandioso	-11.6673
▁etika	-11.6675
▁técnico	-11.6676
▁dejaron	-11.668
▁suicidio	-11.6683
▁vendria	-11.6683
▁falsas	-11.6683
▁orasion	-11.6684
▁frankie	-11.6685
▁sira	-11.6687
▁abla	-11.6688
▁prohibido	-11.6688
▁disculpas	-11.6691
▁fija	-11.6691
▁reskate	-11.6692
▁servido	-11.6697
▁dunke	-11.6698
▁mensajes	-11.6699
▁enfrentan	-11.67
▁asesina	-11.67
▁urgencia	-11.67
▁transmisión	-11.6701
▁residensia	-11.6701
▁diversión	-11.6701
▁inkluen	-11.6703
arme	-11.6707
▁encontrará	-11.6707
basta	-11.6708
▁jenerozo	-11.6711
▁carajo	-11.6712
▁fases	-11.6712
iera	-11.6715
▁lastima	-11.6715
▁llegando	-11.6717
▁kuento	-11.6719
▁goza	-11.6719
▁depresión	-11.672
▁solucionar	-11.6722
▁enganyo	-11.6725
▁mantenido	-11.6727
▁infancia	-11.6728
▁avisa	-11.6729
▁arco	-11.6732
▁alba	-11.6734
▁ovligasiones	-11.6734
▁kulturales	-11.6735
▁keran	-11.6736
▁ttp	-11.6737
▁sesenta	-11.6738
▁macho	-11.674
▁caras	-11.674
▁peligrosa	-11.6743
▁philip	-11.6746
▁voluntario	-11.675
▁patio	-11.6751
▁matematikas	-11.6756
▁hablarle	-11.6756
▁condado	-11.6757
▁habitual	-11.6759
▁gobernar	-11.6765
▁artistos	-11.6767
▁ji	-11.6768
▁malaria	-11.6771
▁estrasburgo	-11.6774
▁núcleo	-11.6774
▁gasta	-11.6774
▁transformasion	-11.6775
yama	-11.6781
▁volvería	-11.6781
▁leyendo	-11.6782
▁tragedia	-11.6783
star	-11.6783
▁elaborasion	-11.6784
▁volveremos	-11.6784
▁lavori	-11.6785
▁arregla	-11.6785
▁química	-11.6785
eu	-11.6786
▁duración	-11.6788
▁pedazo	-11.6792
▁patten	-11.6793
▁regionales	-11.6794
cri	-11.6795
▁dichos	-11.6796
ld	-11.6797
▁argmento	-11.6802
▁redjionales	-11.6803
▁tornas	-11.6805
▁movil	-11.6808
▁isabel	-11.681
▁divorcio	-11.681
▁gratitud	-11.681
▁residencia	-11.6811
▁exkusa	-11.6811
▁maldichos	-11.6813
nti	-11.6813
ther	-11.6813
▁observado	-11.6817
▁baje	-11.6817
▁libera	-11.6817
▁atreves	-11.6817
▁stan	-11.6819
▁rescate	-11.682
▁retorno	-11.6821
▁jesse	-11.6822
far	-11.6822
▁virtual	-11.6823
steis	-11.6825
▁reglar	-11.6826
▁arroyo	-11.683
▁novela	-11.683
▁regrese	-11.6831
▁manten	-11.6833
▁kap	-11.6835
▁resaltar	-11.6835
▁solisitud	-11.6836
▁cuántos	-11.6836
▁equivoca	-11.6837
▁nesesariamente	-11.6838
▁abrió	-11.6838
▁estrecho	-11.6839
▁ol	-11.6839
hu	-11.6841
▁americana	-11.6842
▁extranyos	-11.6842
▁vidro	-11.6843
▁will	-11.6844
▁precisa	-11.6844
▁rechasar	-11.6844
▁traision	-11.6846
▁organizada	-11.6852
▁puedites	-11.6852
▁dejarme	-11.6853
▁solicitud	-11.6854
▁zorro	-11.6857
▁teme	-11.6857
▁trigo	-11.6859
▁cercano	-11.6861
▁pasaje	-11.6867
gran	-11.6868
▁ss	-11.6871
▁onze	-11.6875
▁logros	-11.6876
▁avlarle	-11.6878
▁habrán	-11.688
▁arrima	-11.6881
▁asentarse	-11.6882
▁apetese	-11.6884
▁tensión	-11.6885
▁apesta	-11.6887
▁armadas	-11.6889
▁probabilidades	-11.6889
▁inferiores	-11.689
▁meldando	-11.6891
▁brad	-11.6891
tera	-11.6894
cul	-11.6895
▁bilietoes	-11.6895
▁preokuparse	-11.6898
▁briya	-11.6898
iya	-11.69
▁oyeron	-11.69
▁pedronar	-11.6905
▁fórmula	-11.6912
▁decimos	-11.6915
▁eco	-11.6915
ora	-11.6915
uf	-11.6916
▁querrá	-11.6922
▁española	-11.6924
▁basados	-11.6925
▁destakar	-11.6926
▁fuelo	-11.6926
▁lobo	-11.6928
▁causado	-11.6929
▁pico	-11.6929
▁seguía	-11.6937
▁kontan	-11.6937
▁kezo	-11.6938
▁perspektivas	-11.6939
▁concierto	-11.6939
▁valientes	-11.6941
lista	-11.6942
▁kompuesto	-11.6942
▁utilizan	-11.6943
▁uzo	-11.6944
▁agotado	-11.6946
vel	-11.6948
▁nasyones	-11.6949
▁embajador	-11.695
▁brigada	-11.6951
▁kolokar	-11.6956
▁santos	-11.6959
▁eskonder	-11.696
ila	-11.6962
kada	-11.6963
▁kostar	-11.6964
▁actúa	-11.6964
▁kortes	-11.6969
▁top	-11.6969
▁autentiko	-11.697
▁ensenyanza	-11.697
▁entren	-11.6971
▁reflejo	-11.6972
▁relasionado	-11.6972
of	-11.6973
▁ling	-11.6973
▁eeb	-11.6973
▁permitame	-11.6974
▁djenetika	-11.6975
▁desidimos	-11.6976
▁éi	-11.6978
▁topas	-11.6979
▁duras	-11.6979
▁funsionan	-11.6981
fuera	-11.6983
▁necesariamente	-11.6985
▁peg	-11.6985
▁pasaria	-11.6986
▁longitud	-11.6987
▁pakto	-11.6988
▁tre	-11.699
▁gor	-11.6991
▁alumnos	-11.6992
▁levante	-11.6993
▁videos	-11.6993
▁serebral	-11.6994
▁nucleo	-11.6996
▁sotano	-11.6996
▁mires	-11.6996
▁povereto	-11.6998
lio	-11.6998
▁ks	-11.6999
▁billetes	-11.7
▁consideran	-11.7005
▁saludos	-11.7005
▁árabe	-11.7008
lí	-11.701
more	-11.701
▁azian	-11.7012
▁cohesión	-11.7015
▁cuarta	-11.7015
▁aparision	-11.7015
▁lentamente	-11.7019
▁elevar	-11.7022
▁cerebral	-11.7022
▁zu	-11.7022
▁maté	-11.7025
tty	-11.7026
tic	-11.7026
▁akompanya	-11.7026
▁empiegado	-11.7026
▁constantemente	-11.7029
▁extranjeros	-11.703
▁referente	-11.7031
▁http	-11.7031
▁delegasion	-11.7031
▁pasas	-11.7033
▁kargos	-11.7034
▁apareja	-11.7035
▁cigarrillos	-11.7035
▁modifikar	-11.7036
▁matates	-11.7036
▁rebeldes	-11.7041
▁id	-11.7042
▁helado	-11.7045
▁kukla	-11.7046
▁dominar	-11.7046
▁ondas	-11.7047
▁lecho	-11.7048
▁renunsiar	-11.7049
▁enkolgar	-11.7052
▁mande	-11.7052
▁ofender	-11.7054
▁botones	-11.7054
▁adaptar	-11.7055
▁avanzado	-11.706
▁koesion	-11.7062
▁construido	-11.7065
▁kritiko	-11.7065
dad	-11.7065
ándolo	-11.7068
▁depender	-11.7068
▁matemáticas	-11.7069
▁konvenio	-11.7074
▁tornaria	-11.7074
▁ensayos	-11.7077
▁rechazar	-11.7077
▁preocupada	-11.7078
▁ferrocarril	-11.7078
tido	-11.7079
▁eksperimentos	-11.7081
▁casó	-11.7082
bal	-11.7083
▁koma	-11.7083
▁im	-11.7084
▁kantidades	-11.7086
▁frutos	-11.7087
rado	-11.7092
▁convenio	-11.7093
▁matarte	-11.7094
▁inchar	-11.7095
viste	-11.7095
▁aguantar	-11.7097
▁reciben	-11.7097
▁aparta	-11.71
▁portreto	-11.71
tsu	-11.7102
▁encontraba	-11.7102
▁kolina	-11.7102
▁deseaba	-11.7104
conoces	-11.7106
▁funcionan	-11.7106
▁comparar	-11.7109
▁canadá	-11.7109
▁muryendo	-11.7109
▁musical	-11.711
▁postal	-11.7111
▁círculo	-11.7112
▁escándalo	-11.7112
▁averle	-11.7114
▁obreros	-11.7115
▁djoyas	-11.7116
▁marty	-11.7117
▁determinasion	-11.7117
▁londjitud	-11.7119
▁peshkar	-11.7119
▁selección	-11.7119
▁refudjio	-11.7119
▁komunikar	-11.7119
tikas	-11.7119
▁konfia	-11.712
▁sacó	-11.712
▁arko	-11.7121
▁listas	-11.7123
▁konstantemente	-11.7123
▁far	-11.7123
▁kondado	-11.7125
▁perspectivas	-11.7134
▁saint	-11.7134
bli	-11.7137
chen	-11.7138
▁once	-11.7139
▁kriminales	-11.7144
ksi	-11.7146
▁logró	-11.7147
▁miralo	-11.715
▁metemos	-11.7152
▁volante	-11.7154
▁deberán	-11.7155
▁lujo	-11.7155
▁ob	-11.7156
▁kro	-11.7156
▁delegación	-11.7157
▁intenciones	-11.7157
▁japonés	-11.7157
▁realizando	-11.7157
▁bey	-11.716
▁miami	-11.7164
▁koncluir	-11.7166
▁concurso	-11.7166
▁escribí	-11.7166
▁estuviste	-11.7167
▁desharme	-11.7167
▁kedamos	-11.7168
▁movimienan	-11.7168
mont	-11.7169
▁enyegar	-11.7171
▁apaga	-11.7173
dishitesh	-11.7177
▁hacían	-11.7179
▁elinor	-11.718
▁retira	-11.7181
▁sonreir	-11.7182
▁bol	-11.7182
▁dibujos	-11.7184
▁determinación	-11.7186
▁kur	-11.7191
▁diaria	-11.7191
▁proponer	-11.7192
▁adoptadas	-11.7193
▁sierre	-11.7194
▁interpretación	-11.7196
az	-11.7196
ant	-11.7198
▁eskritorio	-11.7198
▁bisikleta	-11.7199
▁preocuparse	-11.72
▁mintir	-11.7201
▁baker	-11.7207
▁argumento	-11.7208
dije	-11.7214
▁ardjentina	-11.7214
▁curar	-11.7214
▁armario	-11.7215
debo	-11.7217
▁kaminando	-11.7219
▁voluntaria	-11.722
▁muros	-11.7222
▁eslavos	-11.7222
▁dejará	-11.7222
▁destacar	-11.7223
▁pokito	-11.7224
▁muñeca	-11.7227
▁bicicleta	-11.7228
▁afektar	-11.7228
▁caminando	-11.7228
▁entisiones	-11.7229
▁sensibles	-11.723
▁adicional	-11.723
▁emma	-11.7231
▁orientasion	-11.7232
▁cole	-11.7232
▁amerikana	-11.7233
▁pongan	-11.7233
▁actriz	-11.7233
▁defisit	-11.7235
▁konosidos	-11.7236
adiós	-11.724
▁cargos	-11.7241
▁menciona	-11.7241
▁joan	-11.7241
▁desempenyo	-11.7243
▁conservar	-11.7243
▁dominasion	-11.7243
▁creó	-11.7244
▁suyas	-11.7244
▁krimenes	-11.7244
▁komparar	-11.7245
▁konsideran	-11.7246
▁relijiozo	-11.7247
▁ahorrar	-11.7247
▁konti	-11.7247
▁bou	-11.7247
▁jesús	-11.725
▁miró	-11.7252
és	-11.7253
▁liberalizasion	-11.7253
▁adams	-11.7256
▁mazalozo	-11.7257
▁pudieran	-11.7258
▁colgar	-11.7263
▁mag	-11.7264
▁evans	-11.7268
▁laboriozo	-11.7269
rí	-11.727
▁ponerme	-11.7271
▁konkurso	-11.7271
▁clasifikasion	-11.7277
low	-11.7278
▁olas	-11.7279
▁robó	-11.728
▁tela	-11.728
▁trama	-11.7283
▁lovo	-11.7283
▁electrónico	-11.7285
porqué	-11.7287
▁pizza	-11.7291
▁emitir	-11.7291
cuidado	-11.7291
bert	-11.7293
▁incluido	-11.7296
▁ferrokarril	-11.7298
▁sigui	-11.7298
▁iper	-11.7299
▁asperen	-11.73
▁noble	-11.73
ag	-11.7301
▁orientación	-11.7301
▁deside	-11.7301
▁preparación	-11.7302
▁eko	-11.7302
▁resiven	-11.7304
▁agregar	-11.7305
▁komp	-11.7307
▁traeré	-11.7308
▁up	-11.7308
▁rekomendasion	-11.7309
▁refugio	-11.731
mbi	-11.7312
▁lesión	-11.7313
▁pasaría	-11.7313
▁dizimos	-11.7314
▁malvado	-11.7315
▁honesto	-11.7315
▁garantia	-11.7315
▁cantidades	-11.7315
▁terrorista	-11.7316
▁relacionado	-11.7319
▁recomendación	-11.732
▁neuronas	-11.7321
▁ayúdame	-11.7321
▁dezeyar	-11.7322
▁poderosos	-11.7328
▁vinyera	-11.7329
▁renovables	-11.7332
▁preso	-11.7333
kg	-11.7334
▁populares	-11.7335
▁romanso	-11.7335
▁enseñanza	-11.7335
▁periodos	-11.7335
cado	-11.7336
▁eksplozion	-11.7337
ndje	-11.734
▁importalo	-11.7342
▁inglesa	-11.7342
▁asentimos	-11.7342
ett	-11.7344
▁mantena	-11.7346
▁interrogar	-11.7347
▁dividir	-11.7347
▁fijado	-11.7347
▁tru	-11.7349
▁edision	-11.7349
▁divina	-11.7349
▁colina	-11.7351
▁vigilar	-11.7353
▁violento	-11.7354
▁derivados	-11.7356
▁fuertemente	-11.7357
▁nací	-11.7358
▁sentimos	-11.7359
▁rompió	-11.736
▁observatorio	-11.736
▁usualmente	-11.736
▁garantía	-11.7364
▁edwadr	-11.7364
▁dominante	-11.7366
▁raíz	-11.7368
▁alimentación	-11.7369
jos	-11.737
▁presision	-11.7373
▁yevarme	-11.7373
ento	-11.7374
▁ensenya	-11.7375
▁cd	-11.7377
▁mensajero	-11.7377
▁crímenes	-11.7378
▁poquito	-11.7378
▁dedika	-11.7378
▁colocar	-11.7379
▁donantes	-11.738
▁radar	-11.7381
▁sencillamente	-11.7381
▁vegas	-11.7383
▁tire	-11.7384
▁alejado	-11.7384
▁maniobra	-11.7384
▁faltan	-11.7385
▁sentada	-11.7388
▁reconocido	-11.7393
sch	-11.7395
gro	-11.7397
▁desaparecer	-11.7397
▁recuerdas	-11.7399
▁estadísticas	-11.74
nita	-11.7401
▁pecado	-11.7403
▁puediamos	-11.7405
▁billete	-11.7406
dico	-11.7409
▁pedridas	-11.741
▁relevantes	-11.7411
▁yevi	-11.7413
▁adora	-11.7413
▁frutas	-11.7416
▁simpatiko	-11.7417
▁karen	-11.7423
▁supremo	-11.7427
▁perdida	-11.743
▁kultivo	-11.7433
▁vendría	-11.7433
▁siguia	-11.7434
▁almario	-11.7437
gia	-11.7438
▁específico	-11.7441
▁muera	-11.7441
▁provokar	-11.7443
lf	-11.7443
▁comporta	-11.7447
▁salyeron	-11.7448
▁plantear	-11.7448
▁ultra	-11.745
▁krese	-11.745
▁renunciar	-11.745
▁puedyeran	-11.7451
▁autopista	-11.7453
▁kos	-11.7453
▁sigaros	-11.7453
▁arrestado	-11.7454
▁naval	-11.7455
▁afektan	-11.7455
pueden	-11.7457
▁trua	-11.7458
tr	-11.7458
one	-11.7459
nce	-11.7459
▁jason	-11.746
▁kargar	-11.7461
▁asido	-11.7462
▁criminales	-11.7464
▁crece	-11.7464
▁adisional	-11.7466
▁imenso	-11.7466
▁encontraremos	-11.7469
▁especifiko	-11.7471
▁elektroniko	-11.7472
▁efisiente	-11.7472
▁anuncio	-11.7473
▁denunsia	-11.7476
▁enseñó	-11.7476
dl	-11.7476
▁aparejando	-11.7478
bio	-11.7481
▁respaldar	-11.7482
▁kobrar	-11.7482
▁adivinar	-11.7484
▁queso	-11.7485
▁afectan	-11.7485
▁salan	-11.7486
▁adelantado	-11.7487
▁aygamos	-11.7488
▁bebo	-11.7488
▁kamina	-11.7488
▁integrado	-11.7488
mat	-11.7489
▁kent	-11.7489
▁pacto	-11.7489
▁apropiada	-11.7489
▁considerable	-11.7492
▁tropikal	-11.7494
▁nasido	-11.7495
▁akabamos	-11.7497
▁presionar	-11.7499
▁juntar	-11.7499
▁extraños	-11.7501
▁experimentos	-11.7502
▁fué	-11.7502
osas	-11.7502
▁ayudó	-11.7505
▁masas	-11.7506
cú	-11.7507
▁gizar	-11.7508
▁estadistikas	-11.7514
dishites	-11.7514
▁kashas	-11.7515
▁oyó	-11.7515
▁peleas	-11.7516
▁manzana	-11.7522
▁ganan	-11.7522
▁mentales	-11.7525
dito	-11.7525
▁kri	-11.7526
▁acabamos	-11.7526
▁disenyar	-11.7528
▁esperen	-11.7528
▁vidjila	-11.7528
▁trui	-11.7529
zon	-11.753
▁kritikas	-11.753
▁tos	-11.7532
tá	-11.7532
▁musikal	-11.7533
▁editorial	-11.7533
▁integrar	-11.7533
▁th	-11.7534
▁precisión	-11.7535
▁injusto	-11.7535
▁vesino	-11.7535
▁cajas	-11.7536
nó	-11.7539
▁mataré	-11.754
▁vuelvan	-11.754
▁seka	-11.754
▁sed	-11.754
▁lograron	-11.7541
▁escritorio	-11.7541
▁kalendario	-11.7545
▁broadway	-11.7545
▁elaborado	-11.7545
▁akademia	-11.7547
▁muren	-11.7548
mpa	-11.7548
▁repito	-11.7549
▁preste	-11.7553
▁val	-11.7553
▁transision	-11.7555
▁konosyo	-11.7555
▁dejaste	-11.7555
om	-11.7557
▁diente	-11.7559
kua	-11.7559
▁gary	-11.7561
▁descrito	-11.7561
▁bailarina	-11.7563
▁pescar	-11.7563
▁vinieron	-11.7565
▁adicionales	-11.7567
▁est	-11.757
▁publicado	-11.7571
▁yeven	-11.7576
sobre	-11.7577
▁jurídica	-11.7578
▁buscaba	-11.7579
▁stres	-11.7581
▁mansana	-11.7582
▁hombro	-11.7582
▁hojas	-11.7584
dura	-11.7585
kti	-11.7588
▁tornates	-11.7588
▁mari	-11.7589
▁kinezos	-11.759
▁trampas	-11.7591
▁déficit	-11.7592
▁auténtico	-11.7592
▁separa	-11.7592
▁interacsion	-11.7593
▁celda	-11.7594
▁ovligar	-11.7595
▁comiendo	-11.7595
▁neo	-11.7595
▁hazinos	-11.7599
int	-11.76
▁kedava	-11.7602
▁novedad	-11.7603
▁permitió	-11.7605
▁rodjer	-11.7606
▁considerada	-11.7606
mit	-11.7607
cr	-11.7607
tino	-11.7608
▁jurídicos	-11.761
▁páginas	-11.7612
▁besar	-11.7613
kta	-11.7614
▁sótano	-11.7614
▁twitter	-11.7614
▁ekstension	-11.7614
lt	-11.7617
▁niega	-11.7621
én	-11.7623
▁war	-11.7623
▁concluir	-11.7624
▁sharaes	-11.7626
▁lavado	-11.7628
▁vaca	-11.763
▁tontería	-11.7632
mmer	-11.7633
▁fakultad	-11.7634
▁cuartel	-11.7634
▁obtuvo	-11.7634
éndose	-11.7637
▁obstakolos	-11.7637
▁diane	-11.7638
▁mediana	-11.7639
▁sintura	-11.7641
ab	-11.7642
▁oreja	-11.7643
ui	-11.7643
agora	-11.7644
▁akuedro	-11.7644
▁fotografias	-11.7645
▁intimidad	-11.7649
▁cuentan	-11.7652
▁tuyos	-11.7653
▁pariente	-11.7653
▁gasolina	-11.7654
▁obispo	-11.7654
▁robin	-11.7656
▁lukando	-11.7659
met	-11.7659
▁imp	-11.7661
▁sivilizasion	-11.7663
▁grizo	-11.7663
▁peores	-11.7664
▁señala	-11.7666
cor	-11.7667
▁kreerlo	-11.7668
▁velada	-11.7669
▁pusieron	-11.7672
▁junior	-11.7673
▁informal	-11.7673
▁soltero	-11.7674
▁diabetes	-11.7674
▁respectivamente	-11.7674
▁sufryo	-11.7674
▁remesas	-11.7674
▁esuchame	-11.7674
▁regulación	-11.7675
▁morales	-11.7677
▁permitirá	-11.7678
▁sugiero	-11.7679
▁podíamos	-11.768
▁causar	-11.7686
▁dejad	-11.7688
▁créditos	-11.7689
▁espantar	-11.7689
▁hayamos	-11.7691
▁modificar	-11.7694
▁recibo	-11.7694
▁prometí	-11.7694
▁bodas	-11.77
▁notado	-11.77
quieren	-11.77
▁kreditos	-11.7704
▁onesto	-11.7704
▁atensioos	-11.7704
▁explosión	-11.7704
▁filozofia	-11.7704
▁respektivamente	-11.7705
▁abashe	-11.7705
▁genes	-11.7706
▁secretaria	-11.7707
mia	-11.7707
▁adoro	-11.7707
▁stra	-11.771
ndome	-11.7711
▁selda	-11.7711
▁descubrí	-11.7714
▁aterrizaje	-11.7715
and	-11.7715
▁fibras	-11.7716
▁basadas	-11.7716
▁cómodo	-11.7716
▁sensiyamente	-11.7718
▁pilotos	-11.7719
nyo	-11.7721
▁academia	-11.7725
▁dormitorio	-11.7725
▁revolver	-11.7727
▁luchando	-11.773
▁demostraron	-11.7731
▁dinamika	-11.7732
▁pudieron	-11.7735
hara	-11.7735
ele	-11.7736
disheron	-11.7737
▁dizs	-11.7737
▁específicos	-11.774
▁juridikos	-11.7741
▁crean	-11.7741
▁griegos	-11.7747
▁aporta	-11.7749
ef	-11.7751
iste	-11.7752
▁cuidados	-11.7752
▁recoge	-11.7752
▁bilieto	-11.7753
▁cigarrillo	-11.7753
▁operadores	-11.7754
▁kopya	-11.7754
▁ajustar	-11.7755
inter	-11.7755
▁regresó	-11.7755
▁keriamos	-11.7755
▁pausa	-11.7755
▁ratones	-11.7757
▁internas	-11.7758
▁queríamos	-11.7761
▁merced	-11.7763
pat	-11.7767
▁elevados	-11.7767
▁indisios	-11.7768
▁determina	-11.7769
▁miller	-11.7772
▁valorar	-11.7773
sey	-11.7784
▁eficiente	-11.7784
▁cosecha	-11.7785
▁hipótesis	-11.7785
▁kabron	-11.7785
▁cogido	-11.7786
▁clasificación	-11.7786
▁enseña	-11.7787
▁inversores	-11.7788
▁love	-11.7789
▁negativas	-11.779
▁tina	-11.7791
▁diskulpas	-11.7791
jes	-11.7793
ndra	-11.7794
▁asociados	-11.7795
▁nautilus	-11.7795
▁conseguí	-11.7796
pal	-11.7797
▁kitate	-11.78
▁aparecer	-11.7802
▁sanciones	-11.7804
▁sima	-11.7804
▁kuadros	-11.7811
▁sensiya	-11.7812
▁konfirmar	-11.7814
▁instinto	-11.7815
▁liberalización	-11.7816
▁bovedad	-11.7816
▁renal	-11.7819
▁paises	-11.782
▁activo	-11.782
▁arruinado	-11.7821
▁tomada	-11.7821
▁comp	-11.7822
▁indicadores	-11.7823
▁sansiones	-11.7824
▁einstein	-11.7825
▁dispozar	-11.7825
▁resulte	-11.7826
▁gueso	-11.7826
▁rodillas	-11.7828
▁tejado	-11.7833
▁rokas	-11.7835
tadas	-11.7835
▁eficiencia	-11.7836
▁panorama	-11.7836
▁reglasion	-11.7839
▁ideales	-11.7841
▁hueso	-11.7845
▁tinta	-11.7846
▁plomo	-11.7848
▁provoca	-11.785
▁hablaremos	-11.7852
▁rabia	-11.7854
▁ombro	-11.7856
▁recurso	-11.7856
▁fianza	-11.7856
▁inclusion	-11.7857
▁invitasion	-11.7857
▁maldición	-11.786
▁lane	-11.7861
▁barry	-11.7862
clu	-11.7863
bon	-11.7865
mbre	-11.7866
▁descubrió	-11.7867
▁federasion	-11.7867
▁especifikos	-11.7872
▁konseder	-11.7872
▁bastantes	-11.7872
yes	-11.7872
▁negroes	-11.7873
▁quedamos	-11.7873
▁falsos	-11.7874
▁preve	-11.7874
▁win	-11.7874
▁facultad	-11.7875
▁dirigida	-11.7877
▁cima	-11.7878
djel	-11.7878
damente	-11.7879
▁miyer	-11.788
alo	-11.7884
▁goma	-11.7886
▁wei	-11.7886
▁aparición	-11.7887
▁vecino	-11.7888
▁konsiderable	-11.7888
ov	-11.7889
▁obstáculos	-11.7889
▁josep	-11.7893
▁nazis	-11.7897
▁civilización	-11.7898
▁oidos	-11.7902
▁investir	-11.7902
▁inteligentes	-11.7903
▁zar	-11.7904
▁krean	-11.7905
stein	-11.7906
▁rekurso	-11.7907
▁bosques	-11.7907
▁navaja	-11.7908
▁senyalo	-11.7908
▁investigador	-11.7908
▁rocas	-11.7909
zer	-11.7909
▁aventuras	-11.7911
▁implementar	-11.7918
▁heridas	-11.7919
▁boton	-11.792
▁mostraré	-11.7921
▁tratas	-11.7923
▁pal	-11.7923
▁emprender	-11.7925
▁case	-11.7926
▁gre	-11.7928
▁calendario	-11.7928
▁autentika	-11.7928
▁cultivo	-11.7929
▁soporta	-11.7929
▁valer	-11.7929
▁profil	-11.793
▁plazos	-11.7935
▁intelektual	-11.7937
▁vaka	-11.7937
▁mudo	-11.7939
▁cifra	-11.7939
dó	-11.7945
▁kat	-11.7945
▁transición	-11.7949
▁presidentes	-11.7949
▁proseder	-11.7949
▁escrita	-11.7949
▁kasados	-11.7949
▁intentaron	-11.7951
▁palma	-11.7951
▁zirko	-11.7953
talo	-11.7953
▁olvidarlo	-11.7954
▁específicas	-11.7954
▁partículas	-11.7959
▁pagaré	-11.7963
iz	-11.7967
▁mediterráneo	-11.7969
▁brooklyn	-11.7969
▁vigila	-11.797
▁buscado	-11.797
▁má	-11.7977
▁ger	-11.7979
▁hiper	-11.798
▁variar	-11.7982
▁sentirse	-11.7982
▁intelijentes	-11.7982
din	-11.7983
▁economías	-11.7986
▁juridika	-11.7987
▁virdjen	-11.7989
▁blokeo	-11.7989
▁trastornos	-11.7989
▁condenado	-11.7989
▁komenzi	-11.799
edad	-11.7991
▁disfraz	-11.7993
▁maletas	-11.7994
▁especifikas	-11.7998
pti	-11.7999
▁garon	-11.8003
ec	-11.8005
▁dorado	-11.8006
entiendes	-11.8009
pó	-11.801
▁rubia	-11.8012
▁tuviste	-11.8012
▁bert	-11.8012
▁rekoos	-11.8012
▁adisionales	-11.8013
▁encuentras	-11.8015
▁intensa	-11.8019
▁wayne	-11.8019
▁viniera	-11.8019
▁savian	-11.802
▁comprende	-11.8021
▁sostenibilidad	-11.8021
▁agalo	-11.8021
▁invertir	-11.8021
▁reducido	-11.8022
uda	-11.8023
▁rye	-11.8023
▁transforma	-11.8028
▁pul	-11.8029
▁moy	-11.8029
▁abdominal	-11.803
▁blue	-11.803
▁kuartel	-11.8031
▁katerine	-11.8032
▁mantenyo	-11.8033
▁hoja	-11.8034
▁djenes	-11.8035
▁konfesar	-11.8035
▁okulta	-11.804
▁owadr	-11.8041
▁bivyo	-11.8042
▁generaciones	-11.8043
▁diridjida	-11.8044
▁cemento	-11.8045
▁eterno	-11.8045
▁severa	-11.8048
desgraciadamente	-11.8048
▁sudor	-11.8051
▁ipotesis	-11.8052
▁err	-11.8057
▁materna	-11.8057
▁zoo	-11.806
▁disparado	-11.806
illas	-11.8061
▁beisbol	-11.8063
▁filosofía	-11.8063
▁yugoslavia	-11.8063
▁partikulas	-11.8065
▁pla	-11.8068
▁ekonomias	-11.8068
▁trasladar	-11.8071
▁dylan	-11.8073
▁koridor	-11.8073
▁yevarlo	-11.8074
▁diseñar	-11.8075
▁dental	-11.8076
▁llorando	-11.8076
▁yorando	-11.8076
▁alkansa	-11.8078
trá	-11.8078
▁portero	-11.8079
djia	-11.8081
▁flujos	-11.8082
▁resibo	-11.8084
▁enfadado	-11.809
▁oes	-11.8092
▁gani	-11.8092
▁triple	-11.8093
▁darnos	-11.8094
▁descripción	-11.8095
▁torres	-11.8096
▁quiénes	-11.8096
▁mueren	-11.8096
▁liberasion	-11.8098
sil	-11.8098
▁dormida	-11.8098
▁categorías	-11.8098
sigue	-11.81
▁retrasar	-11.8102
▁incluidas	-11.8103
▁konfusion	-11.8103
▁gama	-11.8104
▁sekretea	-11.8105
ándonos	-11.8105
▁intenso	-11.8106
▁trozo	-11.8106
▁rovaron	-11.8112
▁liviano	-11.8112
▁antojos	-11.8114
▁persepsion	-11.8114
▁serios	-11.8115
▁tendriamos	-11.8115
▁centrales	-11.8115
▁servirá	-11.8116
▁europol	-11.8116
▁casados	-11.8117
osos	-11.8117
▁oyan	-11.8117
dic	-11.8117
▁reunirse	-11.8117
org	-11.812
eria	-11.8122
▁irene	-11.8122
▁kategorias	-11.8123
ani	-11.8125
▁noventa	-11.8126
▁borrar	-11.8126
▁temperaturas	-11.8126
▁cargar	-11.8127
eando	-11.8128
gri	-11.8129
▁edades	-11.8129
rs	-11.8131
ity	-11.8132
▁gala	-11.8133
▁champan	-11.8135
▁salo	-11.8136
▁transformación	-11.8137
▁kemar	-11.8138
▁temores	-11.8138
▁kolonya	-11.8139
▁arro	-11.8139
fran	-11.814
kur	-11.8141
▁instalasiones	-11.8142
▁indikadores	-11.8143
▁komunitarias	-11.8145
▁barselona	-11.8146
▁cabaña	-11.8146
▁troke	-11.8147
▁muriendo	-11.8147
▁instalaciones	-11.8147
▁alimentasion	-11.8148
ou	-11.8149
▁referirme	-11.8153
pie	-11.8155
▁rechazado	-11.8156
▁enterado	-11.8157
▁lukso	-11.8157
▁marinos	-11.8158
▁asegra	-11.8159
▁afectados	-11.816
▁asesinos	-11.8162
entre	-11.8163
▁indican	-11.8165
▁rama	-11.8167
▁percepción	-11.8168
▁incluida	-11.8169
▁bushkamos	-11.8171
▁manta	-11.8172
▁karreras	-11.8174
▁pasi	-11.8176
▁especifika	-11.8177
▁pedryeron	-11.8178
▁pasillo	-11.8181
nov	-11.8181
▁valen	-11.8181
▁keridos	-11.8183
▁provecho	-11.8184
▁asasinado	-11.8189
▁pylori	-11.8189
▁christian	-11.8189
▁definitivo	-11.8189
▁dinámica	-11.8189
▁entrenar	-11.8189
▁pistolas	-11.819
▁cobrar	-11.8191
▁detectar	-11.8193
▁sentarse	-11.8195
dishimos	-11.8196
▁ans	-11.8197
▁kobra	-11.8199
▁territorial	-11.8201
▁asentirse	-11.8205
▁entré	-11.8207
▁gesto	-11.8209
▁inclusión	-11.821
▁japoneses	-11.821
▁patruya	-11.8212
my	-11.8213
▁otorga	-11.8213
▁ovliga	-11.8215
▁sensato	-11.822
▁frankamente	-11.8221
▁tarda	-11.8222
▁indikar	-11.8223
▁ly	-11.8225
▁spe	-11.8225
▁divertida	-11.8226
▁temia	-11.8227
▁retener	-11.8228
▁registros	-11.8232
▁roger	-11.8238
▁trokando	-11.8238
▁grabado	-11.8238
▁lenguas	-11.824
djie	-11.8241
▁fan	-11.8244
▁deposito	-11.8244
▁peleando	-11.8244
▁taberna	-11.8252
▁ascensor	-11.8252
▁acp	-11.8255
pé	-11.8257
bor	-11.826
ikas	-11.8261
▁sencilla	-11.8262
▁kabanya	-11.8263
▁promoción	-11.8263
rada	-11.8264
pol	-11.8265
▁señalado	-11.8268
▁parker	-11.8268
▁deseamos	-11.8271
gel	-11.8272
▁toparlo	-11.8272
▁warren	-11.8274
▁pavos	-11.8274
ib	-11.8276
▁corazones	-11.8276
datesh	-11.828
▁mensiona	-11.8284
▁cañón	-11.8284
▁ópera	-11.8284
▁wiyiams	-11.8285
▁gigante	-11.8287
▁quinto	-11.8289
▁destinadas	-11.8295
▁korrupsion	-11.8295
▁kuarenta	-11.8295
▁soviética	-11.8295
▁pablo	-11.8295
cía	-11.8295
▁llevarlo	-11.8297
▁fassinante	-11.8297
▁huevo	-11.8298
▁blake	-11.8298
▁tradisionales	-11.8299
▁tradicionales	-11.8299
▁diosa	-11.83
▁lentes	-11.8301
▁cuyos	-11.8302
▁afektados	-11.8302
▁misterioso	-11.8303
▁opuesto	-11.8304
▁parlamentario	-11.8305
▁sentrales	-11.8307
▁louise	-11.8307
▁esclavos	-11.8308
▁incidente	-11.8309
▁lanso	-11.8309
▁oculta	-11.831
▁legalmente	-11.831
▁interesada	-11.8311
▁significativo	-11.8311
cle	-11.8312
▁adoptada	-11.8312
▁ayudarnos	-11.8312
▁chantaje	-11.8313
tenía	-11.8314
▁complejidad	-11.8316
▁efisiensia	-11.8316
▁street	-11.8316
▁harías	-11.8316
éramos	-11.8317
▁intelectual	-11.8317
▁dedicado	-11.8322
▁exigencias	-11.8322
▁empesan	-11.8323
▁carreras	-11.8325
▁adónde	-11.8326
▁kodji	-11.8327
▁raton	-11.8327
▁sabor	-11.8328
fin	-11.8329
▁asar	-11.8337
▁mediterraneo	-11.8337
▁inaseptable	-11.8337
▁conceder	-11.8339
▁panel	-11.8344
▁partis	-11.8345
dina	-11.8345
aga	-11.8345
▁misiles	-11.8353
▁comunitarias	-11.8357
▁acompañar	-11.8357
▁absurdo	-11.8359
▁leones	-11.8359
▁francamente	-11.836
ob	-11.836
▁ingleses	-11.8363
▁guevo	-11.8363
▁cumple	-11.8364
▁déjenme	-11.8365
▁efectiva	-11.8365
▁eksplorar	-11.8365
▁modifikasion	-11.8369
▁absudro	-11.837
▁disparó	-11.837
▁comunicaciones	-11.837
▁dedica	-11.8372
▁dezeyamos	-11.8372
▁sedros	-11.8374
▁nab	-11.8374
▁sopla	-11.8377
▁gui	-11.8377
▁reservado	-11.8378
▁dizian	-11.8379
▁sinseramente	-11.838
▁paraíso	-11.8381
▁indikan	-11.8381
▁golpeo	-11.8382
bia	-11.8382
▁encuesta	-11.8383
▁entramos	-11.8384
ins	-11.8385
▁lavoramos	-11.8387
▁urbanos	-11.8387
▁kulevra	-11.839
▁abasho	-11.8391
▁validjas	-11.8392
▁pes	-11.8392
▁propaganda	-11.8394
▁resivimos	-11.8394
▁confesar	-11.8395
▁jodido	-11.8397
▁granjero	-11.8398
▁denuncia	-11.84
▁aten	-11.8402
▁cementerio	-11.8402
▁inaceptable	-11.8402
▁liberación	-11.8403
▁karter	-11.8404
▁arreglarlo	-11.8405
▁kometer	-11.8405
▁vehículo	-11.8406
▁veikulo	-11.8406
▁konkretas	-11.8406
▁ajena	-11.8406
▁lidiar	-11.8408
▁entere	-11.8408
▁sifra	-11.8409
▁young	-11.8411
▁elena	-11.8412
▁extensión	-11.8413
▁malorozamente	-11.8413
▁fondasion	-11.8413
▁llevé	-11.8413
▁imponer	-11.8415
▁eksplotar	-11.8415
dice	-11.8417
▁requieren	-11.8418
▁enfadar	-11.8419
▁merka	-11.8419
▁sm	-11.8423
▁howard	-11.8424
▁empiezan	-11.8424
▁violenta	-11.8426
▁humanas	-11.8427
▁echaron	-11.8429
▁enfrentarse	-11.843
▁korektamente	-11.8434
▁piskueso	-11.8434
▁criaturas	-11.8435
▁fostanos	-11.8437
▁obtene	-11.8438
▁maya	-11.844
▁instalar	-11.8442
▁konte	-11.8442
▁tomarse	-11.8444
▁stu	-11.8444
▁sovrino	-11.8445
▁seattle	-11.8448
▁pondrá	-11.8451
▁tipiko	-11.8451
bili	-11.8452
▁asosiados	-11.8452
▁cabezas	-11.8453
cina	-11.8453
▁rocky	-11.8455
logía	-11.8457
▁columna	-11.846
▁valiosa	-11.846
▁rumor	-11.8461
▁komposision	-11.8467
▁estrés	-11.8467
▁pegado	-11.8469
▁djiro	-11.847
▁mejorando	-11.847
▁correctamente	-11.8473
▁bos	-11.8474
▁ekivoko	-11.8478
▁patrulla	-11.8478
▁abogados	-11.8481
supo	-11.8484
▁tontos	-11.8486
▁cuente	-11.8487
▁plumas	-11.8487
▁mersed	-11.8488
▁fabuloso	-11.8489
▁famoza	-11.8489
▁conocidos	-11.8489
▁canto	-11.8489
▁supuestamente	-11.849
▁concretas	-11.8491
▁rekeren	-11.8493
▁crítico	-11.8493
▁respetable	-11.8494
▁proceder	-11.8496
▁djesto	-11.8496
▁asasinos	-11.8496
cular	-11.8498
▁emprestado	-11.8499
▁edición	-11.8499
▁indicar	-11.8501
▁buscamos	-11.8502
ática	-11.8502
▁apuntar	-11.8504
▁djigante	-11.8504
▁funda	-11.8505
▁acseder	-11.8505
▁jenerasiones	-11.8506
▁vuelos	-11.8506
▁aman	-11.8507
▁específica	-11.8512
▁joseph	-11.8514
▁vano	-11.8514
▁rasgos	-11.8515
▁histórico	-11.8515
▁she	-11.8515
eto	-11.8516
▁venser	-11.8523
▁pieles	-11.8525
▁yamaron	-11.8525
▁vyera	-11.8526
▁demandates	-11.8526
▁aburrida	-11.8527
▁sigaro	-11.8529
pt	-11.8529
▁formato	-11.853
▁apoyado	-11.8533
▁cometer	-11.8535
▁insidente	-11.8537
▁críticas	-11.8538
▁pulmones	-11.8538
▁spa	-11.8538
▁estrechamente	-11.8539
▁pensates	-11.8539
▁corrupción	-11.8543
▁komplejidad	-11.8543
▁interacción	-11.8543
▁espia	-11.8543
▁virgen	-11.8544
▁radiasion	-11.8544
▁sinceramente	-11.8545
▁kedese	-11.8546
▁asegura	-11.8547
▁decían	-11.8549
▁obtiene	-11.855
▁tratarse	-11.8551
oo	-11.8552
▁bandidos	-11.8552
▁umanas	-11.8552
▁padje	-11.8554
▁aluengas	-11.8554
▁ganeden	-11.8554
▁coja	-11.8556
▁rata	-11.8562
▁comen	-11.8564
▁espectro	-11.8565
▁enkargado	-11.8565
▁serven	-11.8566
▁llevarme	-11.8568
▁rompi	-11.8569
▁plástico	-11.857
▁suelto	-11.8571
▁semento	-11.8571
▁consta	-11.8572
▁mutua	-11.8573
▁miri	-11.8573
fal	-11.8574
ite	-11.8575
▁sanos	-11.8576
▁blonda	-11.8576
▁assensor	-11.8578
▁fascinante	-11.8578
▁fusion	-11.858
▁patentes	-11.8583
▁vayase	-11.8584
▁intentaré	-11.8587
▁kennedy	-11.8587
▁entendyo	-11.8587
▁generoso	-11.8587
▁josé	-11.8587
bol	-11.8588
▁unida	-11.8588
▁modernos	-11.8589
▁proteínas	-11.8591
bby	-11.8593
▁camina	-11.8594
html	-11.8594
▁soga	-11.8595
▁empezaron	-11.8595
▁cos	-11.8597
mita	-11.8598
▁entretenimiento	-11.8598
▁flexibilidad	-11.8598
ist	-11.8598
▁olvidemos	-11.8598
▁botón	-11.8598
▁rigor	-11.8599
▁sabían	-11.8599
cuáles	-11.86
▁sabia	-11.8601
▁cobra	-11.8602
▁versiones	-11.8605
▁nasa	-11.8605
▁kolona	-11.8606
▁komensaron	-11.8608
▁vacía	-11.8609
▁asesor	-11.8609
▁chinos	-11.8611
▁sonda	-11.8612
mático	-11.8616
▁kriaturas	-11.8616
▁kase	-11.8616
▁colonia	-11.862
▁kuba	-11.8621
▁relato	-11.8621
▁bebés	-11.8621
▁mediodía	-11.8624
▁alishtereado	-11.8626
▁enamora	-11.8627
▁posada	-11.8628
▁williams	-11.863
▁betahayim	-11.8631
▁opino	-11.8631
pos	-11.8633
▁tunel	-11.8634
▁encarga	-11.8635
▁provocar	-11.8635
▁típico	-11.8637
▁brandy	-11.8637
▁hijas	-11.8638
▁pulmonar	-11.864
▁llevarla	-11.864
▁orleans	-11.8642
▁productividad	-11.8642
▁sudjiero	-11.8642
▁usada	-11.8643
▁chuck	-11.8645
▁tadra	-11.8645
▁serro	-11.8645
▁fotografías	-11.8646
▁hall	-11.8646
▁selva	-11.8646
▁signifikativo	-11.8648
▁plastiko	-11.8648
▁comodo	-11.8649
▁piratas	-11.8649
▁muda	-11.8652
rna	-11.8653
▁sobrino	-11.8653
▁fogg	-11.8654
▁criterio	-11.8656
▁movimientose	-11.8656
▁rekisitos	-11.8657
▁esconde	-11.8658
▁positivos	-11.8658
qu	-11.8659
▁intentava	-11.8659
▁contaré	-11.866
▁atravesar	-11.866
▁kriter	-11.8662
▁lateral	-11.8663
▁atrapa	-11.8663
▁ruptura	-11.8664
▁laeken	-11.8665
▁levantado	-11.8665
▁pongas	-11.8665
▁kavesas	-11.8665
▁invitación	-11.8666
▁escape	-11.8667
▁ayuden	-11.8668
▁estructural	-11.8668
▁dejemos	-11.8672
▁estuvieron	-11.8672
▁jefferson	-11.8675
▁nelson	-11.8675
▁alojamiento	-11.8676
▁cer	-11.8676
▁quedaba	-11.8677
▁cambiando	-11.8679
▁fuistes	-11.8679
yar	-11.868
▁arroja	-11.8682
▁sanidad	-11.8683
▁proibido	-11.8683
▁rob	-11.8684
▁ep	-11.8686
▁espektro	-11.8686
▁reushyo	-11.8686
▁exigir	-11.8686
▁eksseso	-11.8686
▁muelle	-11.8686
adores	-11.8689
▁efektiva	-11.8689
▁escapa	-11.869
▁nobel	-11.8691
▁eksidjensias	-11.8691
▁insendio	-11.8693
▁apartamentos	-11.8695
▁furia	-11.8696
▁gafas	-11.8697
▁arestar	-11.87
▁opinas	-11.8701
▁británicos	-11.8701
▁amarillo	-11.8701
buenas	-11.8702
▁aliviar	-11.8706
▁korasones	-11.8707
▁abasha	-11.8707
▁negosiasion	-11.8708
▁pakistan	-11.8708
▁manchas	-11.8709
▁nazi	-11.8709
▁serpiente	-11.8709
▁eventualmente	-11.871
▁okupasion	-11.8712
▁ruinas	-11.8713
▁cuba	-11.8715
▁provoka	-11.8716
▁aziendolo	-11.8718
ándote	-11.8718
▁computadoras	-11.8718
mber	-11.8719
▁ekspansion	-11.872
▁otoño	-11.872
arios	-11.8723
▁komunikasiones	-11.8725
▁alterar	-11.8726
▁descubrimiento	-11.8727
▁anglo	-11.8727
▁referido	-11.8728
▁remo	-11.8731
▁barcelona	-11.8731
▁pika	-11.8734
fisi	-11.8735
▁astuto	-11.8738
▁oimos	-11.8739
▁otonyo	-11.8742
▁viera	-11.8742
▁ml	-11.8743
▁diera	-11.8743
▁ganamos	-11.8744
▁mantenerlo	-11.8745
▁baila	-11.8745
lita	-11.8745
▁tomarlo	-11.8745
tica	-11.8746
▁esenciales	-11.8748
bla	-11.875
▁administrativa	-11.8751
▁markas	-11.8751
hey	-11.8752
mine	-11.8752
▁orgyosa	-11.8753
▁produktividad	-11.8753
▁tiempas	-11.8754
▁detektar	-11.8754
ktor	-11.8755
entes	-11.8755
ize	-11.8756
▁deskansa	-11.8757
▁requisitos	-11.8757
▁fri	-11.8759
▁deskubrimiento	-11.876
▁manga	-11.8762
▁alegrar	-11.8763
▁subyo	-11.8764
▁ginebra	-11.8764
▁atractiva	-11.8764
▁rekonstrucsion	-11.8764
usa	-11.8766
▁sirven	-11.8766
▁lata	-11.877
▁lanzado	-11.8771
▁viraje	-11.8771
▁yu	-11.8772
▁amada	-11.8772
▁gol	-11.8773
▁sindrome	-11.8775
▁caminos	-11.8776
▁komyo	-11.8777
▁aguanta	-11.8778
▁dishimos	-11.8779
▁infinito	-11.878
▁bond	-11.8781
▁atrae	-11.8782
▁presentaron	-11.8783
▁menuda	-11.8784
dates	-11.8785
▁bayla	-11.8785
▁sovietika	-11.8787
▁walker	-11.8787
▁cro	-11.8787
▁golpeado	-11.8787
▁yevarse	-11.8788
▁avergonzado	-11.879
▁marcas	-11.8791
▁síndrome	-11.8791
▁kumple	-11.8792
fre	-11.8794
▁aedado	-11.8794
▁anciano	-11.8794
ev	-11.8796
▁establesido	-11.8796
ach	-11.8797
▁japonezoes	-11.8797
▁brindis	-11.8798
))	-11.8798
▁federación	-11.8798
ata	-11.8799
▁ruina	-11.8799
▁reportes	-11.8799
▁prometió	-11.88
▁jun	-11.8801
▁angel	-11.8802
▁trabajamos	-11.8803
▁dominio	-11.8804
▁proteinas	-11.8804
ónico	-11.8805
eb	-11.8805
▁conscientes	-11.8807
▁supozar	-11.8807
▁eksidjir	-11.8807
▁kontando	-11.8808
▁mueye	-11.8809
▁kurt	-11.881
brien	-11.8811
▁good	-11.8813
▁frecuente	-11.8813
▁dispoza	-11.8815
▁izlas	-11.8816
▁kaptura	-11.8816
ral	-11.8817
▁flo	-11.8818
▁ingresar	-11.8818
▁emplea	-11.8819
▁publikar	-11.882
▁fleksibilidad	-11.882
▁stryet	-11.882
▁asentyo	-11.882
niko	-11.8823
▁zi	-11.8827
▁esensiales	-11.8827
▁alfred	-11.883
▁exceso	-11.8831
▁konssientes	-11.8833
▁aksepta	-11.8833
▁rut	-11.8833
▁miraba	-11.8835
▁recuerden	-11.8836
▁secreta	-11.8836
▁madura	-11.8838
▁kalkolo	-11.8839
kado	-11.884
▁taya	-11.8841
▁aganta	-11.8841
▁papas	-11.8841
▁circo	-11.8843
▁champán	-11.8843
▁oficio	-11.8843
▁natal	-11.8843
▁gripe	-11.8843
▁ofisio	-11.8843
▁grabar	-11.8847
▁curva	-11.8848
▁estudiado	-11.8848
▁fra	-11.8849
▁incendio	-11.8851
▁istoriko	-11.8851
▁calmate	-11.8851
▁sagrada	-11.8851
▁parlamentarios	-11.8851
▁acceder	-11.8852
▁pudimos	-11.8854
ux	-11.8855
▁detenyo	-11.8855
▁elaine	-11.8855
▁limitaciones	-11.8855
▁gases	-11.8856
tuvimos	-11.8859
▁mula	-11.8861
▁tomate	-11.8862
▁optimista	-11.8862
▁windows	-11.8865
▁pagando	-11.8866
▁akodren	-11.8867
▁desesperada	-11.8869
▁use	-11.887
▁dí	-11.8871
▁claras	-11.8873
▁tose	-11.8873
ndi	-11.8874
▁bloque	-11.8875
▁asa	-11.8877
▁conveniente	-11.8877
parece	-11.8877
▁usó	-11.8879
▁avokatos	-11.8882
▁kondenado	-11.8883
▁jornada	-11.8885
▁negosiar	-11.8885
▁azules	-11.8885
▁definido	-11.8885
▁captura	-11.8885
▁chechenia	-11.8888
▁eternidad	-11.8888
▁gerras	-11.889
▁darwin	-11.8891
▁provisiones	-11.8891
uro	-11.8893
▁desempenyar	-11.8893
▁traeme	-11.8894
▁administrar	-11.8894
▁genética	-11.8895
▁usados	-11.8895
▁tomás	-11.8895
▁enkarga	-11.8896
▁aumentado	-11.8898
▁funsiono	-11.8899
▁divino	-11.8902
▁finansiar	-11.8904
tados	-11.8905
▁komentario	-11.8908
▁dibujar	-11.8908
▁shock	-11.8909
▁ochenta	-11.8912
▁kreado	-11.8912
vida	-11.8912
fir	-11.8912
rika	-11.8918
▁mezclas	-11.8918
▁cálculo	-11.8919
▁komputadoras	-11.8919
▁explorar	-11.8921
▁fiks	-11.8921
▁artifisial	-11.8922
▁feridas	-11.8924
▁bloqueo	-11.8924
▁elefantes	-11.8925
luc	-11.8927
izó	-11.8927
▁confirmar	-11.8927
jar	-11.8927
▁cuarenta	-11.8929
▁sebastian	-11.8933
▁comencé	-11.8933
▁eksclusion	-11.8933
▁plaka	-11.8935
▁acompaña	-11.8938
▁granjeros	-11.8941
▁mínima	-11.8942
▁djinebra	-11.8945
▁disfruta	-11.8946
▁publikasion	-11.8946
▁anota	-11.8947
▁jugada	-11.8947
▁fusil	-11.8949
▁moverse	-11.8949
▁confusión	-11.8951
kel	-11.8951
cta	-11.8951
pá	-11.8952
▁arre	-11.8956
▁dinamarka	-11.8956
▁escapó	-11.8956
uma	-11.8956
▁temía	-11.8957
▁autorizasion	-11.8957
▁ag	-11.8961
▁pases	-11.8964
▁mosa	-11.8964
realmente	-11.8965
▁eskrivyendo	-11.8967
▁alkunya	-11.8967
▁gro	-11.8968
▁tiraron	-11.8969
▁repugnante	-11.897
árselo	-11.8971
▁direktivas	-11.8975
▁orgullosa	-11.8976
▁frekuente	-11.8978
▁escuchen	-11.8978
▁inesperado	-11.8979
▁aborto	-11.8979
▁queja	-11.8981
▁deseable	-11.8983
icos	-11.8984
▁enfermos	-11.8984
llama	-11.8984
▁green	-11.8985
ahí	-11.8987
▁hollywood	-11.899
▁komplase	-11.899
▁darán	-11.8991
▁interpreta	-11.8994
▁elektro	-11.8997
▁inkrementar	-11.8997
▁camaras	-11.8998
▁agrikolas	-11.9001
▁orquesta	-11.9002
▁samurai	-11.9002
▁explotación	-11.9002
▁contratar	-11.9008
debería	-11.9011
▁comentario	-11.9011
▁móvil	-11.9013
▁biodiversidad	-11.9013
▁escucho	-11.9013
▁composición	-11.9013
▁descansa	-11.9014
▁cerdos	-11.9015
▁komunista	-11.9017
▁mont	-11.902
▁aislado	-11.9023
▁fal	-11.9024
supyeron	-11.9025
▁modificación	-11.9025
▁pida	-11.9027
▁espantoso	-11.9027
▁observamos	-11.9028
▁komen	-11.9029
,"""	-11.9034
▁orkesta	-11.9036
▁kuanta	-11.9037
""""!"""	-11.9037
▁eksclusivamente	-11.9038
▁iris	-11.9039
respondió	-11.9043
▁enojada	-11.9044
▁explotar	-11.9045
▁judío	-11.9046
▁reglamentos	-11.9047
▁vives	-11.9047
▁negociación	-11.9048
▁ayegates	-11.9049
▁trump	-11.9049
▁east	-11.9052
▁traigan	-11.9052
▁danesa	-11.9052
▁metimos	-11.9053
▁fiestas	-11.9053
▁grand	-11.9059
▁huelga	-11.9059
▁empese	-11.9062
▁ramos	-11.9062
pasa	-11.9062
▁salve	-11.9062
day	-11.9063
▁denominado	-11.9065
▁aleja	-11.9066
▁bakterias	-11.9069
ire	-11.907
▁macleod	-11.9071
▁oywood	-11.9077
▁amatar	-11.908
▁flecha	-11.9082
▁tour	-11.9082
▁auténtica	-11.9082
▁relieve	-11.9082
▁utilizó	-11.9082
▁kit	-11.9084
▁marchar	-11.9086
▁vais	-11.9087
▁banka	-11.9088
▁koro	-11.9091
▁estruktural	-11.9093
▁cabrón	-11.9094
▁obligar	-11.9094
▁national	-11.9094
dica	-11.9096
▁sospechosos	-11.9097
▁pantano	-11.9098
▁atrapados	-11.9099
▁retirado	-11.91
▁puedias	-11.91
▁plaga	-11.9101
▁tiempa	-11.9104
▁símbolo	-11.9104
▁oscura	-11.9104
▁ofryo	-11.9105
▁corbata	-11.9105
▁reconstrucción	-11.9105
▁criado	-11.9106
▁negociar	-11.9106
▁pra	-11.9107
▁mirava	-11.9107
▁pene	-11.9108
▁series	-11.9111
▁laboratorios	-11.9113
▁ansioso	-11.9116
▁nemo	-11.9116
▁espantavle	-11.9117
▁portofolio	-11.9117
miko	-11.9118
▁avyendo	-11.9119
▁exclusivamente	-11.9119
▁kravata	-11.9119
▁almacen	-11.9123
tenido	-11.9128
▁fibra	-11.9128
▁insoportable	-11.9128
▁aparejo	-11.9128
▁coraje	-11.9129
▁porqué	-11.9134
▁uvyeramos	-11.9136
▁neutral	-11.9137
▁guerras	-11.9137
▁pis	-11.9137
▁preparando	-11.9138
▁martha	-11.9141
▁retirarse	-11.9141
▁umoes	-11.9141
▁carter	-11.9142
ines	-11.9142
ala	-11.9142
▁kamarada	-11.9144
▁ofren	-11.9145
▁mostrarles	-11.9145
▁botikas	-11.9146
▁suban	-11.9147
cida	-11.9148
▁trokaron	-11.9148
▁ekspektativas	-11.915
▁biva	-11.9151
▁ekspreso	-11.9152
ds	-11.9155
pl	-11.9155
▁rita	-11.9157
▁acabará	-11.9158
▁segido	-11.9159
▁pet	-11.916
▁escolar	-11.9163
▁uelga	-11.9164
pio	-11.9165
▁fundación	-11.9165
dez	-11.9166
▁agrícolas	-11.9167
▁entrego	-11.9167
▁pedroname	-11.9168
tribu	-11.9168
▁desafíos	-11.9169
ane	-11.9169
▁ocupar	-11.9171
▁preferido	-11.9171
▁basika	-11.9171
▁atraktiva	-11.9175
▁paradigma	-11.9175
▁bastadro	-11.9176
▁arrankar	-11.9179
▁viya	-11.9182
▁bivi	-11.9182
lasion	-11.9183
▁comunista	-11.9184
▁transporta	-11.9184
▁fiscales	-11.9186
▁kogyo	-11.9187
▁publicación	-11.9187
▁kauso	-11.9188
▁komunitarios	-11.9189
▁konsejos	-11.919
▁bru	-11.9192
▁entenda	-11.9192
▁investiga	-11.9193
mpo	-11.9194
▁cuán	-11.9195
▁rekomenda	-11.9196
▁financiar	-11.9196
▁crónica	-11.9198
▁apple	-11.9198
▁kaminos	-11.92
ture	-11.92
▁delikado	-11.9201
▁simbolo	-11.9201
▁pisa	-11.9202
▁tro	-11.9203
▁besa	-11.9203
▁llenar	-11.9205
▁esensia	-11.9207
recuerda	-11.9207
▁artificial	-11.921
▁técnicos	-11.9211
▁desesperado	-11.9211
▁tiendas	-11.9212
▁novedades	-11.9212
▁litros	-11.9213
▁mandado	-11.9215
▁tensiones	-11.9217
▁tomará	-11.9218
▁marineros	-11.9219
▁sabiduria	-11.9222
▁operativo	-11.9222
▁forense	-11.9222
▁kronika	-11.9223
▁olviden	-11.9224
fon	-11.9224
zó	-11.9226
▁lineal	-11.9226
▁aires	-11.9227
cón	-11.9227
oli	-11.9228
▁kreando	-11.9228
▁limitasiones	-11.9229
▁traversar	-11.923
▁morirá	-11.9231
▁externa	-11.9232
scrib	-11.9232
▁despegar	-11.9233
▁informo	-11.9233
▁adaptasion	-11.9234
▁batman	-11.9235
▁liberado	-11.9238
rca	-11.9241
▁directivas	-11.9242
▁villa	-11.9245
▁divertirse	-11.9245
▁koraje	-11.9246
▁cámaras	-11.9246
▁diamante	-11.9246
tie	-11.9246
▁franklin	-11.9247
▁interferir	-11.9248
▁inspecsion	-11.9249
oc	-11.9251
▁dulses	-11.9252
estuvitesh	-11.9253
▁komparado	-11.9255
▁clínico	-11.9257
▁entusiasmo	-11.9257
▁lleven	-11.926
▁rei	-11.926
tyle	-11.9262
▁sharon	-11.9263
▁ofrecen	-11.9264
▁ratas	-11.9266
▁expectativas	-11.9266
▁mierkoles	-11.9269
▁miércoles	-11.9269
▁supervivensia	-11.9269
▁observan	-11.9271
▁molestias	-11.9272
▁gryen	-11.9278
▁konservasion	-11.9279
▁episodios	-11.9282
▁kamara	-11.9282
▁cubierto	-11.9284
▁mason	-11.9285
▁vencer	-11.9285
▁expresa	-11.9287
▁doug	-11.9288
▁estropear	-11.9288
▁cocinar	-11.929
▁organiza	-11.929
▁titular	-11.9291
ium	-11.9295
▁puedyeramos	-11.9295
kis	-11.9296
▁oirlo	-11.9297
▁ruth	-11.9299
▁básica	-11.9301
▁mccoy	-11.9304
▁donald	-11.9304
▁encontraré	-11.9305
▁aseptable	-11.9305
▁amata	-11.931
▁tendríamos	-11.9312
▁resepsion	-11.9313
▁elizabet	-11.9314
▁coma	-11.9315
▁bulgaria	-11.9316
▁zorra	-11.9316
▁pasaporte	-11.9316
▁eksplotasion	-11.9316
rr	-11.9317
fort	-11.932
▁gustará	-11.9325
emia	-11.9325
▁reko	-11.9326
▁cia	-11.9326
buenos	-11.9326
▁emocional	-11.9327
▁esposas	-11.9328
▁apariensia	-11.9328
spa	-11.9329
▁referes	-11.933
▁considerados	-11.9332
▁katy	-11.9333
▁aparecen	-11.9334
▁terminal	-11.9334
ntergbernamental	-11.9339
▁admiro	-11.9339
▁coherente	-11.9339
▁oksidente	-11.9339
▁reflexión	-11.9339
▁adopto	-11.9339
▁planteado	-11.934
▁mortales	-11.9341
▁kreyo	-11.9342
▁kristo	-11.9342
▁echarle	-11.9344
▁bukes	-11.9347
vos	-11.9349
▁cliniko	-11.935
▁capacidades	-11.9352
▁camarada	-11.9352
gate	-11.9356
▁enchikese	-11.9358
▁empiece	-11.9359
▁creando	-11.9359
▁magnifika	-11.936
▁sinyos	-11.936
▁kontinue	-11.9363
▁exclusión	-11.9363
▁supervivencia	-11.9363
▁produjo	-11.9363
▁titulares	-11.9363
▁esencia	-11.9363
▁grosero	-11.9364
▁omisidio	-11.9364
▁salgan	-11.9364
▁dato	-11.9364
▁legado	-11.9364
▁rep	-11.9365
▁dispone	-11.9365
▁maiz	-11.9367
▁placa	-11.9368
▁sarah	-11.937
▁misa	-11.9371
▁olvidalo	-11.9372
despues	-11.9374
▁pudiéramos	-11.9375
▁embii	-11.9375
▁colección	-11.9375
▁encargo	-11.9375
▁mol	-11.9377
▁ran	-11.9378
▁borra	-11.9378
ls	-11.9379
vir	-11.9379
▁dulces	-11.9381
▁krema	-11.9383
▁insisto	-11.9383
▁enseñaré	-11.9385
▁askeroso	-11.9387
▁ekspedision	-11.9387
▁koerente	-11.9387
▁satisfecha	-11.9387
▁sacerdote	-11.9388
▁apresiar	-11.9389
▁subraya	-11.9393
▁dobla	-11.9394
▁provisional	-11.9395
▁bacterias	-11.9395
tiempo	-11.9397
▁legitima	-11.9399
▁ty	-11.94
▁escondido	-11.9402
▁destinada	-11.9402
▁shakespeare	-11.9404
▁estimular	-11.9404
nyos	-11.9404
▁vola	-11.9405
▁vera	-11.9405
▁enojar	-11.9406
▁gray	-11.9409
▁akompanye	-11.9411
▁dinamita	-11.9411
ced	-11.9412
▁violasion	-11.9412
ere	-11.9413
▁lang	-11.9414
ama	-11.9415
▁timido	-11.9416
▁vago	-11.9417
▁adversos	-11.9417
▁abiertamente	-11.9417
▁comenzaron	-11.942
▁dun	-11.9422
▁reco	-11.9422
▁ekstrema	-11.9424
▁apariencia	-11.9424
▁emosional	-11.9426
▁facilidad	-11.9426
▁oídos	-11.9427
▁khan	-11.9428
vert	-11.9428
▁intentaba	-11.9428
▁buques	-11.9429
▁trastorno	-11.9436
▁desempeñar	-11.9436
▁comunitarios	-11.9437
▁satisfaser	-11.9437
▁lógico	-11.9439
▁verlos	-11.9443
▁desafios	-11.9445
▁atar	-11.9446
▁duermo	-11.9446
▁sucediendo	-11.9446
gna	-11.9447
▁roves	-11.9447
▁votantes	-11.9448
▁presupuestarias	-11.9449
▁ejerser	-11.9449
▁aeropuertos	-11.945
▁antepasados	-11.945
▁destrozado	-11.9451
▁burns	-11.9452
▁nido	-11.9453
tier	-11.9453
▁atentamente	-11.9456
▁armamento	-11.9459
sp	-11.946
▁fasilita	-11.9461
▁túnel	-11.9461
▁repartir	-11.9461
▁kasko	-11.9462
▁deshemos	-11.9462
▁tomadas	-11.9464
▁ekivoka	-11.9464
▁celula	-11.9464
▁aparesen	-11.9464
▁pension	-11.9465
▁quédese	-11.9467
dida	-11.9468
alora	-11.9469
▁arizona	-11.947
▁empuje	-11.947
▁christine	-11.9471
▁klingon	-11.9472
▁pp	-11.9472
ándole	-11.9473
▁mensiono	-11.9473
▁crema	-11.9473
▁analiza	-11.9473
▁vientos	-11.9474
▁asender	-11.9475
sson	-11.9476
▁sofa	-11.9476
▁funcione	-11.9479
cc	-11.948
▁quieto	-11.948
▁konsegites	-11.9481
▁aclara	-11.9482
anna	-11.9482
▁olvidó	-11.9482
▁ganarse	-11.9483
▁pego	-11.9484
ois	-11.9485
▁kresi	-11.9488
▁aparente	-11.9493
▁seriamente	-11.9493
después	-11.9494
▁dinamarca	-11.9495
▁rekonoso	-11.9495
▁matará	-11.9496
▁diego	-11.9496
▁matarle	-11.9498
est	-11.9498
▁consejos	-11.9498
▁paniko	-11.9499
▁relijiozos	-11.9501
▁tocado	-11.9502
▁wo	-11.9502
▁describe	-11.9504
▁queridos	-11.9505
▁estreno	-11.9505
▁amstedram	-11.9507
▁violación	-11.9508
▁severo	-11.9509
▁asociado	-11.9509
▁podías	-11.9511
▁algoritmos	-11.9512
▁pretenden	-11.9514
▁madam	-11.9516
▁llevarte	-11.9517
▁apellido	-11.9519
▁alise	-11.952
▁pensaron	-11.9521
▁fiar	-11.9524
▁urbanas	-11.9524
▁casco	-11.9525
▁imaginen	-11.9525
encia	-11.9526
▁usos	-11.9526
▁adolessentes	-11.9526
▁cartera	-11.9529
▁seca	-11.953
▁siensiaas	-11.9531
▁eyen	-11.9532
▁extrema	-11.9533
▁agradecido	-11.9533
▁griega	-11.9533
▁ekspresa	-11.9533
▁meterlo	-11.9534
▁toke	-11.9535
▁konektar	-11.9536
▁esperaré	-11.9537
▁salvador	-11.9537
▁kreeme	-11.9539
▁suite	-11.954
mol	-11.9541
▁gorra	-11.9542
dal	-11.9542
▁indonesia	-11.9543
▁encender	-11.9543
▁susto	-11.9543
▁molestado	-11.9544
▁granito	-11.9546
▁refieres	-11.9546
▁etiqueta	-11.9547
▁desear	-11.9547
▁rekodr	-11.9549
▁antecedentes	-11.9549
▁montones	-11.9551
ius	-11.9554
▁expansión	-11.9555
▁pretendo	-11.9556
tores	-11.9557
▁hipo	-11.9557
▁rida	-11.9557
▁bandido	-11.9557
▁conectar	-11.9558
▁raya	-11.9561
▁postales	-11.9562
key	-11.9563
▁fasilidad	-11.9564
▁acepto	-11.9567
▁solitaria	-11.9568
tación	-11.9568
▁queréis	-11.9569
▁afortunado	-11.9569
▁romanos	-11.957
ret	-11.957
▁daremos	-11.9572
yon	-11.9572
ent	-11.9573
▁proporsiona	-11.9573
▁denomina	-11.9576
▁viajando	-11.9576
▁existente	-11.9577
▁hol	-11.9578
▁maskara	-11.9578
▁kantando	-11.9579
▁sofá	-11.9579
▁crucial	-11.9579
▁tendrias	-11.958
▁bis	-11.9582
▁pérdidas	-11.9582
▁dirigido	-11.9583
▁nativos	-11.9585
▁lazos	-11.9586
▁visitantes	-11.9586
▁hospitales	-11.9587
▁ekspozar	-11.9587
▁elizabeth	-11.9588
▁propietarios	-11.9588
▁pesadilla	-11.9588
▁at	-11.9589
▁astro	-11.959
▁vacas	-11.959
▁traducsion	-11.9591
▁envidia	-11.9592
▁demandarme	-11.9593
▁dependencia	-11.9593
tru	-11.9594
▁sendero	-11.9595
▁pesados	-11.9596
▁entretanto	-11.9597
▁quedaría	-11.9599
▁gil	-11.9599
▁alkanso	-11.9603
▁hincapié	-11.9603
▁seriozamente	-11.9603
▁solisito	-11.9603
▁alquiler	-11.9603
▁metodologia	-11.9604
▁ejercer	-11.9604
▁conoció	-11.9604
▁dadas	-11.9608
▁responden	-11.9609
▁bir	-11.9609
▁turko	-11.961
▁eskonde	-11.9611
▁signos	-11.9615
▁reg	-11.9616
▁debut	-11.9616
▁enamorados	-11.9616
▁candidato	-11.9618
▁universitarios	-11.9619
mir	-11.9626
▁ombros	-11.9629
▁kayar	-11.963
fl	-11.963
▁turco	-11.9631
▁aceptable	-11.9632
▁hong	-11.9634
▁nano	-11.9635
▁porta	-11.9636
▁seloso	-11.9636
▁mercancías	-11.9637
▁korta	-11.9637
▁desarroyado	-11.9639
▁restantes	-11.9639
▁complace	-11.9639
▁gobernanza	-11.964
▁mora	-11.9641
▁planificación	-11.9642
▁envíe	-11.9644
▁konsta	-11.9644
▁sanitario	-11.9644
▁apagar	-11.9644
▁etiketa	-11.9645
▁kyoto	-11.9652
▁pañuelo	-11.9652
▁dilema	-11.9652
▁gravemente	-11.9653
▁sacrificio	-11.9655
▁conserva	-11.9656
▁konserva	-11.9656
▁kanaya	-11.9656
▁ping	-11.9658
▁reflejan	-11.966
▁eskolar	-11.9664
▁radiación	-11.9664
▁pasaporto	-11.9665
▁invasion	-11.9666
▁incrementar	-11.9668
▁arrastra	-11.9669
▁ataca	-11.9669
▁rebelde	-11.9669
ilo	-11.9672
▁domina	-11.9672
▁kontrola	-11.9672
▁tristes	-11.9676
▁órbita	-11.9677
vul	-11.9677
▁ocupación	-11.9679
stan	-11.9679
▁cuantas	-11.968
▁vestidos	-11.9681
▁aporte	-11.9682
▁ospitales	-11.9683
▁rap	-11.9686
▁cambie	-11.9686
▁vitales	-11.9687
ml	-11.9687
▁transfronterizo	-11.9689
▁ratón	-11.9689
▁kontratar	-11.9689
▁vuelves	-11.969
▁chaval	-11.969
▁desaparesido	-11.9691
▁volvemos	-11.9692
lá	-11.9692
▁célula	-11.9692
▁hombros	-11.9692
▁publicar	-11.9693
▁inspira	-11.9697
▁har	-11.9699
▁camarero	-11.9699
▁eksterna	-11.97
▁kometyo	-11.9701
arlo	-11.9701
▁kapachedades	-11.9702
▁gy	-11.9702
▁franko	-11.9703
▁asperemos	-11.9704
▁apreciar	-11.9706
▁demandado	-11.9707
▁dilo	-11.9707
kero	-11.9708
▁parsial	-11.9711
gado	-11.9712
▁depósito	-11.9713
▁cas	-11.9713
▁felisito	-11.9713
▁metodología	-11.9714
▁perrito	-11.9714
▁coincidencia	-11.9714
nan	-11.9716
▁konseptos	-11.9716
▁específicamente	-11.9717
▁hierba	-11.9717
▁potente	-11.9717
▁orilla	-11.9718
rito	-11.9718
▁lily	-11.9719
▁retrato	-11.9719
▁sometido	-11.9719
▁kedado	-11.972
▁afecto	-11.9726
▁perseguir	-11.9726
▁reconozco	-11.9726
▁sueter	-11.9728
▁trabajó	-11.9728
▁konkretamente	-11.9729
tine	-11.9729
▁homicidio	-11.973
▁fijo	-11.9732
▁peskadores	-11.9732
▁bloke	-11.9733
▁normalidad	-11.9733
▁pescadores	-11.9734
▁estatus	-11.9736
▁diseñado	-11.9736
▁escribiendo	-11.9739
▁destaka	-11.9739
tel	-11.9745
▁trenes	-11.9745
tml	-11.9747
▁flu	-11.9749
▁habia	-11.975
▁kre	-11.975
▁herr	-11.975
▁occidente	-11.975
▁odias	-11.9752
▁arriesgado	-11.9753
▁refuerzo	-11.9754
▁elektronika	-11.9755
▁muestre	-11.9755
▁honrado	-11.9755
▁ilustra	-11.9757
▁flakoes	-11.9757
▁buke	-11.9759
▁dejarte	-11.9759
siente	-11.9759
▁devesh	-11.976
▁obesidad	-11.9763
▁eskosia	-11.9763
▁miseria	-11.9764
▁palestino	-11.9767
▁vic	-11.9767
▁raises	-11.9767
win	-11.9767
▁hor	-11.9767
▁dedikar	-11.9769
vuelve	-11.9769
▁reclamar	-11.9769
gin	-11.9771
▁suspender	-11.9772
▁consiga	-11.9772
▁conceptos	-11.9772
▁conciliación	-11.9775
ivos	-11.9776
▁sabéis	-11.9777
▁god	-11.9777
▁abismo	-11.9778
estuvimos	-11.9778
▁experimentar	-11.9782
▁debían	-11.9783
▁vakas	-11.9784
▁semiyas	-11.9784
▁fundada	-11.9787
▁satisfacer	-11.9787
▁susedyendo	-11.9787
▁erika	-11.9787
▁vendi	-11.9788
▁teresa	-11.9788
▁pesadiya	-11.9789
▁busque	-11.9789
▁sakrifisio	-11.9792
▁moore	-11.9793
▁antesedentes	-11.9794
▁ligera	-11.9796
▁lidjera	-11.9796
▁entornado	-11.9797
▁celoso	-11.9798
▁quemar	-11.98
▁firmo	-11.98
col	-11.9801
▁movimienas	-11.9801
▁miyo	-11.9801
▁apresia	-11.9805
▁entregado	-11.981
ari	-11.981
▁hígado	-11.9812
▁tenden	-11.9815
▁provincia	-11.982
kul	-11.9824
▁persegir	-11.9825
▁kamiones	-11.9825
▁suceda	-11.9826
▁dude	-11.9828
▁créeme	-11.9831
▁costado	-11.9832
▁peste	-11.9832
tergubernamental	-11.9834
▁cantando	-11.9835
▁imadjinen	-11.9835
▁ignora	-11.9836
▁kresyendo	-11.9837
▁setenta	-11.9837
▁jovencita	-11.9838
▁débiles	-11.9839
▁kayi	-11.9841
mio	-11.9847
▁rosas	-11.9847
▁vs	-11.9848
▁subido	-11.9849
▁detroit	-11.985
▁refería	-11.985
estuvites	-11.985
▁sexto	-11.985
▁au	-11.9854
▁vacuna	-11.9854
▁tiran	-11.9854
▁salgo	-11.9858
▁pregunte	-11.9859
▁pc	-11.986
▁monetarios	-11.9861
▁sabiduría	-11.9862
▁jakob	-11.9862
▁fijate	-11.9863
▁robinson	-11.9863
▁conservación	-11.9863
▁clinton	-11.9864
▁fina	-11.9864
▁planifikasion	-11.9864
▁ekstranya	-11.9864
▁naser	-11.9865
▁concretamente	-11.9865
▁despedirme	-11.9865
ago	-11.9866
▁referia	-11.9868
▁oriya	-11.9869
▁adolescentes	-11.9869
▁velas	-11.9869
▁parametros	-11.987
tuvitesh	-11.9872
▁kurtos	-11.9872
▁pic	-11.9873
▁ijas	-11.9874
▁validez	-11.9874
▁asqueroso	-11.9874
▁camiones	-11.9874
▁collar	-11.9875
pec	-11.9879
▁echando	-11.988
▁kedaria	-11.9881
rico	-11.9882
▁desempeño	-11.9887
▁detesto	-11.9889
reo	-11.9891
▁azar	-11.9895
▁asosiado	-11.9896
wer	-11.9896
▁encontrarlo	-11.9898
▁aktivos	-11.9899
▁severidad	-11.9899
▁gales	-11.9901
▁oms	-11.9902
▁dudar	-11.9902
mura	-11.9903
▁meterle	-11.9903
▁kandela	-11.9905
▁distinguir	-11.9907
▁heridos	-11.9908
▁trabajas	-11.9908
puesto	-11.991
▁romantiko	-11.9913
▁douglas	-11.9913
▁kandidato	-11.9917
▁deskrive	-11.9919
zy	-11.992
▁hubiesen	-11.992
▁parámetros	-11.992
rey	-11.992
▁concreta	-11.992
▁textos	-11.9921
rus	-11.9923
▁andre	-11.9925
▁rod	-11.9925
▁monstruos	-11.9927
▁eve	-11.9927
▁policial	-11.9928
▁manuel	-11.993
▁prevista	-11.9934
▁parcial	-11.9935
▁puto	-11.9938
▁autorización	-11.9939
▁inkreiblemente	-11.9939
estuvyeron	-11.9939
liko	-11.9939
tras	-11.9941
▁akorda	-11.9942
▁conseguimos	-11.9942
▁anketa	-11.9943
▁embiaron	-11.9943
▁feridos	-11.9944
▁zan	-11.9945
▁llegaremos	-11.9946
▁claus	-11.9947
▁buque	-11.9947
▁previos	-11.9948
▁adaptarse	-11.9949
▁kata	-11.995
▁raíces	-11.995
▁kresyo	-11.995
▁devian	-11.995
nen	-11.9952
▁duradera	-11.9954
▁kali	-11.9955
▁cc	-11.9956
▁kraneo	-11.9956
▁sonar	-11.9956
▁barras	-11.9957
▁pasajero	-11.9958
▁valorasion	-11.9961
▁contempla	-11.9961
▁trataron	-11.9961
▁unikos	-11.9962
▁krusial	-11.9963
▁esperemos	-11.9963
▁dragon	-11.9964
▁konfesion	-11.9964
▁razonamiento	-11.9964
mur	-11.9966
▁arrogante	-11.9966
▁atado	-11.9966
▁ésto	-11.9967
▁mecánica	-11.9967
▁violentos	-11.9968
▁rh	-11.9972
▁retra	-11.9973
▁djugo	-11.9975
▁empiezo	-11.9975
▁bevyendo	-11.9975
▁wong	-11.9976
▁mentalidad	-11.998
▁detenerlo	-11.998
▁blog	-11.9981
▁lodjiko	-11.9983
▁sanitarios	-11.9984
▁stewart	-11.9988
ip	-11.999
▁levantate	-11.999
rápido	-11.9993
▁eksistente	-11.9994
▁reduce	-11.9994
▁utiles	-11.9996
lika	-11.9997
▁ganancias	-11.9998
tismo	-12
▁anunciar	-12
▁creciendo	-12
▁bebiendo	-12
▁muebles	-12.0001
▁oskar	-12.0006
▁tank	-12.0006
▁shefes	-12.0008
▁olvidas	-12.0009
▁kolektiva	-12.001
▁incha	-12.0012
▁felicito	-12.0013
▁mantenen	-12.0015
▁earl	-12.0018
▁británica	-12.0019
▁entri	-12.0019
▁instansia	-12.0021
▁yamarme	-12.0021
▁rojas	-12.0023
▁venid	-12.0024
▁yevaria	-12.0024
▁lidjero	-12.0026
▁pánico	-12.0026
▁biliar	-12.0027
▁molino	-12.0027
▁toparse	-12.0027
▁konverti	-12.0029
▁destaca	-12.003
neo	-12.003
▁deskarga	-12.0031
▁ziro	-12.0034
▁vendrán	-12.0036
▁indu	-12.0037
▁konsiliasion	-12.0038
▁salia	-12.0038
▁ligero	-12.0038
▁prevé	-12.0039
▁asesinados	-12.004
▁her	-12.004
▁eslavo	-12.004
▁caiga	-12.004
▁brok	-12.0042
▁sabíamos	-12.0042
▁únicos	-12.0044
▁tiburones	-12.0045
▁garantias	-12.0045
haz	-12.0046
▁protestas	-12.0046
▁afrikanos	-12.0047
red	-12.0048
ís	-12.0048
▁planea	-12.0048
▁expresado	-12.005
▁alkiler	-12.0051
▁mickey	-12.0051
▁autopsia	-12.0051
ísimo	-12.0055
▁uniformes	-12.0057
▁mostrarle	-12.0057
▁koloka	-12.0057
▁algoritmo	-12.0058
▁pilares	-12.0059
▁vaziyos	-12.0059
▁docena	-12.0061
▁oportuno	-12.0064
▁poirot	-12.0064
▁poesía	-12.0064
▁koinsidensia	-12.0064
▁adaptación	-12.0064
▁cabina	-12.0065
▁enviaré	-12.0065
ñ	-12.0066
▁trajiste	-12.0066
▁traido	-12.0067
▁kilo	-12.0068
kro	-12.007
▁kontaktos	-12.0073
▁violar	-12.008
▁alice	-12.008
▁mecanika	-12.0082
▁ayegen	-12.0083
▁quinta	-12.0086
▁tankes	-12.0086
ow	-12.0087
▁karol	-12.0089
▁inkapie	-12.0089
▁electrónica	-12.009
▁seksto	-12.009
▁chofer	-12.009
▁esconder	-12.009
▁dependensia	-12.0091
▁tac	-12.0091
▁tendencias	-12.0091
▁tanques	-12.0092
▁viniste	-12.0092
▁edukado	-12.0093
▁cuadros	-12.0094
▁detenerme	-12.0095
▁colectiva	-12.0099
▁wil	-12.0101
▁sudafrika	-12.0102
▁suprimir	-12.0102
▁increíblemente	-12.0102
▁otto	-12.0103
▁cla	-12.0103
▁stepen	-12.0103
▁konsegirlo	-12.0104
lodjika	-12.0104
▁lema	-12.0106
▁echi	-12.0107
▁universitaria	-12.0109
▁boleto	-12.0109
▁establo	-12.011
nero	-12.011
▁canalla	-12.0111
▁chiste	-12.0113
▁ganansias	-12.0114
▁alturas	-12.0114
▁peggy	-12.0115
pes	-12.0117
iente	-12.0118
▁matas	-12.0118
▁llevaría	-12.0118
▁navega	-12.0119
▁inicia	-12.012
▁ausente	-12.0124
▁envio	-12.0124
pobre	-12.0125
sur	-12.0126
▁entuziasmo	-12.0127
▁inmunidad	-12.0127
▁niebla	-12.0127
▁mizeria	-12.0128
▁patrick	-12.0128
▁pasaremos	-12.0128
▁konkreta	-12.0128
if	-12.0129
▁ellen	-12.0132
▁dedicar	-12.0134
nton	-12.0135
▁desta	-12.0135
▁bastardo	-12.0137
▁kite	-12.0138
▁andrea	-12.014
▁egoísta	-12.014
▁troki	-12.0141
▁jovensita	-12.0142
▁bolas	-12.0142
▁bomberos	-12.0143
▁livras	-12.0144
▁kosecha	-12.0148
▁flora	-12.0149
▁descarga	-12.015
▁aplastar	-12.0151
▁aserko	-12.0153
bie	-12.0153
[...]
