<unk>	0
<s>	0
</s>	0
<LAD>	0
<ENG>	0
<SPA>	0
<TUR>	0
<0x00>	0
<0x01>	0
<0x02>	0
<0x03>	0
<0x04>	0
<0x05>	0
<0x06>	0
<0x07>	0
<0x08>	0
<0x09>	0
<0x0A>	0
<0x0B>	0
<0x0C>	0
<0x0D>	0
<0x0E>	0
<0x0F>	0
<0x10>	0
<0x11>	0
<0x12>	0
<0x13>	0
<0x14>	0
<0x15>	0
<0x16>	0
<0x17>	0
<0x18>	0
<0x19>	0
<0x1A>	0
<0x1B>	0
<0x1C>	0
<0x1D>	0
<0x1E>	0
<0x1F>	0
<0x20>	0
<0x21>	0
<0x22>	0
<0x23>	0
<0x24>	0
<0x25>	0
<0x26>	0
<0x27>	0
<0x28>	0
<0x29>	0
<0x2A>	0
<0x2B>	0
<0x2C>	0
<0x2D>	0
<0x2E>	0
<0x2F>	0
<0x30>	0
<0x31>	0
<0x32>	0
<0x33>	0
<0x34>	0
<0x35>	0
<0x36>	0
<0x37>	0
<0x38>	0
<0x39>	0
<0x3A>	0
<0x3B>	0
<0x3C>	0
<0x3D>	0
<0x3E>	0
<0x3F>	0
<0x40>	0
<0x41>	0
<0x42>	0
<0x43>	0
<0x44>	0
<0x45>	0
<0x46>	0
<0x47>	0
<0x48>	0
<0x49>	0
<0x4A>	0
<0x4B>	0
<0x4C>	0
<0x4D>	0
<0x4E>	0
<0x4F>	0
<0x50>	0
<0x51>	0
<0x52>	0
<0x53>	0
<0x54>	0
<0x55>	0
<0x56>	0
<0x57>	0
<0x58>	0
<0x59>	0
<0x5A>	0
<0x5B>	0
<0x5C>	0
<0x5D>	0
<0x5E>	0
<0x5F>	0
<0x60>	0
<0x61>	0
<0x62>	0
<0x63>	0
<0x64>	0
<0x65>	0
<0x66>	0
<0x67>	0
<0x68>	0
<0x69>	0
<0x6A>	0
<0x6B>	0
<0x6C>	0
<0x6D>	0
<0x6E>	0
<0x6F>	0
<0x70>	0
<0x71>	0
<0x72>	0
<0x73>	0
<0x74>	0
<0x75>	0
<0x76>	0
<0x77>	0
<0x78>	0
<0x79>	0
<0x7A>	0
<0x7B>	0
<0x7C>	0
<0x7D>	0
<0x7E>	0
<0x7F>	0
<0x80>	0
<0x81>	0
<0x82>	0
<0x83>	0
<0x84>	0
<0x85>	0
<0x86>	0
<0x87>	0
<0x88>	0
<0x89>	0
<0x8A>	0
<0x8B>	0
<0x8C>	0
<0x8D>	0
<0x8E>	0
<0x8F>	0
<0x90>	0
<0x91>	0
<0x92>	0
<0x93>	0
<0x94>	0
<0x95>	0
<0x96>	0
<0x97>	0
<0x98>	0
<0x99>	0
<0x9A>	0
<0x9B>	0
<0x9C>	0
<0x9D>	0
<0x9E>	0
<0x9F>	0
<0xA0>	0
<0xA1>	0
<0xA2>	0
<0xA3>	0
<0xA4>	0
<0xA5>	0
<0xA6>	0
<0xA7>	0
<0xA8>	0
<0xA9>	0
<0xAA>	0
<0xAB>	0
<0xAC>	0
<0xAD>	0
<0xAE>	0
<0xAF>	0
<0xB0>	0
<0xB1>	0
<0xB2>	0
<0xB3>	0
<0xB4>	0
<0xB5>	0
<0xB6>	0
<0xB7>	0
<0xB8>	0
<0xB9>	0
<0xBA>	0
<0xBB>	0
<0xBC>	0
<0xBD>	0
<0xBE>	0
<0xBF>	0
<0xC0>	0
<0xC1>	0
<0xC2>	0
<0xC3>	0
<0xC4>	0
<0xC5>	0
<0xC6>	0
<0xC7>	0
<0xC8>	0
<0xC9>	0
<0xCA>	0
<0xCB>	0
<0xCC>	0
<0xCD>	0
<0xCE>	0
<0xCF>	0
<0xD0>	0
<0xD1>	0
<0xD2>	0
<0xD3>	0
<0xD4>	0
<0xD5>	0
<0xD6>	0
<0xD7>	0
<0xD8>	0
<0xD9>	0
<0xDA>	0
<0xDB>	0
<0xDC>	0
<0xDD>	0
<0xDE>	0
<0xDF>	0
<0xE0>	0
<0xE1>	0
<0xE2>	0
<0xE3>	0
<0xE4>	0
<0xE5>	0
<0xE6>	0
<0xE7>	0
<0xE8>	0
<0xE9>	0
<0xEA>	0
<0xEB>	0
<0xEC>	0
<0xED>	0
<0xEE>	0
<0xEF>	0
<0xF0>	0
<0xF1>	0
<0xF2>	0
<0xF3>	0
<0xF4>	0
<0xF5>	0
<0xF6>	0
<0xF7>	0
<0xF8>	0
<0xF9>	0
<0xFA>	0
<0xFB>	0
<0xFC>	0
<0xFD>	0
<0xFE>	0
<0xFF>	0
.	-2.47546
,	-3.22481
▁de	-3.88212
?	-4.03027
▁-	-4.09054
▁ke	-4.23896
▁a	-4.35543
▁el	-4.39032
▁	-4.48036
▁la	-4.57707
▁i	-4.59801
▁bir	-4.71133
▁no	-4.71196
▁en	-4.77112
!	-4.87483
▁es	-5.19929
▁ve	-5.2081
▁un	-5.25364
'	-5.28439
...	-5.29351
▁bu	-5.29542
s	-5.32947
0	-5.4125
▁mi	-5.49138
▁se	-5.50475
▁los	-5.54702
n	-5.5821
▁por	-5.59273
▁una	-5.62552
▁lo	-5.62831
▁me	-5.70182
1	-5.70887
▁kon	-5.74225
▁si	-5.76083
▁esta	-5.77671
▁o	-5.80085
▁para	-5.83125
▁va	-5.89974
̇	-5.9696
▁te	-5.98162
▁las	-6.0009
▁ne	-6.0044
▁için	-6.02574
▁tu	-6.05451
▁"""	-6.08567
▁su	-6.0939
2	-6.09807
▁este	-6.1086
a	-6.12598
▁çok	-6.1668
▁pero	-6.21981
▁da	-6.25867
▁ama	-6.32668
▁maz	-6.41098
▁var	-6.41148
▁ben	-6.42615
▁""""	-6.43789
▁komo	-6.44009
▁daha	-6.44677
▁ya	-6.45182
i	-6.47035
▁le	-6.4865
▁bueno	-6.48771
da	-6.50446
▁muncho	-6.50725
e	-6.51623
▁esto	-6.56973
▁değil	-6.58538
▁yo	-6.59534
▁şey	-6.60227
9	-6.60315
5	-6.65347
m	-6.68821
▁aki	-6.69224
▁(	-6.69918
▁"""""""	-6.74605
▁kadar	-6.74629
▁mı	-6.75315
3	-6.78097
lar	-6.79101
▁gibi	-6.82131
▁son	-6.85972
-	-6.85997
▁ser	-6.86705
▁vamos	-6.87486
▁her	-6.88779
▁todo	-6.90593
▁ki	-6.91159
▁nos	-6.9139
▁ay	-6.9143
▁iyi	-6.92767
de	-6.92876
4	-6.94548
▁solo	-6.95853
▁bana	-6.9796
▁sen	-6.98103
▁kuando	-6.98186
▁fue	-6.98742
▁onu	-6.99615
▁evet	-7.00501
ler	-7.0288
in	-7.04937
lo	-7.04995
▁yok	-7.05584
▁asi	-7.0568
▁ver	-7.07029
▁beni	-7.07386
8	-7.0758
le	-7.09001
▁:	-7.09181
ya	-7.09786
:	-7.10149
▁agora	-7.10877
la	-7.10998
▁bunu	-7.11597
6	-7.14165
▁algo	-7.16913
▁benim	-7.17173
7	-7.1897
k	-7.20343
▁seni	-7.20818
▁sonra	-7.21006
▁y	-7.21858
/	-7.22349
r	-7.22354
▁olarak	-7.22826
▁zaman	-7.23394
es	-7.24363
yi	-7.24712
▁hayır	-7.28608
▁sus	-7.29612
▁burada	-7.30041
se	-7.30666
▁nada	-7.31661
▁sana	-7.32269
▁şimdi	-7.32309
▁como	-7.32785
▁sadece	-7.33169
▁puede	-7.34283
▁hiç	-7.34927
dan	-7.34991
▁azer	-7.35319
▁despues	-7.36344
o	-7.3679
▁nasıl	-7.37067
)	-7.3749
▁era	-7.37602
▁olduğunu	-7.38255
me	-7.38281
▁tyene	-7.38744
▁vez	-7.38903
nin	-7.38963
nın	-7.39389
▁todos	-7.42447
▁estas	-7.4412
▁so	-7.44776
ne	-7.45162
na	-7.45924
▁şu	-7.46388
▁neden	-7.47368
▁ayi	-7.47693
te	-7.47767
▁ese	-7.4789
den	-7.47922
▁kero	-7.48225
▁bay	-7.49579
▁olan	-7.51288
▁mu	-7.51384
▁tambien	-7.52807
▁dos	-7.53043
ın	-7.53374
▁van	-7.53626
▁önce	-7.53955
▁porke	-7.55173
▁ile	-7.55319
▁senin	-7.57109
▁ken	-7.57304
▁vas	-7.57725
▁tan	-7.58176
ye	-7.59191
▁senyor	-7.59867
mos	-7.60084
ki	-7.60221
ları	-7.60285
si	-7.60546
▁tiempo	-7.60958
▁tengo	-7.61079
▁les	-7.61203
▁büyük	-7.61948
▁)	-7.63126
z	-7.63191
▁sin	-7.63338
▁anyos	-7.63959
▁ni	-7.64732
▁öyle	-7.65285
▁sovre	-7.65568
leri	-7.66091
▁eya	-7.66286
▁nunka	-7.66374
▁puedo	-7.66572
▁aze	-7.6687
y	-7.67145
▁biraz	-7.67217
""""	-7.68313
▁dizir	-7.69034
▁echo	-7.69766
▁kreo	-7.71612
▁sr	-7.72346
▁güzel	-7.72609
▁böyle	-7.72767
ı	-7.72866
▁bile	-7.72944
▁"	-7.73726
do	-7.74699
▁ona	-7.74706
▁caza	-7.75037
▁mijor	-7.7575
▁uno	-7.7585
▁asta	-7.75944
▁ir	-7.76503
▁ombre	-7.76717
▁estar	-7.76974
u	-7.77159
▁estava	-7.77259
▁vida	-7.77317
▁estan	-7.77629
ta	-7.77808
▁vo	-7.7945
▁tener	-7.8067
▁başka	-7.81112
▁eğer	-7.81381
▁oldu	-7.81642
▁vedrad	-7.82019
▁onun	-7.82523
▁alora	-7.83337
▁çünkü	-7.85302
▁anda	-7.85602
;	-7.86053
▁kozas	-7.86492
li	-7.87908
▁geri	-7.88436
▁tek	-7.88649
▁donde	-7.88674
▁artık	-7.89676
▁dia	-7.8974
▁iki	-7.90285
▁sos	-7.90842
▁kere	-7.90868
▁istiyorum	-7.9088
▁musun	-7.91319
▁bayan	-7.91503
▁mundo	-7.91948
▁fazla	-7.92006
▁al	-7.9271
▁yeni	-7.93309
di	-7.93369
▁tamam	-7.93489
t	-7.93744
▁siempre	-7.93843
▁antes	-7.94398
▁tüm	-7.94551
un	-7.94926
▁mujer	-7.95297
▁favor	-7.9549
▁biri	-7.95741
▁doğru	-7.96685
ni	-7.97513
▁lütfen	-7.97684
▁oh	-7.97995
▁size	-7.98347
▁djente	-7.98546
▁belki	-7.99556
▁adam	-7.99861
▁poko	-7.99881
▁bak	-7.99976
▁otra	-8.00197
▁olur	-8.00537
▁desde	-8.00762
▁mizmo	-8.00817
no	-8.01678
▁misin	-8.01762
▁efendim	-8.0206
▁yani	-8.02542
▁gün	-8.03173
▁shukur	-8.03325
▁noche	-8.03784
sa	-8.03799
▁olacak	-8.05066
▁deve	-8.05191
▁dinguno	-8.0531
dir	-8.05425
▁doktor	-8.06451
▁avia	-8.06553
▁aynı	-8.06624
▁gerçekten	-8.06854
▁disho	-8.08074
d	-8.08775
yı	-8.09136
▁mis	-8.09252
▁gece	-8.0933
en	-8.09541
▁""	-8.09866
▁küçük	-8.10018
▁kim	-8.10904
▁mozotros	-8.11861
▁bütün	-8.11946
▁biz	-8.11948
▁hiçbir	-8.12055
▁keres	-8.12526
▁entre	-8.12731
▁otro	-8.13004
▁bunun	-8.13088
▁avlar	-8.13291
sin	-8.13343
▁buraya	-8.14522
▁parese	-8.16503
l	-8.16621
▁tam	-8.17436
▁gran	-8.17677
▁orada	-8.17794
▁kendi	-8.17889
▁siz	-8.18638
▁eyos	-8.19137
▁algien	-8.19629
▁saves	-8.21356
▁e	-8.21558
▁puederia	-8.21866
▁şekilde	-8.22163
▁ilk	-8.22275
▁ijo	-8.22297
."""	-8.22423
ma	-8.22834
▁peki	-8.23108
▁tyenes	-8.23558
va	-8.24416
▁kada	-8.24461
an	-8.24592
▁hadi	-8.24673
▁padre	-8.25416
▁lugar	-8.25471
▁oy	-8.25615
▁yıl	-8.2567
on	-8.26082
▁fakat	-8.26129
▁onları	-8.26157
▁sizi	-8.2622
şte	-8.26744
▁amanyana	-8.26781
dır	-8.26914
▁koza	-8.26997
▁şeyi	-8.27014
▁momento	-8.2728
▁et	-8.27365
▁tenemos	-8.27415
▁paras	-8.27471
mi	-8.2767
▁devo	-8.27791
▁parte	-8.28423
▁demek	-8.28709
▁sea	-8.28917
▁hakkında	-8.28938
▁estamos	-8.29172
▁save	-8.29327
▁şeyler	-8.30687
sın	-8.30827
▁tal	-8.30872
▁presto	-8.31107
▁yardım	-8.31146
▁tres	-8.31194
▁içinde	-8.31638
▁vi	-8.31688
▁kötü	-8.31886
▁...	-8.32495
▁muestro	-8.32577
ndo	-8.32617
▁puedemos	-8.32877
▁sanırım	-8.33857
▁manko	-8.33867
▁nerede	-8.34261
▁puedes	-8.34263
▁dio	-8.34566
▁tornar	-8.34855
▁mal	-8.35145
▁otros	-8.35229
▁tenia	-8.35819
ten	-8.36249
larını	-8.36314
▁estos	-8.36629
▁dar	-8.37581
▁önemli	-8.37648
lı	-8.37842
tan	-8.38104
▁pueden	-8.38178
▁yer	-8.38658
▁karşı	-8.38676
▁dolar	-8.38708
▁siguro	-8.38898
▁muestra	-8.39302
▁iş	-8.39547
▁devam	-8.40048
▁dize	-8.40185
▁hemen	-8.40301
▁üç	-8.40651
▁veya	-8.40871
▁"""".	-8.41744
▁diye	-8.41769
▁aver	-8.41899
ların	-8.42151
▁klaro	-8.42489
lerin	-8.42693
▁göre	-8.43086
▁olduğu	-8.43132
▁pueder	-8.43356
▁diğer	-8.43358
’	-8.43764
▁biliyorum	-8.43769
▁todas	-8.43774
▁dias	-8.43874
▁tarafından	-8.43929
▁gel	-8.44441
yla	-8.44685
ti	-8.44746
▁bize	-8.44835
▁personas	-8.44844
▁uzun	-8.45456
▁bizim	-8.45842
▁kız	-8.46668
lerini	-8.46777
▁asento	-8.46806
▁pasa	-8.46924
nı	-8.47155
▁hacer	-8.47907
▁buna	-8.48263
▁olabilir	-8.48609
el	-8.48959
▁ija	-8.49033
▁forma	-8.4918
ia	-8.49349
daki	-8.49431
▁muevo	-8.49967
▁meter	-8.50129
as	-8.51465
▁birlikte	-8.5152
▁vardı	-8.5205
▁tipo	-8.52273
▁durante	-8.52416
▁ombres	-8.52554
▁bizi	-8.52679
▁sizin	-8.52963
▁toda	-8.53066
▁madre	-8.53488
sı	-8.53593
▁tanto	-8.53832
▁biliyor	-8.54034
▁eslo	-8.54885
▁tekrar	-8.55267
▁tyenen	-8.55419
▁ola	-8.55554
um	-8.56064
▁ainda	-8.56376
▁izo	-8.56833
▁nombre	-8.56918
▁vezes	-8.5725
ke	-8.57463
▁yine	-8.57696
nda	-8.57936
▁izin	-8.58053
▁ederim	-8.5808
▁geldi	-8.58228
▁pek	-8.58413
▁plaze	-8.58547
▁anyo	-8.58684
▁birkaç	-8.58712
▁ora	-8.58776
▁amigo	-8.58875
▁aslında	-8.59385
▁onlar	-8.59888
▁saat	-8.60015
im	-8.60185
▁az	-8.60546
▁söyle	-8.61169
yle	-8.61254
▁gerçek	-8.61401
▁unos	-8.61522
dı	-8.61886
▁ol	-8.61995
▁paso	-8.62152
▁kadın	-8.62329
▁tadre	-8.6268
▁ancak	-8.62856
▁#	-8.63111
▁buena	-8.63342
lik	-8.63555
p	-8.63572
c	-8.63578
▁olmak	-8.63583
▁problem	-8.63698
▁dr	-8.63715
▁kuanto	-8.63819
▁kimse	-8.63902
▁ah	-8.63918
▁insan	-8.63979
▁ise	-8.64321
▁sorun	-8.64414
▁azerlo	-8.64849
▁tom	-8.65241
▁--	-8.65498
▁bugün	-8.65895
▁haydi	-8.65943
▁ilgili	-8.65993
▁gerek	-8.66139
▁tabii	-8.66159
▁olsun	-8.66231
▁devemos	-8.66426
▁esos	-8.66451
▁asla	-8.66632
nde	-8.66981
▁yüzden	-8.67038
▁kontra	-8.6704
▁kual	-8.67532
▁ti	-8.67776
▁dünya	-8.67876
bu	-8.68103
▁dakika	-8.68162
h	-8.68393
▁harika	-8.6851
tes	-8.68653
▁etmek	-8.68738
▁mira	-8.68751
sen	-8.68761
ve	-8.69017
▁saver	-8.69189
▁hep	-8.69473
du	-8.69546
▁debasho	-8.6971
▁yoksa	-8.69948
▁primera	-8.70069
▁buen	-8.70086
▁hala	-8.70198
▁pasar	-8.70477
▁demaziado	-8.70924
▁kaç	-8.71155
lere	-8.71426
▁kara	-8.71825
▁keria	-8.7183
▁bırak	-8.71882
▁eski	-8.71935
▁hey	-8.71977
▁farklı	-8.72495
▁geliyor	-8.72525
▁bazı	-8.7253
▁idea	-8.72704
mente	-8.73389
▁kontrol	-8.73583
▁topar	-8.73989
lara	-8.74393
▁mü	-8.74533
▁mientras	-8.74541
ka	-8.75088
▁realmente	-8.75229
."""""""	-8.75327
▁bunlar	-8.75417
os	-8.75531
▁dishe	-8.75853
▁herkes	-8.75986
▁an	-8.76108
▁vozotros	-8.76672
▁istoria	-8.76824
▁kreaturas	-8.77042
▁eh	-8.77226
▁afuera	-8.77519
▁hepsi	-8.7819
▁insanlar	-8.7825
▁atension	-8.78279
▁çocuk	-8.78415
▁git	-8.78523
nun	-8.78579
▁kiza	-8.78696
▁verso	-8.7886
▁tierra	-8.78893
ken	-8.79043
▁zor	-8.79137
▁gerra	-8.79248
▁sahip	-8.79418
▁esas	-8.79456
ca	-8.80333
▁bilmiyorum	-8.80577
▁agua	-8.80641
▁kabul	-8.80926
▁the	-8.81223
▁olmalı	-8.81337
▁tomar	-8.81371
to	-8.81398
▁sivdad	-8.81475
▁işte	-8.81914
▁deshar	-8.82068
▁munchas	-8.82079
▁kreatura	-8.82107
▁portanto	-8.82143
▁söz	-8.82256
▁tus	-8.82584
▁oluyor	-8.82719
g	-8.82799
▁risas	-8.8299
▁seria	-8.82991
▁deves	-8.83225
▁importa	-8.83648
▁ven	-8.84
sun	-8.84
▁hem	-8.84016
▁benimle	-8.844
sion	-8.84428
▁algna	-8.84443
▁amor	-8.84466
ko	-8.8453
▁salir	-8.84643
▁şunu	-8.84792
▁mueva	-8.84836
▁manera	-8.8495
dos	-8.85006
▁di	-8.85129
▁anne	-8.85388
▁eve	-8.85618
▁onunla	-8.85772
▁değilim	-8.85776
▁kişi	-8.86006
▁misiniz	-8.86402
""	-8.86543
▁razon	-8.86605
▁olmaz	-8.87223
▁ha	-8.87252
▁bence	-8.87274
ar	-8.87724
▁onlara	-8.87772
▁hazır	-8.87791
▁kaji	-8.87822
▁vos	-8.87879
▁tane	-8.88392
▁ize	-8.88937
▁kualkier	-8.88984
▁valutoza	-8.88986
▁yevar	-8.89161
▁vayga	-8.89255
▁tanrı	-8.89264
sh	-8.89369
▁ister	-8.89583
▁akordo	-8.89629
▁mujeres	-8.89969
▁seninle	-8.90083
▁kapitan	-8.90325
uz	-8.9058
▁ayegar	-8.90582
▁buradan	-8.90637
▁kamino	-8.90638
▁etti	-8.90654
mış	-8.9069
▁serka	-8.90768
san	-8.90893
▁mısın	-8.91015
man	-8.91128
▁yere	-8.91254
▁zaten	-8.91367
▁nuestros	-8.91419
ra	-8.91443
▁genç	-8.91525
▁komer	-8.91618
▁senyora	-8.91653
▁papa	-8.91768
▁dur	-8.91937
er	-8.92022
▁bakalım	-8.92053
▁geç	-8.92153
▁fueron	-8.92196
▁üzerinde	-8.9227
▁aziendo	-8.92316
ş	-8.92352
▁karar	-8.92663
▁ariento	-8.92668
▁telefon	-8.92681
▁kuenta	-8.92743
▁miyim	-8.92964
▁yarın	-8.9332
▁ma	-8.93439
▁'	-8.93685
▁söyledi	-8.93881
▁algunos	-8.9397
▁kez	-8.94042
▁algun	-8.94133
siniz	-8.9417
▁mayor	-8.94325
▁sierto	-8.94495
▁arasında	-8.94779
▁görmek	-8.94833
▁teşekkür	-8.94887
▁yapmak	-8.94893
▁baba	-8.95046
▁at	-8.95051
▁fui	-8.95183
▁amigos	-8.95521
▁açık	-8.9574
▁krees	-8.95894
▁burası	-8.95926
▁kerido	-8.96462
niz	-8.965
▁yol	-8.96564
▁kendini	-8.96643
▁ermozo	-8.96704
yo	-8.96832
▁yerde	-8.97281
▁ud	-8.97381
das	-8.97521
▁york	-8.9767
▁ayrıca	-8.97684
▁primer	-8.98354
▁nedir	-8.98384
▁kavzo	-8.98412
mı	-8.98465
deki	-8.98474
▁inkluzo	-8.98492
▁ediyorum	-8.98516
▁beş	-8.99458
▁polisiya	-8.99478
▁kavesa	-8.99598
▁edin	-8.9979
▁boyunca	-8.99897
▁pensar	-8.99947
ce	-8.9996
▁savaş	-9.00023
▁ediyor	-9.00058
nız	-9.00088
b	-9.00411
▁problemes	-9.00594
tir	-9.00786
re	-9.00824
▁oldukça	-9.00837
ron	-9.0105
lu	-9.01267
▁zorunda	-9.01272
▁yalnız	-9.01301
▁chikos	-9.01366
▁viejo	-9.01458
▁devria	-9.01473
ndan	-9.017
▁lado	-9.01939
▁işe	-9.01992
▁san	-9.02082
▁plazeria	-9.02156
▁yerine	-9.02345
▁primero	-9.0243
▁mama	-9.02634
▁muerte	-9.02656
▁merhaba	-9.03097
▁todavia	-9.03308
▁istemiyorum	-9.03391
▁teşekkürler	-9.03582
▁özel	-9.03929
▁emin	-9.04295
▁sra	-9.04575
▁kal	-9.04599
▁buenas	-9.04605
iz	-9.04703
▁fark	-9.04759
▁aunke	-9.04834
▁bundan	-9.05029
▁biliyorsun	-9.05197
▁sabah	-9.05242
▁dinle	-9.05447
dur	-9.05623
▁vardır	-9.0569
▁dört	-9.057
al	-9.05787
▁istiyor	-9.05952
--	-9.06268
▁espanto	-9.06289
▁semos	-9.06393
lık	-9.06452
▁musunuz	-9.06569
▁kuatro	-9.06715
lk	-9.06726
▁elbette	-9.06907
▁ayudar	-9.06928
▁djeneral	-9.06959
▁yemek	-9.07095
▁milyones	-9.07591
▁aspera	-9.07853
▁milyon	-9.08703
▁aspero	-9.08724
▁çocuklar	-9.08977
▁hoş	-9.09021
▁sinko	-9.09035
▁pekala	-9.09202
▁famiya	-9.09552
▁parti	-9.09702
▁yüksek	-9.09839
▁mano	-9.09906
larına	-9.09958
▁yama	-9.10024
▁numero	-9.10032
▁bakın	-9.10175
▁savia	-9.102
nden	-9.10597
▁yanlış	-9.10787
lardan	-9.10849
f	-9.11028
ini	-9.11063
▁hafta	-9.11254
▁nereye	-9.11355
▁suerte	-9.11488
▁faktos	-9.11684
▁persona	-9.11729
▁mio	-9.1178
ydi	-9.11829
▁lazım	-9.12136
miş	-9.12246
▁veo	-9.12524
▁işi	-9.1266
▁inglez	-9.12713
▁mutlu	-9.12939
▁paiz	-9.13079
ydı	-9.13117
tı	-9.1322
▁yılında	-9.13244
▁otomobil	-9.1332
▁benden	-9.13337
▁oraya	-9.13743
▁akşam	-9.13875
▁mizma	-9.14074
▁süre	-9.14089
▁amerika	-9.14104
▁igal	-9.14246
▁eder	-9.1425
▁çıkar	-9.14673
▁istiyorsun	-9.14707
ro	-9.14899
▁demando	-9.1493
▁sol	-9.14947
▁vina	-9.15298
▁gereken	-9.15414
▁kale	-9.15446
▁hava	-9.15474
sini	-9.15517
▁matar	-9.15982
▁beri	-9.16491
▁on	-9.16595
▁dışarı	-9.16663
▁vyene	-9.16793
▁merak	-9.16893
▁otras	-9.17046
▁paris	-9.17092
▁digo	-9.17167
▁pensi	-9.17288
lerden	-9.17542
▁erkek	-9.17826
▁torno	-9.17894
▁zamanda	-9.18041
▁kree	-9.18442
▁bin	-9.187
sınız	-9.18819
▁gidip	-9.19032
van	-9.19153
▁dedim	-9.19189
▁bivir	-9.19307
mız	-9.19398
▁fin	-9.19402
▁mansevo	-9.1952
▁kolay	-9.19557
▁in	-9.19689
▁kesinlikle	-9.197
dim	-9.19744
▁olması	-9.19879
▁marido	-9.20131
▁uvyera	-9.20247
▁grande	-9.20443
▁djuntos	-9.20477
▁mil	-9.2057
▁ayuda	-9.20712
▁dikkat	-9.2086
▁etme	-9.20937
▁neler	-9.20957
ria	-9.20981
▁ningun	-9.21067
▁new	-9.21076
tır	-9.21135
▁pas	-9.21278
▁puerta	-9.21374
miz	-9.21442
▁medio	-9.21654
▁lavorar	-9.21728
▁oras	-9.21808
▁tanrım	-9.21812
▁sinyifika	-9.22102
▁bastante	-9.22149
▁par	-9.22349
▁iva	-9.22504
▁minutos	-9.22737
▁punto	-9.22781
▁birçok	-9.22988
▁muchos	-9.23249
▁geçen	-9.23254
▁sonunda	-9.233
▁vino	-9.23344
▁estado	-9.23405
▁dizi	-9.23439
▁sağ	-9.23482
▁tamamen	-9.23531
▁semana	-9.23617
▁ortaya	-9.23631
▁ojos	-9.23831
▁gelir	-9.23913
son	-9.23967
▁böylece	-9.24066
▁murir	-9.24098
▁ara	-9.24168
▁üzerine	-9.24343
▁final	-9.24522
▁üzgünüm	-9.24527
▁gelen	-9.24604
▁falta	-9.24688
▁haber	-9.24755
▁yakın	-9.2488
▁desha	-9.24889
▁uniko	-9.24947
tu	-9.25101
▁gelecek	-9.25155
▁polis	-9.25371
▁manos	-9.25459
mak	-9.25543
▁altında	-9.25625
▁srta	-9.26059
▁kan	-9.26061
▁gördüm	-9.26099
▁posivle	-9.26315
▁shef	-9.26452
▁siguir	-9.26572
▁chiko	-9.26607
▁ermano	-9.26677
▁ondan	-9.26751
▁onların	-9.26756
bir	-9.26848
▁gerekiyor	-9.26912
▁sam	-9.26937
▁difisil	-9.27064
▁eran	-9.2737
▁bekle	-9.27426
sını	-9.27534
▁niye	-9.27629
.""""	-9.2777
▁dedi	-9.27836
▁tarihi	-9.2784
▁dün	-9.27858
ım	-9.27929
▁algnas	-9.27983
ine	-9.27997
▁egzempyo	-9.28072
▁yeniden	-9.28222
▁birini	-9.2827
▁luz	-9.28322
▁puevlo	-9.28428
▁çabuk	-9.28757
▁olsa	-9.2911
▁vinir	-9.29385
▁informasion	-9.29461
yu	-9.29474
lerine	-9.2964
▁yapma	-9.29656
v	-9.29709
▁hareket	-9.29913
▁tuve	-9.2995
▁arriva	-9.30058
▁kedar	-9.3008
▁hayal	-9.30142
▁frank	-9.30194
▁sistema	-9.30246
▁plan	-9.30339
▁eden	-9.30365
▁b	-9.30618
▁puerpo	-9.30823
▁aç	-9.30875
▁adı	-9.30891
▁insanların	-9.30923
▁gitti	-9.30943
▁asperar	-9.30945
▁sola	-9.3096
▁adios	-9.31081
▁mar	-9.31094
▁umarım	-9.31189
▁avra	-9.3124
▁durum	-9.31279
▁ayga	-9.31313
▁dostum	-9.31458
▁vale	-9.31479
▁tür	-9.31518
▁nuestras	-9.31522
so	-9.3184
▁c	-9.3201
▁indemas	-9.321
▁aya	-9.32135
▁yaşlı	-9.32174
▁değildi	-9.32426
▁araba	-9.3245
▁yap	-9.32734
▁karinyo	-9.32822
▁kısa	-9.32911
▁muerto	-9.32922
▁nesesito	-9.33075
▁özür	-9.33113
▁noches	-9.33204
▁gidelim	-9.33206
▁ateş	-9.33352
▁birşey	-9.33479
▁hangi	-9.33722
▁başına	-9.33811
▁avrupa	-9.33919
▁adelante	-9.33942
▁eminim	-9.3404
▁estuve	-9.34083
larının	-9.34117
za	-9.34207
▁başladı	-9.34369
▁cevap	-9.34497
▁).	-9.34535
▁puedia	-9.34975
▁komida	-9.35016
▁ana	-9.35098
▁trata	-9.35137
▁aptal	-9.35151
▁grandes	-9.35171
▁normal	-9.35241
▁saven	-9.35281
▁avla	-9.35494
▁azen	-9.35515
▁hızlı	-9.35534
▁sosyal	-9.35583
▁ev	-9.35618
▁bunları	-9.35858
▁yeva	-9.35942
▁beraber	-9.36154
▁mezes	-9.36221
dım	-9.36238
ci	-9.36454
▁altı	-9.36499
▁mas	-9.36642
▁toma	-9.36806
▁kizas	-9.36931
▁getir	-9.3725
▁yolu	-9.37256
▁sigue	-9.37498
▁pueda	-9.37524
▁supozo	-9.37615
▁leson	-9.37639
▁neredeyse	-9.37703
▁azes	-9.37843
▁kendimi	-9.37906
▁deven	-9.38021
▁aga	-9.38143
▁adım	-9.38245
is	-9.38281
▁estuvo	-9.38298
▁kontente	-9.387
▁nereden	-9.38706
▁hatta	-9.38821
▁loko	-9.39069
▁afrika	-9.39114
▁yamar	-9.3913
▁herhangi	-9.39203
▁korason	-9.3937
▁entendo	-9.39384
▁gidiyor	-9.39627
▁keren	-9.39793
▁do	-9.39831
▁ayego	-9.39875
▁kambio	-9.40236
▁konusunda	-9.40256
▁"""-	-9.40305
▁bazen	-9.40407
▁senden	-9.40483
▁ettim	-9.40641
▁üzere	-9.4091
ir	-9.40931
▁dyo	-9.40977
lerle	-9.41174
▁sufisiente	-9.41398
▁entrar	-9.41545
▁şöyle	-9.41655
▁fasil	-9.418
▁fuerte	-9.419
▁hâlâ	-9.42057
▁penso	-9.42124
▁kaye	-9.42443
▁nefret	-9.42522
larından	-9.4254
▁yoktu	-9.42675
▁ultima	-9.42733
▁pasado	-9.42739
▁buenos	-9.42775
▁re	-9.42913
▁öldü	-9.43022
▁nesesita	-9.4312
larla	-9.43136
▁halde	-9.43192
▁ijos	-9.43299
▁tatlım	-9.43302
▁d	-9.43799
▁yevo	-9.43874
▁durumda	-9.44003
ını	-9.44067
▁yamo	-9.44277
▁ago	-9.44403
▁dünyanın	-9.4441
▁supuesto	-9.44726
▁auto	-9.44754
▁göz	-9.44808
▁ca	-9.44814
▁kaptan	-9.44961
▁adamı	-9.44998
▁öyleyse	-9.45043
▁yanında	-9.45084
▁lanet	-9.45259
▁istediğim	-9.45313
▁bushkar	-9.45383
ü	-9.45476
▁joe	-9.45514
lerde	-9.45534
▁kat	-9.45869
▁sesh	-9.45874
▁demandar	-9.4591
▁biervo	-9.46151
▁justo	-9.46181
▁bilgi	-9.4643
▁sikiera	-9.46529
▁eyo	-9.4658
▁sala	-9.46621
▁olmuş	-9.46624
▁grupo	-9.46912
▁senyorita	-9.47076
▁tuvo	-9.47225
go	-9.47257
larda	-9.47322
▁beyaz	-9.47363
▁of	-9.47478
▁uygun	-9.475
▁hasta	-9.47606
▁henüz	-9.47621
▁uzar	-9.47645
▁gitmek	-9.47721
ba	-9.47752
ga	-9.47824
▁torna	-9.48046
▁muzika	-9.48175
▁sitio	-9.48246
▁chika	-9.48266
▁durmir	-9.48285
▁rahat	-9.48377
▁güçlü	-9.48585
▁ninguna	-9.48632
▁kamareta	-9.48636
▁largo	-9.48805
▁muryo	-9.48908
▁rey	-9.48942
lerinden	-9.48964
▁acı	-9.49121
▁yaptı	-9.49148
▁kalmo	-9.49171
▁soru	-9.49262
▁olursa	-9.4928
los	-9.49482
▁kama	-9.49513
▁sürü	-9.49574
▁olmadığını	-9.49633
▁hayat	-9.49973
▁dans	-9.49988
▁be	-9.50056
▁trokar	-9.50125
▁ka	-9.50178
▁modo	-9.50302
▁babam	-9.50401
▁almak	-9.50571
▁olun	-9.50605
▁seviyorum	-9.50772
▁yardımcı	-9.50781
▁entender	-9.50908
▁avria	-9.50909
lerinin	-9.50947
▁verdi	-9.50959
▁yalnızca	-9.50963
gülüşmeler	-9.50988
yim	-9.51339
▁çoğu	-9.51405
▁baş	-9.51501
▁yalan	-9.51809
▁basit	-9.51896
acak	-9.52011
▁eskola	-9.522
mo	-9.52244
▁abajo	-9.52287
▁gelin	-9.52347
▁oyun	-9.52389
su	-9.52465
▁bivo	-9.52549
▁dizen	-9.52557
▁publiko	-9.52776
▁kafe	-9.52928
▁kar	-9.5294
▁muevos	-9.53007
▁muncha	-9.53091
▁değildir	-9.5312
▁ultimo	-9.53173
▁film	-9.53243
ç	-9.53421
▁alto	-9.53503
▁boş	-9.53507
▁yüz	-9.5368
sine	-9.53846
▁paul	-9.53891
ado	-9.53908
▁birisi	-9.54096
▁sanki	-9.54132
w	-9.54181
▁uzak	-9.54201
▁kendine	-9.54275
▁oe	-9.5456
▁avlando	-9.5457
▁alan	-9.54675
▁olduğumu	-9.54942
▁aldı	-9.54966
▁m	-9.54971
▁olmayan	-9.55014
▁estados	-9.55062
▁leshos	-9.55114
▁desho	-9.55146
▁konoso	-9.5515
▁segndo	-9.55247
▁eskapar	-9.55284
▁pregnta	-9.55291
▁juego	-9.55421
▁sakin	-9.55423
▁içeri	-9.55437
dor	-9.5555
▁dilerim	-9.55744
▁armada	-9.55821
▁otel	-9.55983
din	-9.55983
▁evde	-9.56142
▁io	-9.56174
▁serio	-9.56266
▁roma	-9.56275
▁embargo	-9.56547
▁savemos	-9.56647
▁biervos	-9.56695
▁selam	-9.56966
▁yeter	-9.57327
▁dışında	-9.5733
▁senso	-9.57359
▁david	-9.57599
x	-9.57717
sam	-9.58049
▁takip	-9.58057
▁alma	-9.58152
ton	-9.58184
nos	-9.58253
▁mümkün	-9.58655
lardı	-9.58704
▁asperando	-9.58848
▁tio	-9.58902
▁konsegir	-9.58905
▁datos	-9.58924
▁hayatım	-9.58933
▁konuşmak	-9.59085
▁korva	-9.59132
▁mary	-9.59175
us	-9.59237
▁iç	-9.59294
be	-9.59309
▁politika	-9.59377
ri	-9.59421
▁unas	-9.59468
▁fe	-9.59662
▁verme	-9.59702
▁g	-9.59767
▁yapıyor	-9.59811
▁ait	-9.59842
▁olup	-9.60119
▁estavan	-9.60173
▁yaklaşık	-9.60364
▁görünüyor	-9.60408
▁aserka	-9.60462
ben	-9.60585
▁yaptım	-9.60687
▁adamın	-9.60709
▁çık	-9.60786
▁oportunidad	-9.60789
▁derecho	-9.60839
▁dishites	-9.60861
▁çıktı	-9.60877
▁rahatsız	-9.61011
▁günü	-9.61019
▁pagar	-9.61049
▁tenga	-9.61103
▁atras	-9.61244
▁sal	-9.61254
▁viaje	-9.61358
▁şarkı	-9.61422
▁majorita	-9.61465
j	-9.6153
▁odren	-9.61554
▁fikir	-9.6178
▁jim	-9.61938
▁ermana	-9.61966
larında	-9.61984
arak	-9.62062
▁charlie	-9.62513
▁prove	-9.62634
▁livro	-9.6273
▁izites	-9.62774
▁vuelta	-9.62884
▁hepimiz	-9.62933
▁çek	-9.62971
▁listo	-9.63001
▁özellikle	-9.6302
▁aşağı	-9.6348
▁keremos	-9.63529
▁düşündüm	-9.63594
▁konuda	-9.63607
pe	-9.63635
mek	-9.63636
nızı	-9.6378
▁real	-9.63804
▁paizes	-9.63806
▁governo	-9.6405
▁sangre	-9.64333
les	-9.64347
▁tabi	-9.64469
▁canım	-9.64477
▁empesar	-9.64589
sak	-9.64691
▁diga	-9.64752
fi	-9.64759
▁ciddi	-9.64834
▁söyledim	-9.64843
▁ee	-9.64905
▁güç	-9.6492
▁futuro	-9.64995
▁kaldı	-9.65008
▁kuarto	-9.65053
▁verin	-9.65097
▁akabo	-9.65113
yım	-9.65128
▁alderredor	-9.6516
por	-9.65199
▁geldim	-9.65348
▁dolu	-9.6535
▁dizes	-9.65367
▁pedrer	-9.65367
pa	-9.65407
▁salud	-9.65646
▁nesesitamos	-9.65728
ja	-9.65772
▁jack	-9.65802
▁yüzünden	-9.65958
▁preto	-9.65978
▁yapıyorsun	-9.66001
▁sien	-9.66259
▁ekipo	-9.66264
▁aldım	-9.66272
▁unika	-9.66312
▁korkunç	-9.66652
▁filmo	-9.66667
▁diez	-9.66727
▁zamanı	-9.66735
▁konsultado	-9.6675
▁tahmin	-9.66753
▁hayatta	-9.66921
▁silah	-9.67014
▁dejame	-9.67154
▁söylüyor	-9.67155
siz	-9.67161
▁jon	-9.67205
▁düşünüyorum	-9.6725
▁söylemek	-9.67408
▁teniente	-9.67439
▁vapor	-9.67541
▁enerjia	-9.67724
ama	-9.6777
▁arada	-9.6778
sunuz	-9.67788
▁terreno	-9.67833
▁dile	-9.67896
▁yeterince	-9.6796
▁sık	-9.67965
▁pensa	-9.68019
ley	-9.68231
▁mısınız	-9.68231
▁buro	-9.68237
▁general	-9.6831
▁sizinle	-9.68367
▁olduğuna	-9.68395
▁şeyin	-9.68593
▁meoyo	-9.6865
▁dan	-9.68681
▁anlat	-9.68737
▁yaşam	-9.68835
?"""	-9.68854
▁keda	-9.69018
▁baylar	-9.69125
▁ley	-9.69129
▁çalışma	-9.69282
▁acele	-9.69315
▁sielo	-9.69365
▁p	-9.69366
▁libre	-9.6937
▁mesaje	-9.69485
sanız	-9.6953
▁etmeye	-9.69762
▁oldum	-9.69878
▁tut	-9.699
rse	-9.70053
▁terk	-9.70093
muş	-9.70159
▁beyler	-9.7024
▁kalma	-9.70302
▁bağlı	-9.7039
▁syendo	-9.70407
▁john	-9.70434
▁u	-9.70435
▁l	-9.70476
▁evlat	-9.70602
▁fuerza	-9.70751
▁şeyleri	-9.7087
nizi	-9.709
▁presidente	-9.70922
ngilizce	-9.70992
▁gördün	-9.71217
▁k	-9.71249
ue	-9.71482
▁repuesta	-9.71492
ter	-9.71707
▁plazer	-9.71799
▁kulpa	-9.72065
▁amerikano	-9.72089
▁oye	-9.72224
▁acaba	-9.72285
▁edad	-9.7243
▁yaz	-9.72619
▁sürekli	-9.72745
▁dön	-9.72746
▁oro	-9.72868
▁sıcak	-9.72894
▁noel	-9.72963
nu	-9.72973
▁edecek	-9.72992
▁ölüm	-9.73057
▁olmadan	-9.73192
▁akontese	-9.73433
bi	-9.73498
▁kendisi	-9.7355
▁kızı	-9.73998
▁falan	-9.74045
▁şeye	-9.741
▁mükemmel	-9.74116
▁parça	-9.74304
▁bovo	-9.74313
▁kesin	-9.74344
▁konuşma	-9.74464
▁sıra	-9.74497
▁ihtiyacım	-9.74533
▁diferentes	-9.74679
▁karta	-9.74705
▁ayre	-9.74752
▁video	-9.74836
▁bi	-9.75002
▁koronel	-9.75066
▁varsa	-9.75101
▁içki	-9.75103
sek	-9.75131
ması	-9.7517
zi	-9.75507
▁media	-9.75591
▁semanas	-9.75907
▁malo	-9.76157
▁neyse	-9.76207
▁resto	-9.76317
nte	-9.76328
▁konose	-9.76344
▁eksaktamente	-9.76357
▁ikinci	-9.76358
▁chikas	-9.76447
▁muhtemelen	-9.76586
▁zavallı	-9.7669
▁kompanyia	-9.76699
▁sigiente	-9.7672
▁yedi	-9.76721
▁t	-9.76734
▁sur	-9.7676
▁annem	-9.76862
▁gelip	-9.77038
▁sevgili	-9.77054
▁pregntas	-9.77085
▁sence	-9.77091
▁değilsin	-9.77312
▁red	-9.77436
▁vista	-9.77474
▁albay	-9.77477
▁papel	-9.77594
▁fuego	-9.77649
▁alın	-9.77661
ge	-9.77901
at	-9.77901
▁oğlum	-9.77927
lan	-9.78018
▁pro	-9.78039
▁maldicho	-9.78086
ran	-9.78201
▁rağmen	-9.7822
▁konu	-9.78328
▁verlo	-9.78386
ian	-9.78521
▁memnun	-9.78586
▁diferente	-9.78647
▁oi	-9.78733
▁simplemente	-9.78768
▁yapmaya	-9.78845
"".	-9.78933
▁dair	-9.78956
▁güneş	-9.79113
▁yukarı	-9.79221
▁rio	-9.79261
▁müzik	-9.79309
▁mala	-9.79424
▁topo	-9.79463
▁dersin	-9.79466
▁f	-9.79479
▁segridad	-9.79529
▁vermek	-9.79541
▁zengin	-9.79589
▁prinsipio	-9.79629
▁patron	-9.79657
▁olurdu	-9.79798
▁bilim	-9.79899
▁merkar	-9.80052
▁bar	-9.80066
▁pase	-9.80067
▁unidos	-9.80168
▁istedim	-9.80192
▁ifade	-9.80259
▁pronta	-9.8029
▁garip	-9.80389
▁insanları	-9.80488
▁ele	-9.80531
ün	-9.8088
▁pie	-9.80904
je	-9.81019
▁djugar	-9.81084
▁azından	-9.81254
▁kahve	-9.81267
▁duydum	-9.81399
▁negro	-9.81494
▁ta	-9.81549
▁altın	-9.8155
sına	-9.81561
▁basta	-9.81656
▁kreer	-9.81657
▁tuhaf	-9.81683
▁sonraki	-9.8169
▁vete	-9.81699
▁dame	-9.81704
▁george	-9.81737
mızı	-9.81745
fa	-9.81789
▁vido	-9.81886
▁miles	-9.82062
▁yapacak	-9.82118
maya	-9.82146
▁treno	-9.82358
▁padres	-9.82428
▁verdim	-9.82489
▁konoser	-9.82501
▁kontar	-9.82543
▁profesor	-9.82624
▁bitti	-9.82718
ız	-9.82726
ste	-9.82924
▁azemos	-9.82955
▁prova	-9.82967
kar	-9.83016
▁gidiyorum	-9.83141
cı	-9.83172
▁prinsipal	-9.8326
st	-9.83265
▁irse	-9.83388
▁mire	-9.8342
▁galiba	-9.83463
▁olacağım	-9.83562
▁puederiamos	-9.83606
▁respekto	-9.83657
dik	-9.839
▁televizyon	-9.83906
ha	-9.83926
▁yamado	-9.83934
▁to	-9.84097
▁çalışıyor	-9.84099
▁olacağını	-9.84125
ıp	-9.84125
▁michael	-9.84298
▁km	-9.84334
▁geceler	-9.84358
las	-9.84373
▁yavaş	-9.84438
▁kaza	-9.84535
▁kavayo	-9.84561
▁bende	-9.84604
▁ei	-9.84694
▁detras	-9.84743
▁bayım	-9.8476
▁uyuşturucu	-9.84798
▁geçti	-9.84838
▁topa	-9.84915
▁kijera	-9.84962
▁sakın	-9.84998
▁olamaz	-9.85089
▁amo	-9.85091
▁prezensia	-9.85204
▁espasio	-9.85208
▁propya	-9.85211
▁hata	-9.85256
▁djunto	-9.85303
▁pensando	-9.8548
▁planeta	-9.85494
▁asıl	-9.8554
▁banyo	-9.85549
▁olma	-9.85704
liği	-9.85737
▁birinin	-9.85749
▁koy	-9.85839
▁uds	-9.8587
yan	-9.8606
acağım	-9.86063
▁j	-9.86083
▁eyas	-9.8621
▁mia	-9.86212
▁bunların	-9.8622
▁sentro	-9.86297
▁armas	-9.86303
▁unutma	-9.86382
▁sinyoos	-9.86414
▁movimiento	-9.86486
▁otur	-9.86524
▁aplausos	-9.86547
▁gerektiğini	-9.86728
▁espesial	-9.86894
▁belli	-9.86919
▁avlo	-9.86962
▁bushkando	-9.86996
▁izyeron	-9.87059
▁mato	-9.87078
▁buz	-9.87189
bo	-9.87197
▁parayı	-9.87228
jo	-9.87238
sem	-9.8738
▁mo	-9.87412
▁ganar	-9.87456
▁zarar	-9.8746
▁doğal	-9.87495
▁vites	-9.8752
dum	-9.87659
▁dünyada	-9.87757
▁şehir	-9.87798
▁komik	-9.87866
▁partes	-9.87967
min	-9.88036
▁voz	-9.88071
▁linea	-9.88171
▁işin	-9.88297
▁kadınlar	-9.88324
▁yakında	-9.88366
▁alman	-9.88457
."	-9.88484
ip	-9.88529
▁hanımefendi	-9.88546
▁ölü	-9.88578
▁situasion	-9.8883
▁nesesario	-9.88975
▁probablemente	-9.89053
▁miyiz	-9.89113
▁bilmek	-9.89309
▁yeterli	-9.89318
▁yamada	-9.89442
▁ko	-9.89487
▁deniz	-9.89533
il	-9.89535
▁numara	-9.89552
?""""	-9.89562
▁genel	-9.89641
ku	-9.89644
▁ülke	-9.89655
▁programa	-9.89682
lerinde	-9.89709
▁resmi	-9.89868
▁norte	-9.89925
▁can	-9.89947
erişim	-9.90147
▁akodro	-9.90282
▁amerikan	-9.90394
▁parçası	-9.90414
▁enfrente	-9.90534
▁hepsini	-9.90639
nsanlar	-9.9068
▁asigun	-9.90738
sel	-9.90897
▁anoche	-9.90911
▁gir	-9.90968
▁alır	-9.9097
huenyo	-9.91128
▁er	-9.9113
▁interesante	-9.9114
▁çocuğu	-9.91149
▁universidad	-9.91149
▁olmayacak	-9.91154
▁derece	-9.91193
▁disheron	-9.9132
▁estudio	-9.91339
▁duro	-9.91462
▁penserios	-9.91517
▁götür	-9.91541
▁deli	-9.91601
▁olmadı	-9.91642
▁düşün	-9.91686
▁fostan	-9.91705
▁verir	-9.91767
▁ilginç	-9.91821
▁diyor	-9.91869
evet	-9.91896
▁tercih	-9.91938
▁co	-9.92
▁sakar	-9.92043
▁sessiz	-9.92046
▁echar	-9.92097
▁saniye	-9.92106
▁propyo	-9.92315
▁konuş	-9.92342
▁yoktur	-9.9241
▁mijores	-9.92428
▁krear	-9.92597
▁temel	-9.92603
▁ağır	-9.92635
▁pan	-9.92641
▁bive	-9.92741
mu	-9.92741
▁kolorado	-9.92893
▁aşk	-9.92899
▁tony	-9.92976
abilir	-9.92981
çeri	-9.93036
ver	-9.93058
▁grup	-9.93097
▁kimin	-9.93145
▁ayer	-9.93168
▁isterim	-9.93207
▁yapacağım	-9.93256
▁and	-9.93258
▁sahibi	-9.93264
▁ofisial	-9.93382
▁mostrar	-9.93483
▁eskrivir	-9.93597
it	-9.93657
▁ves	-9.9377
▁ortak	-9.93803
▁aile	-9.93813
▁valor	-9.93877
▁ensima	-9.93901
▁vemos	-9.93999
▁sigunda	-9.94068
ble	-9.94114
▁egziste	-9.94185
ur	-9.94225
▁torne	-9.94248
▁konsejo	-9.94252
▁siete	-9.94254
▁medra	-9.94272
▁yapar	-9.94361
▁akodra	-9.94471
▁erken	-9.94483
▁menudo	-9.94521
▁umanos	-9.94549
▁vyeron	-9.94565
▁yüzde	-9.94623
▁yaptığı	-9.94632
▁mitad	-9.94651
▁tecnologia	-9.94736
▁bas	-9.94803
▁boka	-9.94813
şe	-9.94838
ecek	-9.94857
▁sujeto	-9.94861
ze	-9.94891
▁evropa	-9.94938
▁alıp	-9.95006
▁finalmente	-9.95051
▁yapan	-9.95052
ada	-9.95129
ıyor	-9.95185
▁dizyendo	-9.95334
),	-9.95411
ster	-9.95461
▁edukasion	-9.95471
▁sa	-9.95478
▁emposivle	-9.95629
▁yıldır	-9.95632
der	-9.95785
▁perro	-9.95861
▁bey	-9.95862
▁personal	-9.9587
▁dvrias	-9.95923
▁göster	-9.95948
▁durumu	-9.96004
▁canlı	-9.96026
▁nivel	-9.9603
luk	-9.96081
▁ambezar	-9.96132
▁ospital	-9.96277
▁yan	-9.96304
▁extranyo	-9.96442
▁bebek	-9.96577
▁sefer	-9.96595
▁içine	-9.96628
ck	-9.96632
▁sene	-9.96847
▁tatlı	-9.9685
▁muchacho	-9.9688
▁ihtiyacı	-9.97028
▁enerji	-9.97056
▁radio	-9.97056
▁dime	-9.97068
▁biy	-9.97094
▁danyo	-9.9711
▁asentir	-9.97162
▁akontesyo	-9.97215
▁ba	-9.97253
▁ponte	-9.97266
▁bekliyor	-9.97312
▁kosta	-9.97341
▁yüzbaşı	-9.97458
▁djeordje	-9.97477
▁mente	-9.97546
▁tratar	-9.97767
▁areria	-9.97788
▁eğitim	-9.97803
▁mach	-9.97828
▁hale	-9.97882
▁düşünüyorsun	-9.97983
▁görüşürüz	-9.97997
▁servisio	-9.98021
▁james	-9.98078
▁funsiona	-9.98157
▁minuto	-9.98186
ngiliz	-9.9826
▁arma	-9.98335
▁bizimle	-9.98338
▁topi	-9.9838
▁prisa	-9.98429
▁adonde	-9.98453
▁bununla	-9.98519
ktan	-9.98525
▁sevgilim	-9.98653
ando	-9.98683
▁soğuk	-9.98733
▁yaşında	-9.98763
▁sinema	-9.98783
▁önünde	-9.98862
▁charles	-9.98878
▁keşke	-9.98888
▁mez	-9.98896
dji	-9.98916
▁umano	-9.98937
▁gerekir	-9.98954
▁bulunan	-9.98989
▁buldum	-9.99051
▁bomba	-9.99079
▁demanda	-9.99107
▁çalış	-9.99162
▁zamanlar	-9.99188
▁mantener	-9.99204
▁mansevoes	-9.99233
▁eksito	-9.99335
sal	-9.99351
▁taksi	-9.99357
▁miembros	-9.99384
▁eks	-9.9939
co	-9.99391
▁arte	-9.99465
▁şans	-9.99484
▁foto	-9.99504
sız	-9.9959
alım	-9.99731
▁dolayı	-9.9976
▁kırmızı	-9.99802
▁şaka	-9.99844
▁s	-9.9998
▁satın	-9.99995
▁temiz	-10.0004
▁trato	-10.0013
▁hak	-10.0017
▁kapıyı	-10.0021
▁oir	-10.0051
▁nasional	-10.0052
▁libertad	-10.0052
▁avian	-10.0056
▁puesto	-10.0057
▁güven	-10.0058
▁adını	-10.0059
▁v	-10.006
▁odrenes	-10.0071
▁nave	-10.0077
▁meldar	-10.0086
pero	-10.0088
▁negosio	-10.0112
▁kral	-10.0119
▁blanko	-10.012
mizi	-10.0126
▁suç	-10.0127
▁istedi	-10.0134
▁koca	-10.014
▁bırakın	-10.0145
▁dava	-10.0147
oh	-10.015
▁yaptın	-10.0156
▁değer	-10.0173
▁meza	-10.0176
▁benzer	-10.018
▁ey	-10.0182
▁yapılan	-10.0182
▁nuvelas	-10.0188
vo	-10.0189
▁gizli	-10.0196
▁tedavi	-10.0202
▁sean	-10.0206
▁apartamento	-10.0211
▁fransez	-10.0212
inin	-10.0222
▁sor	-10.0223
yken	-10.023
▁dışarıda	-10.0234
▁ja	-10.0243
▁investigasion	-10.0243
▁akaba	-10.0243
▁güney	-10.0252
▁makina	-10.0253
▁ihtiyacımız	-10.0254
▁avion	-10.0255
▁savaşı	-10.0262
una	-10.0269
▁yeri	-10.0275
▁sanmıyorum	-10.0279
▁adreso	-10.0287
▁üçüncü	-10.029
▁eskapo	-10.0294
▁kalan	-10.0305
▁defa	-10.0309
▁peter	-10.031
▁elde	-10.0311
ji	-10.0314
▁internet	-10.0317
▁agas	-10.0335
▁pishin	-10.0348
▁tomo	-10.035
▁),	-10.0359
▁üst	-10.0364
▁perfekto	-10.0369
▁çalışan	-10.037
▁sebep	-10.04
▁sido	-10.041
▁kantika	-10.0411
▁kitap	-10.0411
io	-10.0413
lığı	-10.0414
tra	-10.0418
▁yerinde	-10.042
▁dikkatli	-10.0437
▁birleşik	-10.044
▁gider	-10.0445
▁çin	-10.0449
▁masa	-10.0451
▁dizirle	-10.0453
▁arkadaşım	-10.0457
▁bul	-10.0458
▁dua	-10.0468
▁kapa	-10.0472
▁komun	-10.0478
ber	-10.0483
▁mete	-10.0483
▁bebe	-10.0492
▁abd	-10.0495
▁görev	-10.0502
▁partir	-10.0505
▁baza	-10.0511
▁derecha	-10.0511
▁devamos	-10.0512
▁mundial	-10.0512
po	-10.0518
▁muhteşem	-10.0519
▁oda	-10.0527
▁kalk	-10.0532
▁simple	-10.0533
▁ulusal	-10.0544
▁anlıyorum	-10.0553
▁arka	-10.0555
▁tıpkı	-10.0557
▁dizia	-10.0559
▁rapor	-10.0562
▁onor	-10.0569
▁ocho	-10.0578
▁araştırma	-10.0582
▁ufak	-10.0583
▁herkesin	-10.0586
▁mr	-10.0586
gan	-10.0588
▁pre	-10.0595
▁olsaydı	-10.0606
▁davet	-10.061
▁asker	-10.0617
kon	-10.0617
▁kuantos	-10.0621
kahkahalar	-10.0622
ista	-10.0631
▁kaldır	-10.0638
▁gidiyoruz	-10.0646
▁ed	-10.0646
▁echos	-10.0647
▁sigara	-10.0658
▁gemi	-10.066
▁empeso	-10.0667
▁örneğin	-10.067
▁adına	-10.0671
seniz	-10.0676
inde	-10.0685
▁yaptığını	-10.0693
tar	-10.0694
▁puedyo	-10.0694
▁ön	-10.0695
▁teğmen	-10.0697
▁st	-10.0699
▁madam	-10.0701
▁konosido	-10.0704
▁komandante	-10.0709
▁evi	-10.0713
▁siedra	-10.0722
ing	-10.0722
▁mirar	-10.0725
▁maria	-10.073
▁siyah	-10.0738
▁inşa	-10.074
▁patin	-10.0746
▁arasındaki	-10.0748
▁kullan	-10.0756
gi	-10.0765
ed	-10.0769
▁puederias	-10.0783
▁aşık	-10.0785
▁ambre	-10.0786
▁olay	-10.0787
▁sezon	-10.0787
▁puederian	-10.0797
▁r	-10.0799
▁niçin	-10.0803
▁yabancı	-10.0804
▁buradaki	-10.0806
kan	-10.0808
▁eksperiensia	-10.0809
▁truer	-10.0809
▁güle	-10.0814
▁kera	-10.0819
▁kolor	-10.0821
▁neyin	-10.0824
▁herhalde	-10.0825
▁ses	-10.0833
▁yemin	-10.0836
▁lavorando	-10.0839
▁inkreible	-10.0841
▁sar	-10.085
▁suya	-10.0861
▁yola	-10.0871
▁ira	-10.0872
▁maraviyoso	-10.0879
▁izimos	-10.09
▁kuzey	-10.0904
▁ideas	-10.0923
▁sosiedad	-10.0929
nsan	-10.0938
▁hikaye	-10.0939
▁sağlık	-10.0943
▁örnek	-10.0951
▁azia	-10.0952
▁darle	-10.0957
▁formas	-10.0964
▁lider	-10.0965
ch	-10.0966
▁kerer	-10.0968
▁piesa	-10.0973
▁başkan	-10.0974
▁ayega	-10.0979
▁salvo	-10.0986
▁bilir	-10.0998
▁animales	-10.0999
▁diferensya	-10.1008
▁salyo	-10.1016
▁pensava	-10.1025
ie	-10.1028
▁relasion	-10.1037
▁amable	-10.1043
▁bilmiyor	-10.1044
▁man	-10.1047
▁ambos	-10.1047
▁vakit	-10.1063
▁tirar	-10.1071
▁ted	-10.1083
▁sekiz	-10.1083
yen	-10.1086
▁edildi	-10.1087
▁alt	-10.1091
▁inan	-10.1091
▁idiota	-10.1092
▁desarroyo	-10.1094
tur	-10.1102
▁ek	-10.1104
▁biliyoruz	-10.1106
▁intentar	-10.1107
dığını	-10.1115
erek	-10.1135
▁alta	-10.1135
▁bob	-10.1139
▁hizmet	-10.1147
pi	-10.1155
▁günaydın	-10.1156
rme	-10.116
▁luna	-10.1163
▁bo	-10.1164
▁görmeye	-10.1164
▁krei	-10.1165
men	-10.1175
▁temo	-10.1181
▁sevindim	-10.1181
▁verici	-10.1182
▁anlama	-10.1184
▁pazar	-10.1191
▁fabrika	-10.1199
▁çalışıyorum	-10.1199
▁metyo	-10.1199
▁kupa	-10.1201
tas	-10.1216
▁bulmak	-10.1216
▁marka	-10.1219
▁japon	-10.1238
▁puedi	-10.1242
▁üstünde	-10.1262
▁kapı	-10.1265
▁okul	-10.127
▁ku	-10.1272
▁kausa	-10.1276
▁dek	-10.129
▁siglo	-10.1291
▁prens	-10.1293
▁yelado	-10.1301
mıştı	-10.1309
▁riko	-10.1311
▁pasando	-10.1311
▁proyekto	-10.1311
▁susede	-10.1313
vi	-10.1315
▁embiar	-10.132
▁permite	-10.1339
▁siensias	-10.1345
▁dahil	-10.1357
▁digas	-10.1362
▁tehlikeli	-10.1363
acağız	-10.1367
▁don	-10.1371
▁washington	-10.1372
▁h	-10.1372
fue	-10.1375
▁per	-10.1377
▁demandi	-10.1384
▁birine	-10.1384
malıyız	-10.1385
▁sinyal	-10.1388
▁balık	-10.1396
ır	-10.14
ros	-10.1403
▁üstüne	-10.141
▁debido	-10.1415
▁teslim	-10.142
▁djuzgo	-10.1421
▁intento	-10.1423
▁hayvan	-10.1424
▁gsto	-10.1432
▁karrera	-10.1432
▁olmaya	-10.1436
▁köpek	-10.1439
▁derin	-10.1441
▁banko	-10.1448
▁herif	-10.1452
▁tra	-10.1452
▁profesör	-10.1453
▁bever	-10.1453
▁li	-10.1469
▁genellikle	-10.1473
▁gayet	-10.1473
▁oyir	-10.1473
▁unut	-10.1478
▁elevos	-10.1495
▁çift	-10.1497
▁meta	-10.1518
▁olduğum	-10.1522
▁kompletamente	-10.1526
ngiltere	-10.1531
▁orta	-10.1533
▁rol	-10.1536
▁asente	-10.1537
▁livros	-10.1537
▁sende	-10.1551
▁mayo	-10.1553
▁proseso	-10.1559
▁mike	-10.1568
▁estavas	-10.1574
▁kap	-10.1574
▁dolor	-10.1598
▁sekreto	-10.16
▁diyorum	-10.16
ng	-10.1605
▁kardeşim	-10.1606
▁motor	-10.1609
▁kalın	-10.161
▁sardjento	-10.1613
▁bira	-10.1615
▁mac	-10.162
ks	-10.1623
▁batı	-10.1624
▁oradan	-10.1629
▁zona	-10.164
yız	-10.1648
▁devlet	-10.1649
▁gelmiş	-10.165
unu	-10.1652
ly	-10.1655
▁sert	-10.1663
▁merkezi	-10.1664
"""	-10.1666
▁edeceğim	-10.1668
çi	-10.1669
dje	-10.168
▁drogas	-10.1686
▁arkadaş	-10.1692
▁go	-10.1697
▁yanına	-10.1704
▁say	-10.1706
▁hissediyorum	-10.1709
▁club	-10.1711
▁negosios	-10.1718
▁preokupes	-10.1724
▁sebebi	-10.1724
▁asasino	-10.1731
▁fraguar	-10.1738
ll	-10.174
▁yolunda	-10.1741
▁mektup	-10.1749
▁martin	-10.175
▁ultimos	-10.1755
▁yaşayan	-10.1772
▁akabar	-10.1774
▁edebilir	-10.1781
chi	-10.1781
▁pelo	-10.1784
▁amerikalı	-10.1784
idad	-10.1791
▁sivil	-10.1793
▁direktor	-10.1801
▁biliyordum	-10.1802
▁pis	-10.1803
▁kualkiera	-10.1805
zo	-10.1807
▁çavuş	-10.181
▁gerekli	-10.181
▁pekâlâ	-10.1817
▁söyleme	-10.183
▁espesie	-10.1831
▁terrivle	-10.1831
dores	-10.1832
sinde	-10.1833
▁mark	-10.1834
▁bilgisayar	-10.1838
▁ediyorsun	-10.1843
▁biliyorsunuz	-10.1846
ul	-10.1848
▁union	-10.1854
▁imaje	-10.1856
▁işler	-10.1858
▁benziyor	-10.186
▁mavi	-10.1861
▁fransa	-10.1863
▁ye	-10.1866
▁viejos	-10.1867
▁almaya	-10.1869
▁kızlar	-10.1879
▁gidin	-10.19
▁pesar	-10.1901
cu	-10.1901
▁uvo	-10.1906
▁fransız	-10.1909
▁kavo	-10.1909
▁başarılı	-10.1914
▁robert	-10.1924
▁sanıyorsun	-10.1929
▁futbol	-10.1933
▁natura	-10.1933
▁londra	-10.1944
▁kedo	-10.1946
▁aspere	-10.195
▁ten	-10.1953
▁vash	-10.1953
▁cinayet	-10.196
res	-10.1961
▁entendes	-10.1961
▁düşünüyor	-10.1963
ido	-10.1986
▁korrekto	-10.1987
▁görüyorum	-10.2002
▁araya	-10.2005
▁londres	-10.201
malısın	-10.2011
▁sistemi	-10.2013
▁olmasını	-10.2014
▁insanın	-10.2018
▁ışık	-10.2052
▁seas	-10.206
▁du	-10.2063
wa	-10.2066
▁muchachos	-10.2067
▁askeri	-10.2071
▁yemeği	-10.2076
▁provas	-10.2078
▁geliyorum	-10.2078
▁avrir	-10.208
"""""""	-10.2085
▁durun	-10.2088
▁veriyor	-10.2092
▁via	-10.2094
▁irme	-10.2096
▁saverlo	-10.2099
▁uso	-10.2118
▁kelime	-10.2121
▁x	-10.2122
ismo	-10.2129
ser	-10.2129
▁bazıları	-10.2133
▁bilirsin	-10.2137
▁park	-10.2146
▁orejas	-10.215
land	-10.2151
▁haklı	-10.2158
▁diyorsun	-10.2164
▁estavamos	-10.2166
sido	-10.2167
▁geniş	-10.2171
▁mesela	-10.2171
▁geldin	-10.2172
▁tokar	-10.2173
hayır	-10.2177
▁''	-10.2178
▁maestro	-10.2183
▁konoses	-10.2185
siones	-10.2195
▁orkestra	-10.2196
▁kasha	-10.2196
et	-10.2196
▁pensas	-10.22
▁jo	-10.222
iyor	-10.2224
▁sonuç	-10.2226
lü	-10.2231
▁posta	-10.2235
▁vidas	-10.2235
▁mando	-10.2238
▁permiso	-10.2241
▁harry	-10.2242
▁dalga	-10.2246
▁yıldız	-10.2248
lama	-10.2251
▁atake	-10.2255
▁takım	-10.2257
ah	-10.2263
▁yarım	-10.2268
yse	-10.2279
▁varios	-10.2282
ner	-10.2284
kinci	-10.2286
▁olvidar	-10.2288
▁sena	-10.2288
▁karne	-10.2298
▁fostano	-10.2304
▁fransia	-10.2308
▁yiyecek	-10.2309
▁serie	-10.2309
▁kapat	-10.231
sana	-10.231
▁anlamı	-10.2317
larımız	-10.2321
▁berbat	-10.2326
tik	-10.2327
▁opinion	-10.2332
▁hoşça	-10.2334
▁silensio	-10.2345
▁plazen	-10.2347
▁onlarla	-10.2348
era	-10.236
▁dever	-10.2372
▁muertos	-10.2376
esta	-10.2386
▁sırasında	-10.2391
▁pies	-10.2397
▁salvar	-10.2403
cha	-10.2406
▁djenial	-10.241
masını	-10.2411
▁akodrar	-10.2419
▁sale	-10.2422
▁alabilir	-10.2425
▁totalmente	-10.2429
liğe	-10.243
▁anladım	-10.2452
gar	-10.2461
▁akel	-10.2463
▁saçma	-10.2464
▁resulta	-10.2469
▁puedyera	-10.2482
▁destek	-10.2483
▁sinyor	-10.2487
▁ayak	-10.249
yer	-10.249
▁doğu	-10.2502
▁uzay	-10.2505
▁tipos	-10.2506
▁kantidad	-10.251
▁madde	-10.2523
▁dubio	-10.2523
▁kavayos	-10.2524
▁adamlar	-10.2535
▁peder	-10.2537
larıyla	-10.254
▁sesi	-10.2546
▁babası	-10.2553
▁istiyoruz	-10.2557
▁giden	-10.2561
▁neyi	-10.2563
▁söyler	-10.2564
▁serbest	-10.2571
▁duydun	-10.2572
▁kaya	-10.2573
▁bol	-10.2576
▁kineza	-10.2582
▁ziyaret	-10.2587
ak	-10.2587
▁insanlara	-10.2593
▁pasensia	-10.2593
▁tenian	-10.2604
leriyle	-10.2606
▁sıkı	-10.2614
▁total	-10.2622
▁ensenyar	-10.2624
▁anti	-10.2624
▁entende	-10.2626
▁iglesia	-10.2636
▁istediğini	-10.2638
▁true	-10.2639
▁delantre	-10.2643
▁komunidad	-10.2644
▁subir	-10.2653
meye	-10.2654
ebilir	-10.2656
▁berlin	-10.2657
▁kapachi	-10.2658
▁kutsal	-10.2659
▁beyin	-10.2661
▁estuvites	-10.2662
▁inanılmaz	-10.2662
▁estaria	-10.2667
▁kimsenin	-10.2672
▁resivir	-10.2676
▁ardından	-10.2694
▁varmış	-10.2696
▁sat	-10.2699
amos	-10.27
▁kendime	-10.2702
▁sırada	-10.2709
▁ab	-10.2712
▁eksplika	-10.2712
▁sonya	-10.2715
▁yerini	-10.2717
▁informe	-10.2719
▁avre	-10.272
izo	-10.2722
▁diria	-10.2722
fe	-10.2733
▁kazamiento	-10.2739
▁birliği	-10.2741
▁çıkan	-10.2742
dın	-10.2756
▁frente	-10.2756
▁sizden	-10.2763
▁kur	-10.2763
▁söylüyorum	-10.2782
▁kol	-10.2791
▁marcha	-10.2811
▁tarihinde	-10.2812
▁yaşıyor	-10.2815
▁for	-10.2819
▁zamandır	-10.2822
▁fa	-10.2822
▁çal	-10.2825
▁kargo	-10.2828
ry	-10.284
▁dicho	-10.2844
▁steve	-10.2846
▁görüyor	-10.2848
▁ermoza	-10.2856
▁yapacağız	-10.2858
▁natural	-10.286
▁toka	-10.2864
mıştım	-10.2866
▁gösteriyor	-10.2867
▁suçlu	-10.2868
am	-10.2872
▁önceki	-10.2874
▁çocukları	-10.2877
▁gerçeği	-10.2882
▁korkarım	-10.2882
▁başkanı	-10.2883
tos	-10.2885
▁jean	-10.2891
▁carsel	-10.2894
▁nedeni	-10.2895
▁kendim	-10.2896
▁arry	-10.2898
▁anlamına	-10.2899
▁kişisel	-10.2901
▁birinci	-10.2901
▁jane	-10.2903
▁veriyorum	-10.2904
taki	-10.2911
▁nesesitas	-10.2914
▁kreia	-10.2915
▁posision	-10.2916
▁fena	-10.2919
▁kazan	-10.2922
▁yazık	-10.2923
▁keras	-10.2925
▁rozas	-10.2934
▁alegro	-10.2934
ff	-10.2936
▁onlardan	-10.2942
▁prenses	-10.2947
▁işim	-10.295
▁tak	-10.2953
▁farkında	-10.2961
▁yana	-10.2963
▁olduğundan	-10.2965
▁çeşit	-10.2974
▁ö	-10.2975
▁istorias	-10.298
ik	-10.2993
▁perikolozo	-10.2996
▁blu	-10.2997
▁spock	-10.2998
▁dürüst	-10.2998
▁kontakto	-10.3
▁superior	-10.3002
▁başladım	-10.3017
ndaki	-10.3018
▁akıllı	-10.3018
▁almanya	-10.3019
▁oyo	-10.3019
▁iyisi	-10.3021
ına	-10.303
▁sanat	-10.3032
ito	-10.3042
▁deshe	-10.3049
▁kadının	-10.3051
▁vereceğim	-10.3053
▁mıydı	-10.3054
▁lugares	-10.3057
▁sayın	-10.3064
▁vieja	-10.3067
▁doğum	-10.3068
▁evine	-10.3075
▁kavga	-10.3082
▁chi	-10.3082
▁vyenen	-10.3083
▁görmedim	-10.3088
diniz	-10.3094
▁sir	-10.3105
▁günler	-10.3108
▁mesele	-10.3111
▁asperava	-10.3122
▁allah	-10.3122
▁asesinato	-10.3125
eceğim	-10.3129
ina	-10.313
ren	-10.3135
▁miydi	-10.3138
▁şeyden	-10.3143
▁aşırı	-10.3144
▁ho	-10.3147
▁hepiniz	-10.3149
▁birden	-10.3149
▁mision	-10.315
▁gidiyorsun	-10.3153
nan	-10.3153
▁reina	-10.316
▁korku	-10.3162
▁haz	-10.3163
▁raro	-10.3164
▁yara	-10.3175
▁test	-10.3178
imiz	-10.3182
▁hayatını	-10.3187
▁tablo	-10.3188
▁umana	-10.3193
▁istersen	-10.3214
▁yaptığım	-10.3216
▁altına	-10.3223
mıştır	-10.3235
▁edilen	-10.3242
▁kestion	-10.3247
▁gücü	-10.3248
para	-10.3252
▁tia	-10.3257
▁entra	-10.3266
ados	-10.3273
▁tuvimos	-10.328
▁paresia	-10.3284
▁abashar	-10.3287
▁nick	-10.329
(	-10.3295
▁botika	-10.331
▁ordu	-10.3312
▁web	-10.3319
dür	-10.3325
▁ikna	-10.3332
▁baban	-10.3334
şi	-10.3338
▁gato	-10.3342
▁oğlu	-10.3345
▁dil	-10.3349
ero	-10.335
ad	-10.3353
▁evitar	-10.3359
▁chris	-10.3362
▁saygı	-10.3362
▁lu	-10.3364
▁shara	-10.3364
▁fondo	-10.3373
▁sensin	-10.3378
▁komenzo	-10.3381
▁venir	-10.3384
▁ihtiyaç	-10.3387
▁perikolo	-10.3388
▁alacağım	-10.3396
▁zevk	-10.3399
th	-10.34
▁loka	-10.3401
▁anlaşma	-10.3404
tin	-10.3405
▁güvenlik	-10.3408
▁con	-10.3411
▁zeki	-10.3421
▁yaparım	-10.3422
▁veri	-10.3425
▁objektivo	-10.3428
▁söyleyin	-10.3428
▁bakma	-10.3429
▁nefes	-10.3431
▁agradable	-10.3432
▁alemania	-10.3434
▁haline	-10.3437
▁aman	-10.3439
imi	-10.3441
▁kalp	-10.3443
mesi	-10.3443
▁sarhoş	-10.3444
zin	-10.3448
▁vd	-10.3451
ven	-10.3452
▁yeşil	-10.3454
▁soldados	-10.3456
▁çağır	-10.3457
▁velosidad	-10.346
▁söyleyeyim	-10.3463
▁disenyo	-10.3467
▁şuna	-10.3467
▁istemem	-10.3471
▁herşey	-10.3473
▁nedenle	-10.3478
▁mücadele	-10.3484
dr	-10.3496
▁tome	-10.3497
▁istiyorsunuz	-10.3498
▁kuadro	-10.3499
▁izla	-10.3499
▁mc	-10.35
▁günde	-10.3501
▁ventana	-10.3502
▁istemiyor	-10.3516
▁veren	-10.3529
▁julio	-10.3535
▁teklif	-10.3539
▁tren	-10.3541
▁geldiğini	-10.3543
▁yıllık	-10.3545
▁kedate	-10.3545
▁kalmak	-10.3546
▁yıllar	-10.3552
▁aksion	-10.3554
▁esperansa	-10.3555
▁pat	-10.3556
▁şerif	-10.3557
▁karl	-10.3582
▁granpapa	-10.3583
▁kayntor	-10.3586
mda	-10.3598
▁teknoloji	-10.36
▁katil	-10.3601
▁nesesitar	-10.3602
▁inglaterra	-10.3602
lin	-10.3614
▁divertido	-10.3631
▁neye	-10.3634
▁gittim	-10.3638
▁aksidente	-10.3643
▁ileri	-10.3644
▁konsumo	-10.3646
▁""."	-10.3647
ey	-10.3652
▁etmez	-10.3656
▁epoka	-10.3658
or	-10.3663
▁binlerce	-10.3666
▁valutozaes	-10.3669
▁estreya	-10.3672
▁şarap	-10.3674
▁lavora	-10.3677
tor	-10.3679
▁gidecek	-10.368
che	-10.368
▁ödeme	-10.3683
▁dünyadaki	-10.3685
the	-10.3686
▁camara	-10.369
▁gitme	-10.3696
▁yazar	-10.3697
▁poblasion	-10.3698
▁yapabilir	-10.3702
▁tv	-10.3706
▁tanıyor	-10.3706
▁he	-10.3707
▁dechizion	-10.3712
sinin	-10.3718
▁orivle	-10.372
▁işaret	-10.3721
▁metros	-10.3723
▁kalmadı	-10.3725
▁hayatı	-10.3728
▁olmadığı	-10.3732
▁roza	-10.3736
▁tuyo	-10.3738
▁kazar	-10.3741
▁adama	-10.3747
▁özgür	-10.3748
▁kör	-10.3752
▁presio	-10.3755
▁vur	-10.3759
▁öğrenmek	-10.3765
▁hatırlıyor	-10.3767
▁resim	-10.3767
▁eddie	-10.3767
▁pi	-10.3772
▁sanıyordum	-10.3777
▁karım	-10.3781
▁metre	-10.379
▁seviyor	-10.3791
▁çekil	-10.3806
▁kompleto	-10.3808
▁konusu	-10.3815
▁avokato	-10.3818
▁uluslararası	-10.382
▁akşamlar	-10.382
▁ra	-10.3821
▁yave	-10.3822
▁opera	-10.3824
▁fuerzas	-10.3828
▁dizirlo	-10.3835
▁olacaksın	-10.3835
▁uzan	-10.3835
dık	-10.3838
▁empesa	-10.3838
▁akodras	-10.384
▁erkekler	-10.3841
▁konosi	-10.3851
acağını	-10.3852
▁yılda	-10.386
fuitesh	-10.386
▁sentral	-10.3864
yiz	-10.3873
▁kızın	-10.3873
▁probar	-10.3877
▁hazinura	-10.3883
▁bayanlar	-10.3886
▁ishalla	-10.3894
▁adlı	-10.3898
▁super	-10.3902
▁gönder	-10.3902
▁yaş	-10.3906
▁eskuze	-10.3907
▁topamos	-10.3908
▁nesesitan	-10.3909
▁dezeya	-10.3912
ö	-10.3914
▁ünlü	-10.3914
▁kreen	-10.3916
▁modelo	-10.392
▁kartas	-10.3921
▁ders	-10.3921
▁yapıyorum	-10.3924
▁amiga	-10.3928
▁demektir	-10.393
▁zayıf	-10.3933
▁verecek	-10.3934
▁efekto	-10.3946
▁fi	-10.3947
▁sonu	-10.3948
▁na	-10.3949
▁dünyayı	-10.3955
▁gaz	-10.3955
▁verte	-10.396
▁karga	-10.3963
ana	-10.3978
▁fotos	-10.3978
▁mesaj	-10.3989
vamos	-10.3989
▁dışı	-10.3991
▁vide	-10.3992
▁naturalmente	-10.3995
▁ettin	-10.4001
▁resultado	-10.4009
▁lise	-10.4009
▁taş	-10.401
uu	-10.4011
▁reino	-10.4023
▁neydi	-10.4025
▁tendrian	-10.4027
▁acil	-10.4029
ias	-10.4033
▁obtener	-10.4036
▁suyo	-10.4038
▁geldik	-10.4041
▁öldürmek	-10.4041
mar	-10.4052
▁çay	-10.4053
▁edifisio	-10.4058
▁tratando	-10.4059
▁uza	-10.406
▁karanlık	-10.4061
▁varias	-10.4063
▁güvenli	-10.4064
▁binbaşı	-10.4069
▁yağmur	-10.4075
▁türlü	-10.4082
▁chay	-10.41
▁okupado	-10.4103
▁anladın	-10.4106
tim	-10.4107
▁konta	-10.411
▁vender	-10.4115
▁interesa	-10.4121
▁döndü	-10.4121
miştir	-10.4125
▁tarafa	-10.4126
▁teatro	-10.4127
larım	-10.4128
yendo	-10.4131
▁oyunu	-10.4131
ras	-10.4141
fer	-10.4147
▁halk	-10.4148
▁inyervozo	-10.4156
▁fotoğraf	-10.4156
▁eş	-10.4158
▁yarı	-10.4176
▁visita	-10.4178
▁isim	-10.4189
her	-10.4193
fueron	-10.4193
acaksın	-10.4201
▁riziko	-10.4208
▁danny	-10.4209
▁pedri	-10.4213
▁thomas	-10.4219
▁kır	-10.422
rt	-10.4223
▁sona	-10.4228
len	-10.4232
▁aleman	-10.4239
▁enkanta	-10.4249
▁ande	-10.425
asion	-10.4254
▁pa	-10.4255
▁olmuştur	-10.4256
▁ekstra	-10.4258
▁gördüğünüz	-10.427
▁kafa	-10.4273
▁alacak	-10.4283
fuimos	-10.4295
▁bizden	-10.4297
▁hazino	-10.4301
amaz	-10.4301
▁sıradan	-10.4306
▁herşeyi	-10.4307
▁permitir	-10.4312
▁rüya	-10.4316
▁ok	-10.4316
▁sesini	-10.4316
▁umo	-10.432
▁mayıs	-10.4322
▁bölge	-10.4333
▁estuvyera	-10.434
▁olmasın	-10.4344
▁linda	-10.4346
diğini	-10.435
▁arama	-10.435
▁kurtar	-10.4353
▁deshi	-10.4354
teki	-10.436
cho	-10.4361
▁jenero	-10.4363
▁ocak	-10.4368
▁tino	-10.4373
▁devias	-10.4374
▁em	-10.4382
ında	-10.4385
▁tavsiye	-10.439
▁etmiş	-10.4403
▁soldado	-10.4407
▁ceza	-10.4408
▁kuidar	-10.4408
▁pedron	-10.4411
▁lukar	-10.4411
▁yatak	-10.4413
▁saldırı	-10.4421
▁ihtiyacın	-10.4423
mer	-10.4427
▁üye	-10.4433
▁aşkına	-10.4434
lığa	-10.4434
▁entreprisa	-10.4435
▁olmalısın	-10.4441
▁yaşamak	-10.4453
▁nokta	-10.4454
▁bilmiyordum	-10.4457
mayı	-10.4457
▁eskiden	-10.4463
▁universo	-10.4466
▁intelijente	-10.4466
▁veygamos	-10.4478
▁susedyo	-10.4478
▁piel	-10.4479
▁ministro	-10.448
▁senyores	-10.4484
▁sheriff	-10.4491
▁çeşitli	-10.4492
▁ayrı	-10.4492
▁bebeğim	-10.4495
▁anna	-10.4495
▁kasa	-10.4497
▁kadını	-10.45
iko	-10.4502
▁charsi	-10.4504
▁larga	-10.4505
ika	-10.4506
▁boy	-10.4515
▁hatırlıyorum	-10.4515
▁çevre	-10.4517
▁başında	-10.4517
▁regalo	-10.4523
▁gelmek	-10.4537
▁dyeron	-10.4539
▁ermozos	-10.4543
ek	-10.4545
▁diavlos	-10.4545
▁yaman	-10.4547
▁tehlike	-10.4548
▁kızım	-10.4548
▁puta	-10.4552
▁geldiğinde	-10.4554
ğ	-10.4559
▁isteyen	-10.456
▁aynen	-10.4561
▁sayesinde	-10.4566
▁kanal	-10.4571
▁haklısın	-10.4582
ru	-10.4584
▁edip	-10.4584
▁milyar	-10.4588
▁model	-10.4588
▁ton	-10.4593
▁or	-10.4596
djen	-10.4598
▁ri	-10.46
▁kedi	-10.461
▁engel	-10.4613
▁tarafta	-10.4616
▁çalışmak	-10.4619
▁estreyas	-10.4626
▁diğerleri	-10.4626
▁derechos	-10.4629
▁aralık	-10.4629
▁animal	-10.463
▁düşük	-10.4633
▁düşünce	-10.464
▁yanı	-10.4642
larımızı	-10.4642
▁sınıf	-10.4647
▁barış	-10.4648
▁tratamiento	-10.4656
▁deme	-10.4663
▁geriye	-10.4664
▁dünyaya	-10.4664
▁arkadaşı	-10.4665
▁karakter	-10.4668
▁gurur	-10.4673
▁volar	-10.4674
▁çocuğun	-10.4675
▁olası	-10.468
▁w	-10.4682
▁ogar	-10.4686
▁santa	-10.469
▁davran	-10.4691
▁oya	-10.4699
▁korte	-10.4699
▁dinleyin	-10.47
▁dış	-10.4706
▁koruma	-10.4707
▁konvertyo	-10.4708
▁alıyor	-10.4708
▁destino	-10.4717
▁estilo	-10.4718
▁imediatamente	-10.4721
dra	-10.4724
▁ap	-10.4727
▁yaptık	-10.4727
▁mupak	-10.473
▁sinir	-10.4737
▁kontrario	-10.4739
▁kısmı	-10.4747
▁aun	-10.4747
▁orası	-10.4748
▁yapmış	-10.4758
▁burayı	-10.4761
▁mueve	-10.4771
▁sivdades	-10.4772
▁sorpresa	-10.4772
▁olanlar	-10.4774
▁zorundayım	-10.4778
dre	-10.4783
▁düşünün	-10.4785
▁çekici	-10.4786
▁top	-10.4787
▁işini	-10.4794
▁hediye	-10.4794
per	-10.4796
▁kavzos	-10.4802
▁pareser	-10.4803
▁mirando	-10.4807
sinden	-10.481
▁solusion	-10.4817
▁militar	-10.4818
▁detener	-10.4819
▁modern	-10.4821
▁interior	-10.4822
▁dik	-10.4824
▁kije	-10.4829
▁kimseye	-10.4829
▁junio	-10.483
▁uçak	-10.4832
▁nasılsın	-10.4835
▁akıl	-10.4835
▁çıkıp	-10.4839
▁"""(	-10.4842
▁buralarda	-10.4847
▁espesialmente	-10.485
▁tuvyera	-10.4854
dığı	-10.486
maktadır	-10.486
▁gösteri	-10.4862
▁aspekto	-10.4863
▁triste	-10.4867
▁vay	-10.4867
sında	-10.4873
▁bölüm	-10.4878
▁olacaktır	-10.4878
▁dizirme	-10.4881
▁elinde	-10.4884
▁kulak	-10.4886
▁karmaşık	-10.4886
▁vini	-10.4893
▁kayente	-10.4907
▁monton	-10.4909
mıyor	-10.4913
▁yapmayı	-10.4916
▁apenas	-10.4919
▁lucha	-10.4922
▁tamanyo	-10.4924
▁lavoro	-10.4924
▁zamanlarda	-10.4925
▁idi	-10.4928
▁söyleyeceğim	-10.4929
▁prision	-10.4929
▁sürece	-10.494
lanmış	-10.4941
▁duyuyor	-10.4946
▁şimdiye	-10.4949
▁kalacak	-10.495
▁yerel	-10.4951
▁değerli	-10.4956
▁vedradero	-10.4959
▁enverano	-10.4961
meliyiz	-10.4962
▁umut	-10.4963
▁şeker	-10.4963
▁cesaret	-10.4963
▁pedryo	-10.4965
▁başla	-10.4979
▁dokuz	-10.4979
▁india	-10.4982
▁servir	-10.4983
▁kişinin	-10.4988
▁von	-10.499
▁serve	-10.4995
ymiş	-10.4995
▁sientate	-10.4995
▁çocukların	-10.4999
▁preokupa	-10.5
▁batalia	-10.5001
▁değiliz	-10.5002
▁estudios	-10.5004
▁ekonomik	-10.5005
abiliriz	-10.501
ıyorum	-10.5018
▁temprano	-10.5025
▁şeytan	-10.5025
▁braso	-10.5029
▁viento	-10.5029
▁kura	-10.5031
▁absoluto	-10.5039
kten	-10.504
tiko	-10.5043
▁getirdim	-10.5047
▁sistemas	-10.505
▁meti	-10.5052
▁bakış	-10.5052
▁emir	-10.5057
ney	-10.5062
▁olduklarını	-10.5065
▁olmayı	-10.5068
▁savunma	-10.507
▁listos	-10.5074
▁troko	-10.5077
lerimiz	-10.5083
▁primeros	-10.5084
▁celulas	-10.5092
▁benzin	-10.5094
▁po	-10.5094
▁komite	-10.5096
▁isterdim	-10.5097
▁evli	-10.5097
▁lokal	-10.5107
▁arreglar	-10.5112
ol	-10.5113
▁fuites	-10.5114
▁molesta	-10.5116
▁olduğunda	-10.5121
▁banka	-10.5122
▁kayer	-10.5125
▁sita	-10.513
dınız	-10.513
▁ediyoruz	-10.5133
▁endişe	-10.5136
▁kasado	-10.5136
▁ilgi	-10.5137
▁heyecan	-10.514
▁kuantas	-10.514
▁ata	-10.5141
!"""""""	-10.5146
▁doble	-10.5148
▁supoza	-10.5149
▁salon	-10.5149
▁müthiş	-10.515
▁estupido	-10.5154
▁olduğunuzu	-10.5155
▁açıklama	-10.5156
▁saf	-10.5156
sar	-10.5158
bar	-10.516
▁kapachedad	-10.5162
▁justisia	-10.5166
▁vine	-10.5166
▁akeyos	-10.5172
mektedir	-10.5173
▁adında	-10.5181
▁pistola	-10.5183
ayım	-10.5185
inden	-10.5185
▁alemanes	-10.5186
▁burda	-10.5191
▁söylemiştim	-10.5191
▁ermanos	-10.5195
▁temsil	-10.5199
▁tiene	-10.5199
▁amca	-10.52
▁yelada	-10.5201
ımız	-10.5202
▁ivan	-10.5215
▁agan	-10.5216
▁cha	-10.5217
▁robot	-10.522
▁henry	-10.5225
▁herkese	-10.5233
▁edelim	-10.5235
▁kondisiones	-10.5238
▁trago	-10.5241
ysa	-10.5241
larımı	-10.5244
▁septiembre	-10.5244
▁baskı	-10.5247
▁sonsuza	-10.5248
▁öğren	-10.5248
▁haziran	-10.5249
▁dama	-10.525
▁durma	-10.5251
by	-10.5252
▁not	-10.5254
▁yaptığımız	-10.5255
▁duruyor	-10.5256
▁walter	-10.5259
▁şuraya	-10.5263
▁kodjer	-10.5264
▁gelebilir	-10.5267
▁etmeyi	-10.5268
▁aptalca	-10.5268
▁içerisinde	-10.5271
▁şişe	-10.5275
sia	-10.5286
▁dejeme	-10.5287
rio	-10.5293
alkışlar	-10.5296
▁yeno	-10.5297
▁alegra	-10.5304
▁evlilik	-10.5314
▁protedjer	-10.5315
▁intenta	-10.5315
▁sorumlu	-10.5318
▁pon	-10.5319
▁global	-10.5321
▁kapalı	-10.5321
▁yazı	-10.5327
▁yapacaksın	-10.533
▁program	-10.5336
▁proposito	-10.5338
▁pelea	-10.534
▁yürü	-10.5342
▁mart	-10.5353
▁bushka	-10.5356
▁aseptar	-10.5356
▁temmuz	-10.5358
▁anlamıyorum	-10.5359
▁düşman	-10.536
▁kalmış	-10.536
▁rock	-10.5362
▁beyeza	-10.5363
▁kanıt	-10.5367
nes	-10.5367
çok	-10.5371
▁hoşuma	-10.5372
▁komiser	-10.5373
▁gördüğüm	-10.5373
lerdi	-10.5381
▁önceden	-10.5386
▁bill	-10.5386
▁brown	-10.539
up	-10.5393
▁resultados	-10.5395
▁ekseptado	-10.5396
▁susan	-10.5398
▁yapamam	-10.54
▁avlas	-10.5403
▁adamları	-10.5406
▁jerry	-10.541
▁bilmem	-10.5411
▁başıma	-10.5412
▁eskala	-10.5413
▁defensa	-10.542
▁yaramaz	-10.5425
▁filmi	-10.5427
▁kola	-10.5432
net	-10.5432
▁alkol	-10.5433
▁prezente	-10.5433
▁kurt	-10.5434
▁aldın	-10.5437
▁louis	-10.5443
▁johnny	-10.5444
▁eylül	-10.5448
▁juisio	-10.5448
▁oeste	-10.5456
melisin	-10.5462
▁arbol	-10.5465
adas	-10.5466
▁tehdit	-10.5467
▁olacağız	-10.5468
▁yanımda	-10.5472
▁yerlerde	-10.5475
▁görünüyorsun	-10.5479
▁segndos	-10.548
ut	-10.5486
▁enemigo	-10.5492
▁millet	-10.5496
▁hedef	-10.5496
nce	-10.5496
▁bilirsiniz	-10.5497
▁miren	-10.5501
ita	-10.5504
▁moda	-10.5518
▁mevcut	-10.5519
▁majestad	-10.5521
▁geldiniz	-10.5526
▁kaba	-10.5527
ımı	-10.5528
▁ölmüş	-10.5528
▁bayle	-10.5531
▁sonete	-10.5531
▁teoriya	-10.5532
▁ar	-10.5541
▁blanka	-10.5548
tt	-10.555
▁arabayı	-10.555
▁uzakta	-10.5555
▁anlıyor	-10.556
▁bunlardan	-10.5561
▁depende	-10.5564
▁gadria	-10.5564
vas	-10.5568
▁lamento	-10.5571
▁ortadan	-10.5575
eceğini	-10.5587
▁bruido	-10.559
ndeki	-10.5597
▁tri	-10.5598
▁selo	-10.56
▁buradayım	-10.5602
▁paga	-10.5602
▁rus	-10.5604
▁producsion	-10.5607
▁dulse	-10.561
▁punta	-10.5612
▁gano	-10.5614
▁prekosion	-10.5614
▁yolda	-10.562
nse	-10.5622
▁pishkado	-10.5624
▁distansia	-10.5624
▁rica	-10.5627
▁minor	-10.563
▁uyku	-10.5634
▁durdur	-10.5635
▁korre	-10.5637
▁der	-10.5638
▁sevgi	-10.5639
▁demonios	-10.5646
istas	-10.5648
▁inspektor	-10.5662
▁söyledin	-10.5666
▁okuma	-10.5677
▁ga	-10.5682
▁affedersiniz	-10.5687
▁geçmiş	-10.5687
▁reunion	-10.5695
larınızı	-10.5695
▁iyilik	-10.5697
▁seyahat	-10.5699
▁umurumda	-10.5701
▁taraftan	-10.5707
maz	-10.5709
▁söyleyecek	-10.5711
▁cesur	-10.572
▁yapabilirim	-10.5724
▁annen	-10.5725
ay	-10.5726
▁idare	-10.5726
▁yargıç	-10.5732
▁ikisi	-10.5735
▁başarı	-10.5736
▁za	-10.5741
▁rapidamente	-10.5741
mın	-10.5741
▁vamonos	-10.5747
▁ağustos	-10.5747
malıyım	-10.5752
▁seçim	-10.5755
▁inanıyorum	-10.5756
▁imajes	-10.5757
▁önemi	-10.5758
▁ekim	-10.5763
sının	-10.5766
▁vyendo	-10.5768
▁mahkeme	-10.5769
▁asentes	-10.577
▁beyefendi	-10.5771
landı	-10.5772
▁yapmam	-10.5772
▁göstermek	-10.5775
▁oktubre	-10.5775
▁kendisini	-10.5781
▁tiempos	-10.5781
▁eskrivyo	-10.5782
▁sever	-10.5784
▁adamım	-10.5794
▁vedre	-10.5796
▁deneme	-10.5798
▁jonny	-10.5801
▁baksana	-10.5805
▁olduğumuz	-10.5814
▁pasensiaes	-10.5815
▁shaka	-10.5816
▁kullanarak	-10.5816
▁entro	-10.582
▁kayıp	-10.5824
▁iddia	-10.5826
mıza	-10.5832
▁tutun	-10.5837
▁pedrone	-10.5841
eceğiz	-10.5846
mp	-10.5853
çı	-10.5861
▁uyar	-10.5865
▁bağlantı	-10.5866
▁yarısı	-10.5867
▁küresel	-10.5871
▁prezentar	-10.5876
▁bekleyin	-10.5876
▁agosto	-10.5881
▁adjente	-10.5881
▁kanada	-10.5881
▁parar	-10.5885
alkış	-10.5889
▁fuimos	-10.589
▁çalıştım	-10.5891
abilirim	-10.5896
▁jurnal	-10.5898
▁veyga	-10.59
▁uyan	-10.5902
▁artikolo	-10.5904
▁apoyo	-10.5905
▁gideceğim	-10.5906
▁ettiği	-10.5906
▁puntos	-10.5912
▁gar	-10.5912
▁servisios	-10.5913
▁vaygas	-10.5925
▁partikular	-10.5928
▁teniamos	-10.5933
▁internasyonal	-10.5933
▁annesi	-10.5936
▁musyu	-10.5941
▁araç	-10.5942
sio	-10.5946
▁girdi	-10.5948
elim	-10.5949
?"""""""	-10.5953
▁miembro	-10.5955
▁korrer	-10.596
▁flako	-10.596
▁prefero	-10.5961
▁enorme	-10.5962
▁gördünüz	-10.5967
▁pekado	-10.5968
▁ettiğini	-10.5968
▁domuz	-10.5972
▁kas	-10.598
▁ayege	-10.5984
▁eğlenceli	-10.5985
▁mantıklı	-10.5987
kas	-10.5992
▁kaldım	-10.5993
▁kurto	-10.5994
▁hayatın	-10.5996
▁sorunu	-10.5999
▁kilo	-10.5999
▁spor	-10.6
▁desiembre	-10.6001
▁suyu	-10.6004
nıza	-10.6009
ği	-10.6012
ymış	-10.6012
▁daima	-10.6022
▁sha	-10.6025
tre	-10.6027
malı	-10.6029
▁elektrik	-10.6033
▁kayyo	-10.6038
▁gitmiş	-10.6039
▁evin	-10.6043
iniz	-10.6051
▁genelde	-10.6053
▁area	-10.6056
▁pretos	-10.6058
echo	-10.606
▁superfisie	-10.6062
ılmış	-10.6067
▁değiştir	-10.608
▁düşünme	-10.6081
▁tira	-10.6081
▁günlük	-10.6086
▁buldun	-10.6101
▁fred	-10.6116
▁ettik	-10.6117
▁sepa	-10.612
▁istediğin	-10.6122
▁vuelo	-10.6123
▁işleri	-10.6125
▁boda	-10.6131
▁uzando	-10.6131
▁okula	-10.6131
▁orozo	-10.6134
▁kuş	-10.6135
▁kontinua	-10.6135
▁eskuro	-10.6138
▁çeneni	-10.6141
▁oja	-10.6148
▁periodo	-10.6154
▁metal	-10.6154
▁biriyle	-10.6158
▁kimseyi	-10.6159
tika	-10.6164
mayın	-10.6166
▁imkansız	-10.6169
▁görüş	-10.617
▁marzo	-10.6172
▁karısı	-10.6173
▁babamın	-10.6175
▁tanta	-10.6176
▁avagar	-10.6181
▁mostra	-10.6189
▁motivo	-10.619
▁grasioso	-10.6191
▁tommy	-10.6192
▁ganas	-10.6199
▁olduğun	-10.6202
tü	-10.6205
▁sientifikos	-10.6207
▁kantar	-10.6209
ý	-10.6215
lerimizi	-10.6215
▁deseo	-10.622
▁olurum	-10.6223
▁novia	-10.6225
▁hükümet	-10.6226
▁santo	-10.6228
▁organizasion	-10.6232
▁şef	-10.6232
▁yak	-10.6234
▁kasım	-10.6234
▁başlar	-10.6234
▁fikri	-10.6234
▁çıkıyor	-10.6245
..."""	-10.6246
▁vahşi	-10.6247
▁komensar	-10.6251
▁çoktan	-10.6253
nize	-10.6255
iyle	-10.626
▁bulun	-10.6262
▁grupos	-10.6262
▁şanslı	-10.6265
▁ismi	-10.6266
▁avukat	-10.6283
▁itiraf	-10.6286
▁torni	-10.6286
▁aca	-10.6286
▁yahudi	-10.6287
▁makine	-10.6287
▁sistem	-10.629
layan	-10.6295
mis	-10.6297
▁responsabilitad	-10.63
▁gör	-10.6308
▁sahne	-10.6313
dro	-10.6321
▁golpe	-10.6323
▁sayıda	-10.6325
▁gelince	-10.6326
▁abril	-10.6327
▁ojo	-10.6331
▁proves	-10.6331
▁baron	-10.6336
▁basura	-10.6337
▁tribunal	-10.634
▁devan	-10.6342
▁kontinuar	-10.6343
▁söylüyorsun	-10.6344
▁zamanında	-10.6355
▁kaminar	-10.6356
▁bakayım	-10.6367
▁uç	-10.6371
▁aşağıda	-10.6376
▁halinde	-10.6379
▁bulduk	-10.6382
▁kompartir	-10.6385
▁iletişim	-10.6385
▁dedin	-10.6386
▁mor	-10.6389
▁öldür	-10.639
duk	-10.6391
▁art	-10.6393
▁gramama	-10.6395
▁yapalım	-10.6397
▁noviembre	-10.64
▁mısır	-10.6402
bana	-10.6408
▁sonucu	-10.6412
▁pago	-10.6416
▁tenias	-10.6423
▁üzerinden	-10.6426
mde	-10.6431
▁boston	-10.6432
▁paresen	-10.6432
▁gelmedi	-10.6435
ndose	-10.6436
▁yerden	-10.6436
▁preokupado	-10.6437
▁hindistan	-10.644
▁birazdan	-10.6443
▁tip	-10.6444
▁gana	-10.6446
▁efendi	-10.6446
▁kostum	-10.6451
▁şüphe	-10.6455
▁vakti	-10.6457
▁importansia	-10.6459
▁sağlam	-10.646
▁revolusion	-10.6461
▁gerekiyordu	-10.6466
huenyos	-10.6467
▁puedamos	-10.6482
hi	-10.6483
▁yolculuk	-10.6488
▁yamas	-10.649
▁ruh	-10.6491
▁laboratorio	-10.6491
ıyorsun	-10.6494
▁konfiensa	-10.6496
gra	-10.6498
▁jimmy	-10.6501
▁buyurun	-10.6507
▁relasiones	-10.6508
▁istiyorsan	-10.651
▁kitabı	-10.6512
▁istiyorlar	-10.6512
▁cayate	-10.6517
▁adentro	-10.6517
▁nisan	-10.6519
▁bil	-10.6521
▁yevan	-10.6522
▁pedrida	-10.6524
▁iyiyim	-10.6527
▁medisina	-10.6529
▁album	-10.6531
▁puedan	-10.6532
▁plaj	-10.6533
▁sube	-10.6542
▁djuro	-10.6544
▁sombrero	-10.6545
▁kirk	-10.6547
ger	-10.6548
▁material	-10.6549
▁devletler	-10.6562
▁kardeşi	-10.6564
▁sayı	-10.6564
▁konuyu	-10.6568
▁leche	-10.6569
▁ru	-10.6571
ente	-10.6571
▁getirir	-10.6573
▁viktoria	-10.6576
▁tanesi	-10.6581
▁elini	-10.6582
▁akaso	-10.6582
▁lograr	-10.6583
yeron	-10.6584
▁medios	-10.659
▁teksas	-10.6605
gen	-10.6606
▁eğlence	-10.661
▁canser	-10.6615
▁roy	-10.6623
▁kedarse	-10.6628
▁kanun	-10.6631
▁solia	-10.6634
▁febrero	-10.6635
▁bahse	-10.6636
▁tarih	-10.6637
▁premyo	-10.6637
▁razones	-10.664
abilecek	-10.6641
▁hanım	-10.6647
▁apuesto	-10.6647
▁akeya	-10.6649
▁sara	-10.6649
▁yolunu	-10.6649
▁poli	-10.6653
▁başlıyor	-10.6656
▁konto	-10.6657
fo	-10.6659
mas	-10.6659
▁tuya	-10.666
▁meşgul	-10.6671
iamos	-10.6672
▁giriş	-10.6673
▁oluşan	-10.6674
▁gri	-10.6676
▁pachas	-10.6678
▁fırsat	-10.6679
▁istemedim	-10.6679
▁duymak	-10.668
▁severim	-10.6681
▁verle	-10.6684
▁rüzgar	-10.6687
sün	-10.6688
kal	-10.6691
▁kultura	-10.6692
▁indir	-10.6692
▁karla	-10.6693
▁ayağa	-10.6695
▁krea	-10.6697
▁edilmiş	-10.6697
▁oites	-10.6698
▁desidi	-10.6702
nt	-10.6704
▁rovar	-10.6705
▁ettiler	-10.6706
▁violensia	-10.6706
▁ray	-10.6706
▁yevava	-10.6706
fuistes	-10.6707
miyor	-10.671
▁pezgo	-10.6711
▁iyidir	-10.6712
▁truyo	-10.6712
▁pete	-10.6713
▁departamento	-10.6713
dü	-10.6718
ju	-10.6721
▁sağlıklı	-10.6721
▁clave	-10.6721
▁yoğun	-10.6722
▁grave	-10.6724
▁entereso	-10.6726
▁getirin	-10.6729
▁ro	-10.6732
lia	-10.6737
▁müfettiş	-10.6737
▁espalda	-10.6741
▁enry	-10.6742
▁destruir	-10.6751
▁kimi	-10.6753
▁yapıyoruz	-10.6754
▁çıkma	-10.6757
▁görmüş	-10.6761
▁entrada	-10.6764
ça	-10.6771
▁boyu	-10.6772
liğin	-10.6773
▁espiritu	-10.6773
▁olduğumuzu	-10.6774
▁yaşama	-10.6775
▁zorundayız	-10.6779
▁romper	-10.6782
▁insanı	-10.6785
▁sürpriz	-10.6788
▁yoldan	-10.6789
▁darme	-10.6791
▁şirketi	-10.6794
ida	-10.6794
▁yat	-10.6797
▁rezolver	-10.68
sından	-10.6804
▁mata	-10.6808
▁birşeyler	-10.681
▁krimen	-10.6814
▁derecede	-10.6818
ui	-10.682
▁inferno	-10.6821
▁kulpable	-10.6824
▁vuestra	-10.6834
▁pedrido	-10.6837
▁almış	-10.6838
▁felisidad	-10.6842
▁gi	-10.6844
▁parlak	-10.6849
▁empesi	-10.6851
▁giy	-10.6856
bra	-10.6856
▁düştü	-10.6857
yum	-10.6865
▁baştan	-10.6865
▁google	-10.6868
▁üzerindeki	-10.6871
▁pe	-10.6872
▁rose	-10.6878
▁luses	-10.6882
▁hi	-10.6882
▁arıyor	-10.6884
▁zapatos	-10.6887
▁katı	-10.689
▁masum	-10.6893
▁solamente	-10.6894
▁derhal	-10.6899
▁fiziksel	-10.6899
▁eras	-10.6899
▁yarar	-10.69
▁kontrato	-10.6902
▁yüce	-10.6903
▁dale	-10.6904
▁gitmem	-10.6906
▁koyun	-10.6906
leme	-10.6907
▁olmasına	-10.6911
▁kodo	-10.6911
▁radyo	-10.6915
djer	-10.6922
▁verdiği	-10.6922
pro	-10.6922
▁wa	-10.6924
▁veras	-10.6925
▁shena	-10.6927
este	-10.693
▁bakmak	-10.6938
▁çözüm	-10.6941
▁kedarme	-10.6943
▁brasos	-10.6945
▁kasaba	-10.6948
▁elbise	-10.6948
▁egzisten	-10.6949
▁marie	-10.6949
▁ince	-10.6952
▁kay	-10.6956
ud	-10.6959
▁majiya	-10.696
▁vistazo	-10.6961
lük	-10.6963
▁ambiente	-10.6971
▁oku	-10.6971
mize	-10.6972
mişti	-10.6976
▁toplum	-10.698
▁oo	-10.698
▁pen	-10.6982
ğe	-10.6984
▁gerekecek	-10.6985
▁kansado	-10.6987
▁vaka	-10.6993
▁aklıma	-10.6995
ıldı	-10.6996
▁presion	-10.6998
▁deskuvrir	-10.7
▁buydu	-10.7003
▁kahvaltı	-10.7004
▁tarafı	-10.7007
▁rekursos	-10.7008
▁ülkenin	-10.7013
▁posibilidad	-10.7014
▁dando	-10.702
▁yarış	-10.7024
▁viski	-10.7032
▁üyesi	-10.7035
▁düşünüyordum	-10.7037
▁verilen	-10.7039
dar	-10.7042
▁bildiğim	-10.7048
▁erişim	-10.7053
▁sonrasında	-10.706
▁boya	-10.7065
nün	-10.7066
▁korkma	-10.7069
▁avlamos	-10.7076
▁kapital	-10.7079
▁alarm	-10.7082
▁modos	-10.7082
▁şehri	-10.7084
▁talep	-10.7085
ty	-10.7085
▁kayes	-10.7085
yon	-10.7086
▁çılgın	-10.7091
▁asenti	-10.7092
bueno	-10.7094
▁görüyorsunuz	-10.7094
▁dura	-10.7095
▁lokura	-10.7099
▁digame	-10.7099
▁uyu	-10.7103
▁etki	-10.7105
con	-10.7107
▁edeyim	-10.7108
▁hakkındaki	-10.7108
▁ayegi	-10.7108
▁felizes	-10.7112
miento	-10.7114
▁z	-10.7116
▁blankos	-10.7117
▁mismos	-10.7117
▁sosyales	-10.7117
▁dahi	-10.7118
▁öğleden	-10.7123
▁şirket	-10.7126
▁gibiydi	-10.7128
▁sigua	-10.7129
▁billy	-10.713
mayacak	-10.7132
▁aumento	-10.7135
▁manka	-10.7137
▁preokupe	-10.7137
▁kadınların	-10.7138
mayacağım	-10.7142
▁yapı	-10.7148
▁başı	-10.7148
▁diavlo	-10.715
▁vision	-10.715
▁pensamos	-10.7152
▁şehrin	-10.7154
▁çalışmaya	-10.7156
▁regreso	-10.7157
▁kendin	-10.7162
▁vuestro	-10.7173
▁bilinen	-10.7176
▁kodje	-10.7176
vimos	-10.7176
▁salida	-10.7183
▁vyenes	-10.7185
▁muerta	-10.7185
▁sarı	-10.7185
▁oyuncu	-10.7186
▁moral	-10.7192
▁arkadaşın	-10.7193
▁demandarle	-10.7198
▁aktuar	-10.7199
▁vaygan	-10.7202
▁prezento	-10.7203
▁onda	-10.7205
siyle	-10.7206
id	-10.7207
▁uu	-10.7208
▁itibaren	-10.7209
▁kampanya	-10.721
sta	-10.721
▁endişelenme	-10.7215
▁bela	-10.7215
▁getirdi	-10.7216
▁ad	-10.7217
▁guerta	-10.7219
▁yumurta	-10.7224
▁dado	-10.7226
rias	-10.723
▁hastalık	-10.7231
▁petrol	-10.7238
▁kome	-10.724
▁silahı	-10.7241
▁doktoos	-10.7243
zu	-10.7244
▁biven	-10.7246
▁pensan	-10.7248
▁kambios	-10.7248
▁tengas	-10.7249
▁aşağıya	-10.7256
▁öldürdü	-10.7259
▁istediği	-10.7262
▁olağanüstü	-10.7263
▁bilimsel	-10.7263
▁fakir	-10.7266
▁temporada	-10.7266
▁geçiyor	-10.7269
▁responsable	-10.7271
▁iii	-10.7275
▁indisio	-10.7277
▁dole	-10.7277
▁aluenga	-10.7282
▁alanı	-10.7287
▁seks	-10.7289
▁geçer	-10.7296
iyorum	-10.7304
▁kalifornia	-10.7307
mızın	-10.7309
▁trans	-10.7309
▁avle	-10.731
▁ilan	-10.731
▁treser	-10.7311
▁şubat	-10.7315
▁arkasında	-10.732
▁eskapa	-10.7323
rlo	-10.7323
▁istediğimi	-10.7323
▁yen	-10.7327
vido	-10.733
▁ülkede	-10.733
▁gösterir	-10.7333
▁kocam	-10.7336
▁tomi	-10.7336
▁damas	-10.7338
▁tuvyeron	-10.7338
▁anlamak	-10.7343
▁kalsın	-10.7343
▁polisi	-10.7345
▁bitir	-10.7346
▁richard	-10.7346
talya	-10.7347
dunuz	-10.7349
▁çalışıyorsun	-10.7356
▁kalidad	-10.7357
▁ilaç	-10.7361
▁yevas	-10.7362
ici	-10.7364
▁bulunur	-10.7364
▁çalıştı	-10.7365
▁bizler	-10.7377
▁kullanma	-10.7378
▁metro	-10.7378
▁sekso	-10.7379
▁öğrenci	-10.7383
▁etkisi	-10.7389
▁das	-10.7395
▁tepki	-10.7397
▁mesajes	-10.7398
liğini	-10.7399
▁hu	-10.74
tti	-10.741
▁etrafında	-10.741
▁konuşuyor	-10.7417
▁içindeki	-10.7418
▁gelmez	-10.7422
▁nuvela	-10.7422
▁üniversitesi	-10.7422
▁deprisa	-10.7423
ntes	-10.7425
▁toparon	-10.7428
▁mejorar	-10.7428
▁you	-10.7431
▁etmeyin	-10.7432
▁supe	-10.7434
▁öğle	-10.7437
▁komenza	-10.7438
▁hal	-10.7442
▁kendisine	-10.7443
▁birer	-10.7443
▁sentado	-10.7443
▁şurada	-10.7443
▁franz	-10.7445
▁espektakolo	-10.7446
▁yirmi	-10.7446
▁etkili	-10.7447
▁hesap	-10.7448
▁elimden	-10.7451
▁kilometros	-10.7453
▁bokal	-10.7454
▁veririm	-10.7455
hoşuna	-10.7455
▁yağ	-10.7459
▁köle	-10.746
▁sonuna	-10.7465
▁reglas	-10.7472
▁mediante	-10.7477
▁saatte	-10.7481
▁serra	-10.7486
▁kerias	-10.7497
▁günün	-10.7503
▁biçimde	-10.7506
▁peşinde	-10.751
▁dönmek	-10.751
▁azerle	-10.752
▁düş	-10.7521
▁yena	-10.7521
▁yorar	-10.7523
▁estudiar	-10.7527
▁ilgisi	-10.7532
▁evinde	-10.7534
ona	-10.7535
diği	-10.7538
▁gerekirse	-10.7538
▁matt	-10.754
▁mutluluk	-10.7542
bay	-10.7544
▁kombate	-10.7548
▁majesteleri	-10.7548
lerim	-10.755
▁gelmiyor	-10.7551
▁önüne	-10.7553
▁geçir	-10.7556
▁pedra	-10.756
como	-10.7563
▁epey	-10.7563
▁komutan	-10.7563
▁huzur	-10.7567
▁avli	-10.7569
▁herkesi	-10.757
▁grubu	-10.7571
▁çıkmak	-10.7572
▁alıyorum	-10.7583
▁ederek	-10.7585
▁juegos	-10.7586
▁yeve	-10.7587
fu	-10.7588
▁italia	-10.7591
▁çiçek	-10.7592
▁yönetim	-10.7599
▁sako	-10.7606
▁intentando	-10.7606
▁whisky	-10.7606
▁sub	-10.7609
▁konosimiento	-10.7609
▁antika	-10.7612
▁version	-10.7612
▁yame	-10.7614
▁bulundu	-10.7616
▁larry	-10.7617
▁tersera	-10.7619
▁kamp	-10.7623
▁ladron	-10.7626
▁intelidjensia	-10.7627
▁reir	-10.7627
nsanların	-10.7631
▁fazlasını	-10.7633
▁üniversite	-10.7637
▁arboles	-10.7639
▁elijir	-10.764
ev	-10.7641
▁kastiyo	-10.7642
▁tengan	-10.7644
nü	-10.7646
yor	-10.7647
▁ekonomia	-10.7648
▁gördü	-10.7649
▁toprak	-10.7649
esto	-10.7652
▁entreprisas	-10.7659
▁hakkı	-10.766
▁kendinizi	-10.7662
▁planes	-10.7673
▁gitsin	-10.7673
gel	-10.7683
▁luvya	-10.7685
▁suzio	-10.7691
▁öğrenme	-10.7697
şin	-10.7702
▁kardeş	-10.7707
▁etrafta	-10.7718
rin	-10.7719
▁görevi	-10.772
▁hay	-10.772
▁üstelik	-10.7721
▁acseso	-10.7726
▁harekete	-10.7737
▁ortasında	-10.7738
▁diyelim	-10.774
▁paseo	-10.7742
▁ganado	-10.7742
▁republika	-10.7744
▁aktual	-10.775
▁arena	-10.775
▁entendido	-10.775
▁korumak	-10.7753
selo	-10.7754
asi	-10.7756
▁umanidad	-10.7757
▁algno	-10.7765
▁dave	-10.7765
▁siego	-10.7772
▁direktamente	-10.7774
mdan	-10.7776
▁avlan	-10.7779
▁esa	-10.778
▁av	-10.7783
▁kor	-10.7784
▁leyes	-10.779
▁bovedaas	-10.7799
▁serrar	-10.7801
▁oradaki	-10.7801
▁salak	-10.7803
▁bri	-10.7807
▁söylemeye	-10.781
▁birileri	-10.782
▁düşünmüştüm	-10.7824
▁ilişkin	-10.783
▁ediyorlar	-10.7833
▁yapıyorsunuz	-10.7834
lıyor	-10.7835
▁gene	-10.7837
▁barbara	-10.7838
▁görme	-10.7838
▁ucuz	-10.7841
izimos	-10.7841
ının	-10.7844
▁vakansas	-10.7847
▁kopya	-10.7848
▁imperador	-10.7854
▁gazete	-10.7855
▁ortalama	-10.7859
▁bra	-10.7861
▁fikrim	-10.7862
▁fisika	-10.7864
▁duygusal	-10.7866
▁filmos	-10.7867
ses	-10.7867
▁madame	-10.7867
""""."""	-10.7872
▁responder	-10.7873
▁usta	-10.7874
ılır	-10.7877
▁ödül	-10.7878
▁çıkart	-10.7878
▁arzu	-10.7879
ho	-10.7883
▁borracho	-10.7892
▁konuşmaya	-10.7892
▁troka	-10.7893
▁verguenza	-10.7896
▁alayım	-10.7905
▁kurşun	-10.7905
tım	-10.7908
▁hikâye	-10.7908
▁hapse	-10.791
▁milyonlarca	-10.7915
▁piedra	-10.7918
▁kurulu	-10.7921
▁dene	-10.7923
▁rota	-10.7937
▁nesesidad	-10.7938
▁yönelik	-10.7949
▁kusura	-10.795
▁markar	-10.7954
▁ci	-10.7954
▁familiar	-10.7957
▁kosto	-10.7958
▁arası	-10.7959
▁kum	-10.7962
▁inutil	-10.7965
▁ettiğim	-10.7965
▁rick	-10.7966
▁doğrusu	-10.7968
▁estash	-10.7972
ker	-10.7977
▁nombres	-10.7977
▁ters	-10.7981
▁hariç	-10.7983
▁voluntad	-10.7989
▁konosia	-10.799
eyim	-10.7991
abilirsin	-10.7992
▁sahte	-10.7994
▁odada	-10.7998
▁öz	-10.7999
▁asentia	-10.8
tion	-10.8001
mıyorum	-10.8002
let	-10.8005
▁entregar	-10.8006
▁oturun	-10.8007
▁maks	-10.8008
▁korkuyorum	-10.8009
▁olayı	-10.801
▁iyice	-10.8011
tz	-10.8017
▁odasında	-10.802
▁çirkin	-10.802
▁bodro	-10.8021
▁bala	-10.8022
▁taşı	-10.8024
▁alkansar	-10.8031
neden	-10.8033
▁profesyonel	-10.8034
▁edici	-10.8036
▁doktora	-10.8045
▁adamla	-10.8051
▁pu	-10.806
▁şansı	-10.8061
▁ideal	-10.8064
yacak	-10.8067
lenmiş	-10.8068
▁rusya	-10.8074
▁direkto	-10.8075
▁siguen	-10.8082
▁metyendo	-10.8086
▁jones	-10.8087
▁mapa	-10.8088
▁kuru	-10.8095
▁mıyım	-10.8097
▁görüntü	-10.8098
▁düşünmek	-10.8098
▁tiro	-10.8101
miştim	-10.8101
ot	-10.8106
▁europea	-10.8109
▁ce	-10.8112
▁maksimo	-10.8113
▁saç	-10.8114
▁inmediato	-10.812
▁geçin	-10.8123
▁pierre	-10.8126
▁pocos	-10.8126
▁duyuyorum	-10.8129
▁siya	-10.8132
▁yılı	-10.8132
▁jeff	-10.8134
▁uçağı	-10.8135
▁diz	-10.814
▁kortar	-10.8142
▁cenaze	-10.8145
▁gloria	-10.8145
▁oturup	-10.8146
▁sevdiğim	-10.8148
▁nedeniyle	-10.8148
▁tanıyorum	-10.8148
▁uçuş	-10.8149
▁my	-10.8149
amam	-10.815
masına	-10.815
▁dönüp	-10.8152
ıyoruz	-10.8156
▁montanya	-10.8158
▁max	-10.8162
▁eva	-10.8163
▁kaynak	-10.8167
▁komportamiento	-10.8173
▁dechiziones	-10.8175
!"""	-10.8175
wood	-10.8176
çe	-10.8177
▁bulunmaktadır	-10.8177
▁yu	-10.818
▁ölmek	-10.8182
▁risk	-10.8187
▁kendimizi	-10.8189
▁maraviyoza	-10.8189
▁kızıl	-10.8191
▁konversasion	-10.8195
çki	-10.8199
▁sake	-10.8203
▁cam	-10.8204
▁çıkmış	-10.8208
kom	-10.821
▁yakışıklı	-10.8214
▁aldık	-10.8217
▁gapa	-10.8219
▁gittiğini	-10.8221
▁din	-10.8224
▁mösyö	-10.8224
vyeron	-10.8226
▁tasarım	-10.8226
▁data	-10.8228
▁ayegaron	-10.8228
▁manda	-10.8228
▁yapabiliriz	-10.823
▁ihtiyar	-10.8232
▁sosh	-10.8233
▁sır	-10.8234
▁aktualmente	-10.8235
▁briyante	-10.8238
▁vengo	-10.8238
▁kadarıyla	-10.8241
▁hafif	-10.8243
▁vengan	-10.8247
▁monte	-10.8247
▁yasal	-10.8251
lardır	-10.8251
▁saçmalık	-10.8251
▁nasyo	-10.8252
▁kağıt	-10.8254
▁kedan	-10.8257
▁hatırla	-10.8263
▁wilson	-10.8266
▁yasak	-10.8266
▁sıkıcı	-10.8266
▁buldu	-10.8267
▁başa	-10.8267
▁segramente	-10.8272
▁konduzir	-10.8272
▁monsieur	-10.8278
▁albert	-10.8283
▁konfiar	-10.8285
▁dezeyo	-10.8291
▁deshes	-10.8294
▁ekselente	-10.8294
▁tumba	-10.8296
▁sınır	-10.8298
▁proje	-10.8298
mesini	-10.8301
ales	-10.8307
▁sh	-10.8308
▁öğrendim	-10.8308
▁kullanmak	-10.8308
▁bölümü	-10.831
meliyim	-10.831
▁duygu	-10.8314
▁isterseniz	-10.8316
ür	-10.8318
kin	-10.8318
▁bekliyorum	-10.8321
▁deskansar	-10.8322
lığın	-10.8324
▁funsionar	-10.8324
▁dokunma	-10.8325
sha	-10.8325
▁meydana	-10.8331
emez	-10.834
▁zamanki	-10.834
▁hırsız	-10.834
▁estupendo	-10.8342
▁kullanear	-10.8343
▁eskape	-10.8345
▁vedradera	-10.8345
▁olsam	-10.8346
▁profesional	-10.8347
▁getirmek	-10.835
▁yazıyor	-10.8351
kuando	-10.8361
▁mati	-10.8361
▁rekor	-10.8362
▁numeros	-10.8367
▁kraliçe	-10.8367
▁olabileceğini	-10.8369
▁hemşire	-10.8379
izasion	-10.8387
▁hızla	-10.8389
▁tanı	-10.839
▁mars	-10.8393
▁nariz	-10.8395
▁abandonar	-10.8395
▁pislik	-10.8396
bin	-10.8396
▁parmak	-10.8399
▁aparejar	-10.8402
▁bivos	-10.8402
▁kazarse	-10.8406
▁kijo	-10.8407
▁bal	-10.8409
▁ilişki	-10.8409
▁esperta	-10.8409
▁cor	-10.8416
▁anlaşıldı	-10.842
▁yüzünü	-10.8423
▁bırakma	-10.8423
▁objekto	-10.8424
▁süper	-10.8424
▁unidad	-10.843
▁dal	-10.843
▁norman	-10.8431
▁federal	-10.8431
▁entero	-10.8434
▁akto	-10.8436
▁hakim	-10.8446
izyeron	-10.8447
▁kişiler	-10.8449
▁visitar	-10.845
dy	-10.8459
ov	-10.846
▁sensasion	-10.8461
▁saka	-10.8462
▁fazlası	-10.8467
▁nazik	-10.8468
▁kendilerini	-10.8469
▁tantas	-10.847
tiva	-10.847
▁olmuyor	-10.8471
▁uh	-10.8477
▁tantos	-10.8481
▁karşılık	-10.8482
▁ridikulo	-10.8484
▁alo	-10.8486
▁fare	-10.8488
▁lord	-10.849
lerinizi	-10.8493
▁oceano	-10.8496
ünü	-10.8496
▁merkez	-10.85
▁toplantı	-10.8503
▁ayakta	-10.8503
▁defol	-10.8507
▁gra	-10.8508
▁okupar	-10.8511
izites	-10.8513
▁hazinuraes	-10.8521
▁propiedad	-10.8523
▁kalem	-10.8523
▁mayores	-10.8526
ers	-10.8527
▁it	-10.8528
▁ofisiales	-10.8528
▁invierno	-10.8536
▁iğrenç	-10.8538
▁edersin	-10.8539
▁sağlamak	-10.8539
▁komision	-10.854
rian	-10.8542
▁ikiniz	-10.8549
▁abrigo	-10.8549
▁nesi	-10.8554
▁memur	-10.8555
shi	-10.8557
▁olmuştu	-10.8557
▁yukarıda	-10.8559
▁enkantado	-10.8563
▁düzgün	-10.8564
▁bardak	-10.8566
▁digale	-10.8569
▁refero	-10.8569
spanya	-10.8573
mizin	-10.8576
▁yaşa	-10.8583
▁dost	-10.8583
▁lesones	-10.8584
▁morgan	-10.8586
izitesh	-10.8589
▁oa	-10.8589
▁seres	-10.859
▁muydu	-10.8591
▁materia	-10.8592
rro	-10.8594
▁odası	-10.8598
ydu	-10.8599
▁rejion	-10.8601
▁adil	-10.8604
▁eşit	-10.8605
tte	-10.8608
▁mikro	-10.8608
▁çizgi	-10.8615
▁topan	-10.8618
▁util	-10.8619
▁estruktura	-10.8621
▁yaptığın	-10.8622
▁djugando	-10.8626
▁juan	-10.8627
▁özgürlük	-10.8627
▁belediye	-10.8628
▁simon	-10.8632
▁aniversaryo	-10.8635
▁metas	-10.8635
▁birbirine	-10.8636
▁aziz	-10.8637
▁sağol	-10.8637
ından	-10.8638
▁estuvimos	-10.8641
▁komputadora	-10.8643
▁pelear	-10.8647
▁pasta	-10.8649
▁produktos	-10.8651
▁göstereceğim	-10.8651
▁olmam	-10.8653
▁sensiyo	-10.8654
▁kaynağı	-10.8655
▁kilise	-10.8656
suz	-10.8661
▁sentimientos	-10.8661
▁transporte	-10.8662
▁aracı	-10.8662
▁ju	-10.8662
▁olmaktan	-10.8664
▁japonya	-10.8666
▁pareja	-10.8667
▁olanları	-10.8668
▁ekivokado	-10.8669
▁oido	-10.8673
▁prensa	-10.8679
▁belirli	-10.868
tamam	-10.8682
lerdir	-10.8685
▁tur	-10.8686
▁perros	-10.8687
▁renk	-10.8687
▁fuente	-10.8688
▁yemeğe	-10.8695
field	-10.8695
▁rusia	-10.8699
▁süt	-10.8699
▁sormak	-10.8702
▁fırtına	-10.8706
▁ilgilen	-10.8707
▁eskuridad	-10.8708
▁puertas	-10.871
▁dientes	-10.871
▁teknik	-10.8714
▁değiller	-10.8721
▁ederiz	-10.8721
▁pahalı	-10.8726
▁kumplir	-10.8727
▁kaçtı	-10.8732
▁demandando	-10.8732
▁sizce	-10.8733
▁kayıt	-10.8733
▁nesesitava	-10.8733
▁planta	-10.8736
▁kanser	-10.874
▁diario	-10.874
▁richadr	-10.8741
▁averlo	-10.8742
▁doc	-10.8743
▁şapka	-10.8744
▁pilot	-10.8745
▁yük	-10.8745
▁viajar	-10.8746
▁operasion	-10.8751
▁olanı	-10.8754
▁tarzan	-10.8758
▁dolayısıyla	-10.8758
▁rekuperar	-10.8759
▁alevanta	-10.8769
met	-10.8773
▁kurtul	-10.8775
▁espanya	-10.8778
▁amacı	-10.8787
▁yüzlerce	-10.8788
▁alegriya	-10.8789
tro	-10.8789
▁izle	-10.8789
▁çıkış	-10.8789
▁tim	-10.8791
▁ödülü	-10.8797
▁amar	-10.8798
▁averigar	-10.8798
▁numaralı	-10.8801
▁post	-10.8802
▁yapıyorlar	-10.8803
▁desidir	-10.8806
▁bakar	-10.8809
▁daire	-10.8812
▁siguros	-10.8814
▁dezierto	-10.8815
▁car	-10.8818
▁atakar	-10.8819
bri	-10.8823
▁fu	-10.8827
▁polvo	-10.8828
▁midi	-10.8832
▁cinsel	-10.8834
▁meksiko	-10.8835
▁intenti	-10.8835
nd	-10.8835
▁pared	-10.8836
▁kitar	-10.8838
▁hayatımda	-10.8839
▁insanlarla	-10.8842
▁yorgun	-10.8842
▁fantastiko	-10.8843
▁entision	-10.8848
▁yatırım	-10.8849
▁vermeye	-10.8853
▁yaygın	-10.8856
▁çaba	-10.8856
▁ailesi	-10.8858
▁sürer	-10.886
▁abla	-10.8864
▁may	-10.8873
ize	-10.8873
▁seç	-10.8874
▁parko	-10.8876
▁kompanyero	-10.8877
▁jake	-10.8878
▁limpia	-10.8885
▁sedro	-10.8887
▁alırım	-10.8888
▁garson	-10.8888
▁konsensya	-10.8889
▁devolver	-10.8891
▁droga	-10.89
▁verdin	-10.8902
▁geçerli	-10.8903
▁zorla	-10.8904
▁söyleyebilir	-10.8906
▁imadjinar	-10.891
ts	-10.8921
▁ikimiz	-10.8921
▁demir	-10.8925
..."""""""	-10.893
▁kahretsin	-10.8935
▁makinas	-10.8937
lılar	-10.894
ydim	-10.8945
▁mon	-10.8948
▁embio	-10.895
▁empleo	-10.8951
▁impakto	-10.8951
▁etmiyor	-10.8954
▁inyeve	-10.8957
▁sientese	-10.8957
▁puro	-10.8958
▁serseri	-10.8959
▁etmem	-10.8965
tado	-10.8966
▁sierta	-10.8968
▁kilometre	-10.8969
▁şeylerden	-10.8973
ydım	-10.8974
▁günah	-10.8975
▁söylediler	-10.8975
mann	-10.8976
▁hayatımı	-10.8978
▁teori	-10.898
▁smith	-10.8981
▁biridir	-10.8982
▁budur	-10.8988
▁kompleta	-10.8988
▁süredir	-10.8989
▁espertar	-10.8995
▁mure	-10.9001
val	-10.9004
▁kliente	-10.9006
▁yapın	-10.9007
▁meksika	-10.9007
ebilecek	-10.901
▁ulaş	-10.9019
▁mataron	-10.9022
▁kereria	-10.9024
▁absolutamente	-10.9026
▁entrega	-10.9026
▁sayılmaz	-10.9026
▁evlenmek	-10.9026
▁hücre	-10.9028
▁tutmak	-10.9029
▁açın	-10.9029
▁kod	-10.9032
▁perfektamente	-10.9033
▁sta	-10.9035
▁presensia	-10.9036
▁müdür	-10.9037
▁yayın	-10.9037
▁joey	-10.9041
▁ak	-10.9041
bre	-10.9047
▁güvende	-10.9048
▁hassas	-10.9049
▁presiosa	-10.9049
▁momentos	-10.9054
▁show	-10.9055
▁inosente	-10.9068
▁leon	-10.9069
▁olvido	-10.9076
▁oridjinal	-10.9078
▁montanyas	-10.908
▁vücut	-10.9083
▁mahkum	-10.9086
▁politikas	-10.9087
▁julie	-10.9087
▁propios	-10.9088
▁pop	-10.9089
▁karşısında	-10.9093
▁tartışma	-10.9099
▁demostrar	-10.91
▁enterprise	-10.9102
▁bıraktı	-10.9102
▁sobrevivir	-10.9104
▁bilemiyorum	-10.9104
▁yapılmış	-10.9105
ura	-10.9108
▁yasa	-10.9108
▁gen	-10.9111
op	-10.9112
▁klientes	-10.9115
▁büyü	-10.9122
▁alhad	-10.9122
▁evlen	-10.9123
▁espanyol	-10.9124
▁gönderdi	-10.9126
malısınız	-10.913
▁oldukları	-10.9134
tal	-10.9134
▁espada	-10.9138
▁sayısı	-10.9138
▁king	-10.9145
▁indios	-10.9145
▁kazandı	-10.9148
▁fonksion	-10.915
▁otomobiles	-10.9151
▁kullanılan	-10.9151
▁elimde	-10.9154
▁pais	-10.9154
▁karın	-10.9155
▁biriydi	-10.9158
▁odasına	-10.9158
▁grasia	-10.9159
var	-10.916
▁hepimizin	-10.916
▁emri	-10.9162
nuz	-10.9163
▁evlenme	-10.917
▁sakıncası	-10.9171
▁zorundasın	-10.9173
▁parlamento	-10.9176
▁maraviya	-10.9179
bil	-10.9183
▁siyasi	-10.9185
▁şeylerin	-10.9186
▁doğrudan	-10.9191
▁devyo	-10.9193
talyan	-10.9194
▁sordum	-10.9196
▁yapılacak	-10.9197
▁tuvites	-10.9199
▁ortada	-10.9203
▁watson	-10.9206
▁ambezi	-10.9208
▁asenta	-10.9208
▁we	-10.9208
▁borç	-10.921
vide	-10.9212
▁prometo	-10.9213
▁phil	-10.9214
▁west	-10.9214
emem	-10.9215
▁pacha	-10.9215
▁oldun	-10.9218
▁pedaso	-10.9222
▁konosen	-10.9222
▁dayan	-10.9224
▁dersiniz	-10.9228
▁gül	-10.9229
▁artisto	-10.923
▁sonuçta	-10.9232
kahkaha	-10.9236
▁dejalo	-10.9236
des	-10.9237
▁koş	-10.9237
▁arto	-10.924
▁tamir	-10.9242
▁marina	-10.9243
▁elevo	-10.9245
yet	-10.9246
▁edilir	-10.9247
▁sujetos	-10.9247
▁rikos	-10.9248
yin	-10.9249
▁ayegamos	-10.9253
▁aramızda	-10.9254
don	-10.9256
▁toplam	-10.9256
▁nasılsınız	-10.9257
▁kalır	-10.9262
▁olvidi	-10.9262
▁deshas	-10.9263
lığını	-10.9265
▁bekleme	-10.9265
way	-10.9265
▁djira	-10.9267
▁aparese	-10.9268
▁famiyas	-10.9269
▁koru	-10.9275
▁onur	-10.9275
▁yaptıkları	-10.9282
▁haberi	-10.9282
▁propyos	-10.9286
▁amenaza	-10.9289
▁kamu	-10.9293
▁resivyo	-10.9297
▁bel	-10.9302
▁hazina	-10.9305
▁bobby	-10.9305
▁vimos	-10.9305
▁umor	-10.931
ara	-10.9311
▁puerto	-10.9311
▁kresimiento	-10.9311
▁fuera	-10.9312
▁işine	-10.9313
▁şehirde	-10.9317
▁revista	-10.9321
▁arazi	-10.9325
▁sali	-10.9327
▁ferido	-10.9328
umu	-10.9329
▁wi	-10.9332
▁ahbap	-10.9333
▁baja	-10.9333
▁kişilik	-10.9336
▁söylediğim	-10.9338
▁maalesef	-10.934
▁sev	-10.9341
▁kuentas	-10.9345
▁hani	-10.9346
diler	-10.9349
▁müşteri	-10.9352
▁enamorado	-10.9353
▁asegro	-10.9354
▁imperio	-10.9354
▁öldürme	-10.9354
▁çıkacak	-10.9359
▁empesamos	-10.9363
▁politik	-10.9363
▁programas	-10.9364
kos	-10.9366
▁boşa	-10.9371
▁ze	-10.9371
▁miydin	-10.9374
▁representa	-10.9374
▁geleni	-10.9378
▁ekmek	-10.9379
▁sent	-10.9379
ino	-10.938
onu	-10.9381
▁anahtar	-10.9386
▁korryendo	-10.9389
ham	-10.9395
▁siguo	-10.9404
▁olacaktı	-10.9404
▁bıçak	-10.9408
▁sekreter	-10.9409
▁tomando	-10.9409
▁pertenese	-10.9409
▁industria	-10.941
▁his	-10.941
▁öfke	-10.9413
▁estuvyeron	-10.9417
▁çöz	-10.9417
▁orospu	-10.9418
▁kuida	-10.9419
▁yanıt	-10.942
▁öğretmen	-10.9422
ret	-10.9425
▁ışığı	-10.9426
▁hakları	-10.9428
▁aviones	-10.9429
▁konvertir	-10.9434
▁sentavos	-10.9436
▁gay	-10.944
▁ann	-10.9442
▁madem	-10.9447
▁meto	-10.9448
▁kate	-10.9453
abilirsiniz	-10.9458
▁deney	-10.9463
▁dönem	-10.9464
▁lengaje	-10.9468
▁sandım	-10.947
▁mandar	-10.948
▁şimdilik	-10.9482
ft	-10.9483
▁abierto	-10.9485
tri	-10.9488
▁inter	-10.9493
▁kamion	-10.9505
▁digamos	-10.9508
▁adet	-10.951
▁jenerasion	-10.9511
▁gözlerini	-10.9516
▁etmesi	-10.952
ılan	-10.9522
▁kulo	-10.9523
▁ayude	-10.9523
▁konosemos	-10.9529
sko	-10.9529
▁işbirliği	-10.953
▁kamera	-10.9542
▁formasion	-10.9543
▁yamava	-10.9545
▁hoşçakal	-10.9545
▁aeropuerto	-10.9547
bel	-10.9551
▁vaygamos	-10.9551
▁pri	-10.9552
▁dönüş	-10.9554
▁azerme	-10.9556
▁sorular	-10.9558
▁puedas	-10.9563
▁konjunto	-10.9569
nder	-10.9572
▁tadres	-10.9573
isar	-10.9573
▁bulunduğu	-10.9573
▁akonteser	-10.958
▁fortuna	-10.9584
▁kontrolar	-10.9587
▁detalyoes	-10.9596
▁kalabalık	-10.9598
▁liste	-10.96
▁pedrona	-10.9603
▁açıkça	-10.9605
▁olmasa	-10.9614
vites	-10.9615
▁uzman	-10.9616
▁tarea	-10.9616
▁kuvvetleri	-10.9616
▁olabilirim	-10.9616
▁aygan	-10.9617
▁duruma	-10.9618
▁dekada	-10.9618
▁paresyo	-10.9621
gin	-10.9623
▁zafer	-10.9626
▁solar	-10.9627
▁plazyo	-10.9627
tivo	-10.9628
▁dördüncü	-10.963
▁alalım	-10.963
▁mirada	-10.963
▁sağlar	-10.9632
▁eleksion	-10.9635
▁olman	-10.964
▁katıl	-10.964
▁ayudarme	-10.9641
▁günlerde	-10.9642
▁içer	-10.9643
▁birlik	-10.9645
▁kalıyor	-10.9646
şimdi	-10.9653
mal	-10.9655
▁tank	-10.9659
▁ayır	-10.9661
▁gönüllü	-10.9662
▁şaşırtıcı	-10.9664
▁antonio	-10.9664
▁ala	-10.9665
▁azlo	-10.9665
▁havaya	-10.9671
▁davranış	-10.9674
mıyorsun	-10.9675
▁çıkarma	-10.9678
com	-10.9679
▁ojas	-10.9681
▁gideceğiz	-10.9686
▁başlangıç	-10.9687
▁han	-10.9687
lla	-10.9688
pre	-10.9689
▁diane	-10.9689
▁lokos	-10.969
▁zamana	-10.969
til	-10.969
▁evden	-10.9691
▁kita	-10.9691
▁popular	-10.9701
ist	-10.9706
▁istersin	-10.9709
▁tropas	-10.9709
▁yakala	-10.9712
▁gelme	-10.9713
▁çalışır	-10.9717
▁shi	-10.9717
▁stres	-10.9717
▁arkadaşlar	-10.9717
▁aniden	-10.972
for	-10.9722
▁minimum	-10.9723
▁yevamos	-10.9724
▁atış	-10.9727
▁intihar	-10.9727
▁yaparken	-10.9728
▁başarısız	-10.9731
▁movimiena	-10.9734
ska	-10.9734
▁rahip	-10.9739
▁parası	-10.9746
ör	-10.9748
meyi	-10.9751
visto	-10.9753
▁politiko	-10.9756
▁ofre	-10.9757
▁festival	-10.9758
▁muro	-10.9758
▁rahibe	-10.976
▁vazgeç	-10.9762
▁ayudo	-10.9763
▁canavar	-10.9763
▁jackson	-10.9763
▁famozo	-10.9764
▁anahtarı	-10.9766
▁görün	-10.9767
▁tecrübe	-10.9768
▁adalet	-10.9768
meyecek	-10.9771
▁trampa	-10.9772
seni	-10.9773
▁gösteren	-10.9774
▁koyar	-10.9774
▁dedektif	-10.9774
▁entera	-10.9775
▁normalmente	-10.9775
▁logro	-10.9776
▁tarafında	-10.9787
▁öteki	-10.9787
▁topla	-10.9788
▁kriza	-10.9789
▁dişi	-10.979
▁erramientas	-10.9791
lanan	-10.9792
▁profundo	-10.9794
▁unutmayın	-10.9797
dio	-10.98
▁duke	-10.9801
▁smit	-10.9803
▁zehir	-10.9805
▁meldi	-10.9811
▁sözü	-10.9812
▁ekonomi	-10.9814
▁önem	-10.9817
▁flota	-10.9822
▁plaza	-10.9823
▁kra	-10.9824
▁uyuyor	-10.9825
▁zamandan	-10.9827
▁aklını	-10.9831
ny	-10.9831
sıyla	-10.9832
▁gelişme	-10.9837
ier	-10.984
▁kullanımı	-10.9841
▁dönüyor	-10.9846
▁şiddet	-10.9846
▁sahiptir	-10.9846
▁tutar	-10.9847
pu	-10.9847
▁protecsion	-10.9849
▁dert	-10.9849
▁extranya	-10.9853
▁asegrar	-10.9859
▁karas	-10.9861
▁analiz	-10.9862
▁yapıldı	-10.9862
▁dna	-10.9863
▁bakan	-10.9863
▁chanta	-10.9865
▁guevos	-10.9865
▁vali	-10.9867
▁söylemem	-10.9869
▁plantas	-10.9872
▁ip	-10.9875
▁frontiera	-10.9876
▁öncelikle	-10.9876
▁testigo	-10.9877
▁net	-10.9879
▁öne	-10.988
▁adın	-10.9881
▁andjelo	-10.9881
ette	-10.989
▁eşi	-10.9893
yera	-10.9896
par	-10.9902
▁aşkım	-10.9904
▁bushkida	-10.9906
▁yapmamız	-10.9907
şu	-10.991
▁yumuşak	-10.991
▁ellerini	-10.9911
▁avran	-10.9911
▁bivimos	-10.9912
▁abierta	-10.9912
▁iklim	-10.9913
▁ağ	-10.9917
▁arıyorum	-10.9919
▁char	-10.992
▁""""""""	-10.9921
▁titolo	-10.9923
▁tope	-10.9923
▁kadeh	-10.9924
▁programı	-10.9926
▁ısrar	-10.9928
▁düğün	-10.9932
nızın	-10.9939
▁komunikasion	-10.994
▁denen	-10.9942
▁mıyız	-10.9943
▁garganta	-10.9946
▁prinsipales	-10.9946
larsa	-10.9947
▁sabit	-10.9947
▁yamamos	-10.995
▁dinlen	-10.995
▁felaket	-10.9954
▁delikanlı	-10.9954
▁buçuk	-10.9954
müş	-10.9954
mam	-10.9958
▁pantalon	-10.9961
lamak	-10.9963
▁ediyorsunuz	-10.9966
▁iste	-10.997
▁yangın	-10.997
lerimi	-10.9978
▁korriente	-10.9982
▁kart	-10.9985
▁ağaç	-10.9989
▁malas	-10.9991
▁gösterdi	-10.9998
▁savias	-10.9999
▁molestar	-11
▁hayvanlar	-11
▁sürdü	-11.0001
▁paylaş	-11.0001
▁pasaron	-11.0003
▁yapmadım	-11.0004
▁yevaron	-11.0004
▁impresion	-11.0007
sey	-11.0008
▁öldürüldü	-11.0009
diğim	-11.0009
he	-11.0011
▁şok	-11.0017
▁marko	-11.0017
▁hastalığı	-11.002
▁eroe	-11.002
▁kahraman	-11.0024
▁bayağı	-11.0025
▁kurar	-11.0028
▁korso	-11.0029
▁serlo	-11.0029
▁beve	-11.003
▁bulmaya	-11.0035
▁gözlem	-11.0038
▁basikamente	-11.0038
▁paresido	-11.004
▁chikago	-11.004
▁değilse	-11.0044
▁sorunun	-11.0044
▁kralı	-11.0044
▁şekli	-11.0045
▁verebilir	-11.0046
▁değişim	-11.0048
▁dağ	-11.0051
▁eric	-11.0056
ğını	-11.0059
▁solos	-11.0065
▁ticaret	-11.0066
▁asentar	-11.007
▁pasada	-11.0073
▁siudadanos	-11.0075
▁tespit	-11.0075
▁terminos	-11.0076
▁verdik	-11.0081
▁görüşmek	-11.0082
▁produkto	-11.0085
▁daniel	-11.009
▁unuttum	-11.0093
▁far	-11.0094
▁şikayet	-11.0096
▁senyoria	-11.01
▁dili	-11.0102
▁mentira	-11.0104
▁söylediği	-11.0112
▁arabaya	-11.0112
▁aksiones	-11.0112
▁olvida	-11.0117
stra	-11.0118
▁ölümü	-11.0118
▁ger	-11.0124
▁maneras	-11.0125
▁kompanyeros	-11.0129
sito	-11.0129
▁veygan	-11.0131
▁deneyim	-11.0131
▁uygulama	-11.0131
▁gördük	-11.0134
▁söylerim	-11.0134
▁sigues	-11.0137
▁kuriozo	-11.0143
▁başladık	-11.0143
▁times	-11.0144
▁savaşın	-11.0145
▁sientifiko	-11.015
▁essenario	-11.0158
▁düşünüyorsunuz	-11.0158
▁gerçekte	-11.0163
▁patlama	-11.0164
▁golf	-11.0164
▁beso	-11.0166
▁valiente	-11.0166
▁sevimli	-11.0167
▁konuşmayı	-11.0173
▁seçme	-11.0179
▁çıkarmak	-11.018
▁polise	-11.0186
▁ayakkabı	-11.0187
▁muyum	-11.019
▁günümüzde	-11.0192
▁kayboldu	-11.0194
▁sandalye	-11.0194
▁nu	-11.0195
▁miro	-11.0197
▁eksperimento	-11.0197
ville	-11.0198
▁ayrıl	-11.0203
▁meyve	-11.0206
▁eşlik	-11.0209
amazsın	-11.0211
ment	-11.0212
▁olduğunuz	-11.0212
▁çıkın	-11.0213
via	-11.0219
▁roman	-11.022
▁degil	-11.0221
▁anterior	-11.0228
▁edeceğiz	-11.0231
▁objektos	-11.0231
▁kuchiyo	-11.0233
▁öğret	-11.0235
▁frekuensia	-11.0236
▁kahrolası	-11.0239
▁gitmeye	-11.0243
▁çevir	-11.0243
▁edemem	-11.0243
▁yakıt	-11.0245
▁avyo	-11.0246
▁ren	-11.0248
▁efektos	-11.0249
▁istemez	-11.0249
▁karo	-11.0251
▁probable	-11.0251
▁governador	-11.0252
▁japonezo	-11.0253
▁sonsuz	-11.0254
▁analisis	-11.026
▁aktor	-11.0267
▁mutlaka	-11.0268
▁giderek	-11.0269
sos	-11.0272
▁unido	-11.0272
▁pareses	-11.0273
umuz	-11.0274
▁ediyordu	-11.0275
▁düz	-11.028
sto	-11.0281
ese	-11.0285
▁miras	-11.0286
▁fuertes	-11.0291
▁anlamaya	-11.0291
▁edebilirim	-11.0296
▁ilerleme	-11.0297
▁azerse	-11.0297
▁desidyo	-11.0299
▁adn	-11.03
▁söylesene	-11.0301
▁götürün	-11.0303
▁lago	-11.0304
▁hile	-11.0305
▁inanıyor	-11.0309
▁doldur	-11.031
▁jurnals	-11.031
▁ihanet	-11.0311
▁lisa	-11.0312
▁parasını	-11.0313
kre	-11.0314
▁koledjio	-11.0314
▁sufisientemente	-11.0315
▁sakla	-11.0315
▁yaklaş	-11.0316
▁mono	-11.0317
▁daria	-11.0318
if	-11.0323
▁başlama	-11.0324
▁scott	-11.0326
eğer	-11.0326
kisi	-11.0326
▁diğeri	-11.0336
kor	-11.0338
▁tekne	-11.0338
▁oynamak	-11.0338
▁konstrucsion	-11.0339
▁istediğiniz	-11.0345
▁bina	-11.0345
▁hayata	-11.0351
rre	-11.0353
▁sohbet	-11.0354
ador	-11.0354
▁açıdan	-11.0357
▁pishkados	-11.0359
yar	-11.0361
▁muryeron	-11.0361
▁prisioneros	-11.0363
ebilirim	-11.0367
▁merese	-11.0369
gre	-11.0375
▁komisario	-11.0377
lanır	-11.0381
ap	-11.0382
▁lady	-11.0388
▁bunlara	-11.0388
bas	-11.039
çinde	-11.0393
▁diyorlar	-11.0395
▁harca	-11.0396
layıp	-11.0397
▁ali	-11.04
▁imadjino	-11.0401
▁söyleyebilirim	-11.0403
▁yüzü	-11.0404
▁işten	-11.0405
▁başar	-11.0405
▁gezegen	-11.0409
▁dövüş	-11.041
ildi	-11.0411
▁rekonoser	-11.0411
▁puedian	-11.0411
▁um	-11.0412
au	-11.0413
▁yılın	-11.0416
▁anlam	-11.0417
▁avias	-11.0417
▁lineas	-11.0418
vitesh	-11.0423
▁değilsiniz	-11.0425
▁bote	-11.0425
▁imbesil	-11.0425
▁sıkıntı	-11.0427
▁geleceğim	-11.0428
▁kalıp	-11.0428
iyorsun	-11.0432
▁çıplak	-11.0432
▁düşünmeye	-11.0439
▁cumartesi	-11.044
▁tadrar	-11.0442
▁harita	-11.0443
▁nükleer	-11.0445
em	-11.0449
▁black	-11.0453
▁emerdjensia	-11.0456
▁regla	-11.0457
▁arthur	-11.0464
▁pes	-11.0467
▁alevantar	-11.0468
▁yada	-11.0468
▁realisar	-11.0469
mamız	-11.0469
▁elimizde	-11.0471
▁bağla	-11.0473
▁tavuk	-11.0476
▁gemisi	-11.0476
▁kişiyi	-11.0476
▁enemigos	-11.0479
▁aktividad	-11.0489
ava	-11.049
▁kızgın	-11.0491
▁big	-11.0493
▁halka	-11.0497
▁yalancı	-11.0503
▁teyze	-11.0504
▁vaziyo	-11.0504
▁çıkarın	-11.0504
▁sağlayan	-11.0506
▁değerlendirme	-11.051
▁değişiklik	-11.0511
▁ihtiyacınız	-11.0513
nia	-11.0515
▁okulu	-11.052
▁şeylere	-11.0521
▁maymun	-11.0521
mez	-11.0522
▁tanık	-11.0523
▁ofrir	-11.0523
▁preparado	-11.0523
▁kutu	-11.0524
▁diskutir	-11.0525
▁bilirim	-11.0525
▁hitler	-11.0525
▁görüyorsun	-11.0525
▁kararı	-11.0527
▁ruego	-11.0528
▁demandava	-11.0534
lim	-11.0534
melo	-11.0535
▁servis	-11.0536
lly	-11.0536
▁pensada	-11.0539
▁değeri	-11.0539
▁gerektiği	-11.0539
▁devi	-11.0539
▁toz	-11.054
bles	-11.0543
▁tornemos	-11.0543
ğa	-11.0544
▁muzeo	-11.0544
▁espesies	-11.0545
▁konverte	-11.0547
▁opsion	-11.0549
▁stanley	-11.0552
▁judios	-11.0567
▁devletleri	-11.0568
▁bienvenido	-11.0569
ül	-11.0571
▁izyera	-11.0571
▁koç	-11.0572
▁proprietario	-11.0576
▁dev	-11.0582
tch	-11.0584
oso	-11.0584
▁yıllardır	-11.0584
▁sağlığı	-11.0586
ua	-11.0586
▁buska	-11.0587
mon	-11.0587
▁kadınları	-11.0587
▁çekti	-11.0588
ante	-11.0591
▁vinites	-11.0593
▁star	-11.0594
▁annemin	-11.0596
▁fer	-11.0596
▁değişti	-11.0596
lanıyor	-11.0599
▁puerpos	-11.0599
▁piesas	-11.0601
gon	-11.0603
▁sergi	-11.0604
▁paket	-11.0604
▁dağıt	-11.0604
▁limpiar	-11.0605
▁bırakıp	-11.0605
▁bushko	-11.0609
cker	-11.0609
▁birbirimize	-11.0609
▁hastane	-11.0609
dun	-11.0612
▁oyna	-11.0615
▁annie	-11.0618
▁bildir	-11.0619
▁bahçe	-11.062
▁institusiones	-11.0621
▁plazo	-11.0623
ikos	-11.0624
▁kurtarmak	-11.063
▁geride	-11.0639
▁ayrıldı	-11.064
▁produzir	-11.064
▁bravo	-11.0641
bunu	-11.0648
▁brian	-11.065
▁fotografia	-11.0653
▁agjero	-11.0655
▁mektubu	-11.0655
▁bivyendo	-11.0656
▁ensenyo	-11.0657
▁fueran	-11.066
ebiliriz	-11.0661
sti	-11.0662
▁topu	-11.0664
luğu	-11.0665
▁takımı	-11.0666
▁hangisi	-11.0667
▁tierras	-11.0672
▁döner	-11.0673
▁canını	-11.0674
▁piç	-11.0674
▁olabilirsin	-11.0675
▁mantene	-11.0676
▁espasial	-11.0678
▁başta	-11.0678
viye	-11.0679
▁bırakmak	-11.068
roksimativamente	-11.0681
▁kalacağım	-11.0681
▁bat	-11.0682
▁madera	-11.0683
▁hız	-11.0684
▁yolun	-11.0687
ban	-11.0689
▁inglezes	-11.069
▁""""...	-11.069
▁sırf	-11.069
pp	-11.0691
▁merki	-11.0691
ndi	-11.0694
▁desaparecyo	-11.0697
▁judio	-11.0698
▁geceleri	-11.0698
▁taze	-11.0701
▁krallık	-11.0701
▁cal	-11.0702
▁julia	-11.0703
▁değildim	-11.0703
▁tele	-11.0705
▁dis	-11.0706
▁geleceğini	-11.0712
mü	-11.0712
▁otobus	-11.0714
▁andjeles	-11.0715
ırım	-11.0725
▁geçirme	-11.0728
▁söyleyen	-11.0733
ılacak	-11.0733
▁lindo	-11.0735
▁kuales	-11.0736
▁gözleri	-11.0737
▁echa	-11.0738
▁ağrı	-11.0738
▁atla	-11.0738
ok	-11.074
▁kanta	-11.074
▁eksterior	-11.0747
▁okazion	-11.0747
▁iyisini	-11.0747
▁kadena	-11.0747
▁yaptığımı	-11.0749
▁öldürmeye	-11.0757
▁tornando	-11.076
tus	-11.0761
▁taraf	-11.0762
▁açısından	-11.0763
▁çekmek	-11.0764
▁kadına	-11.0764
▁alış	-11.0768
▁koku	-11.0769
amıyorum	-11.0772
▁sağlıyor	-11.0775
▁takdir	-11.0777
▁teşvik	-11.0778
▁replika	-11.0781
dyeron	-11.0782
▁politikos	-11.0784
▁sevdim	-11.0793
▁dji	-11.0794
▁şampanya	-11.0795
▁eri	-11.0796
▁tor	-11.0796
▁vereyim	-11.0798
▁torre	-11.0798
▁sanatçı	-11.0798
▁hissetme	-11.0799
▁fahişe	-11.0799
▁legal	-11.08
▁pense	-11.0801
▁sonrası	-11.0802
▁manziya	-11.0803
▁sesleri	-11.0804
▁pensado	-11.0807
▁aksi	-11.0808
▁girmek	-11.0808
▁girin	-11.0814
▁girer	-11.0818
▁nedenini	-11.0818
▁alçak	-11.082
▁göstereyim	-11.082
▁elinden	-11.0822
▁kreser	-11.0822
▁karbon	-11.0823
▁hissettim	-11.0823
▁disko	-11.0825
▁haftada	-11.0826
▁firma	-11.0827
▁ue	-11.0827
▁lodr	-11.0828
mus	-11.0829
▁konvenser	-11.0832
▁söylemişti	-11.0832
▁aktividades	-11.0835
▁orman	-11.0836
▁yorum	-11.0838
▁mucize	-11.084
▁white	-11.0841
▁dick	-11.0841
▁bilmiyorsun	-11.0842
▁yazdı	-11.0845
▁kültür	-11.0849
▁düzenli	-11.085
▁ole	-11.0851
ski	-11.0851
▁kapachies	-11.0852
▁yaşındaki	-11.0853
muz	-11.0855
▁privado	-11.0855
▁çalışıyoruz	-11.0858
▁olabilirdi	-11.0861
▁imadjinasion	-11.0863
▁olmanın	-11.087
▁mutluyum	-11.087
▁yapayım	-11.0871
tta	-11.0872
▁şekil	-11.0875
▁bağımsız	-11.0878
▁nasyon	-11.0879
ola	-11.088
▁tanış	-11.0882
▁akompanyar	-11.0883
▁skott	-11.0889
meli	-11.0889
aron	-11.0893
▁itler	-11.0893
▁irte	-11.0898
▁iptal	-11.0899
▁savaşta	-11.0904
tek	-11.0904
▁almanlar	-11.0908
dora	-11.091
▁cesar	-11.0913
▁değişik	-11.0916
▁farkına	-11.0918
▁kibar	-11.0919
imizi	-11.0921
▁resistensia	-11.0927
▁merko	-11.0927
▁konseyi	-11.0928
monos	-11.0933
▁enchikeser	-11.0933
▁enkantadora	-11.0935
▁üyeleri	-11.0936
▁pedro	-11.0939
▁presioso	-11.0943
lendi	-11.0945
▁pocas	-11.0946
▁orda	-11.0947
▁şansımız	-11.0951
▁tahta	-11.0951
▁ritmo	-11.0952
▁görüyoruz	-11.0955
▁gören	-11.0955
▁kaybettim	-11.0956
▁refere	-11.0965
▁oluruz	-11.0965
▁oyi	-11.097
▁görebilirsiniz	-11.097
▁görünüşe	-11.0971
▁yaves	-11.0973
▁kocaman	-11.0974
▁şeyim	-11.0975
▁nazi	-11.0976
▁sok	-11.0978
▁girerim	-11.0979
▁eksik	-11.0983
▁olunca	-11.0985
ic	-11.0987
▁telefonu	-11.0989
pen	-11.0989
▁ateşi	-11.0989
▁girme	-11.0991
gas	-11.0992
▁döneceğim	-11.0997
larınız	-11.1001
▁kaybetti	-11.1001
▁olsaydım	-11.1006
▁rasa	-11.1006
▁fresko	-11.1006
▁yapıp	-11.1008
▁vinyeron	-11.1008
▁alkalde	-11.101
▁geldiği	-11.1011
▁bor	-11.1015
▁yoluna	-11.102
▁geleneksel	-11.1022
▁travo	-11.1023
▁öte	-11.1024
▁tro	-11.1026
▁müdahale	-11.1027
▁empesijo	-11.1028
▁noktada	-11.1029
▁anlatmak	-11.103
▁venia	-11.1038
▁silahlı	-11.104
▁ordusu	-11.1042
meyeceğim	-11.1046
▁istiyordum	-11.1048
▁marta	-11.105
▁tatil	-11.1059
▁partida	-11.1062
▁papeles	-11.1062
▁aygas	-11.1062
▁söylemiştin	-11.1064
▁tornes	-11.1067
▁görür	-11.1068
▁pardon	-11.107
▁sorunları	-11.1075
▁atar	-11.1076
▁havada	-11.1082
▁duran	-11.1083
▁gelmişti	-11.1086
▁tiyatro	-11.1086
▁yöntem	-11.1087
ış	-11.1089
▁pantaya	-11.1089
▁oferta	-11.1089
lanma	-11.109
▁birbirimizi	-11.1093
▁konsegyo	-11.1094
▁cehenneme	-11.1097
benim	-11.1097
▁kantikaes	-11.1098
▁alfa	-11.11
▁serkano	-11.1102
▁içeride	-11.1105
▁piloto	-11.1106
▁çocuklara	-11.1107
nca	-11.1108
şa	-11.1109
▁godro	-11.111
nik	-11.1111
▁kış	-11.1112
▁sigorta	-11.1113
▁robo	-11.1113
▁çoğunlukla	-11.1114
▁anunsio	-11.1115
▁askerler	-11.1116
▁audiensia	-11.112
▁kanı	-11.1122
▁ekip	-11.1123
▁tenis	-11.1123
▁kazanmak	-11.1133
▁ayegan	-11.1133
▁kaz	-11.1135
▁sıfır	-11.1137
▁che	-11.114
▁üzgün	-11.1141
▁altura	-11.1144
inizi	-11.1148
▁krizi	-11.1148
komo	-11.1152
yacağım	-11.1153
▁rocky	-11.1154
▁iz	-11.1155
▁prekosions	-11.116
layacak	-11.1161
▁fransisko	-11.1163
▁kontrolü	-11.1163
▁anderson	-11.1163
▁vagon	-11.1169
▁gu	-11.117
▁tomas	-11.1172
beni	-11.1173
▁çalıştır	-11.1174
kta	-11.1174
▁cumhuriyeti	-11.1177
▁secsion	-11.1179
▁başından	-11.118
▁deshen	-11.1181
▁raporu	-11.1182
▁üretim	-11.1184
▁derdi	-11.1184
▁anlamıyor	-11.1184
▁evolusion	-11.1185
▁müziği	-11.1185
gu	-11.1186
▁ayudame	-11.1187
▁utanç	-11.1188
kimiz	-11.1189
▁tarzı	-11.1189
▁konsumidores	-11.1189
▁ederken	-11.1191
▁city	-11.1191
▁yaratıcı	-11.1192
ladı	-11.1195
üyor	-11.1195
ınız	-11.12
▁resien	-11.1203
▁yami	-11.1207
▁avlava	-11.121
▁vietnam	-11.1212
▁division	-11.1215
▁artur	-11.1218
▁ambas	-11.1219
▁düzen	-11.1219
▁doğa	-11.122
▁lisensia	-11.1222
▁çekme	-11.1224
▁senyoras	-11.1226
nie	-11.1228
▁djuga	-11.1229
▁gözden	-11.1233
▁sanmıştım	-11.1233
miyorsun	-11.1242
▁vergi	-11.1242
▁uniforme	-11.1243
▁nehir	-11.1244
▁çocuğum	-11.1245
▁yardıma	-11.1247
▁açtı	-11.1248
▁medya	-11.1249
▁biblioteka	-11.1253
▁kantante	-11.1256
▁jesus	-11.1256
▁kent	-11.1259
▁angeles	-11.126
ario	-11.1267
▁lin	-11.1268
▁niveles	-11.127
▁ayrılma	-11.1271
ting	-11.1274
▁sağladı	-11.1275
▁poezia	-11.1278
▁tomamos	-11.1278
▁maç	-11.1282
▁sinyales	-11.1284
▁verildi	-11.1285
▁üstü	-11.1285
▁agamos	-11.1286
▁dispuesto	-11.1286
▁yaparak	-11.1287
▁işçi	-11.1289
▁dediğim	-11.129
amayız	-11.1291
▁eksakto	-11.1291
ınca	-11.1291
▁yandan	-11.1292
▁sielos	-11.1298
▁inkluyendo	-11.1299
▁değiştirmek	-11.1301
▁pare	-11.1303
dığım	-11.1304
▁önümüzdeki	-11.131
▁sero	-11.131
▁irnos	-11.1313
▁aldığı	-11.1313
▁djenero	-11.1313
▁plazia	-11.1314
▁vurdu	-11.1314
ırız	-11.1316
▁yatağa	-11.1317
mden	-11.1317
▁haberler	-11.1319
▁imza	-11.132
▁faydası	-11.132
▁lecsion	-11.1322
▁göze	-11.1322
▁partisi	-11.1323
▁vinimos	-11.1324
lle	-11.1328
▁mina	-11.1333
▁primo	-11.1333
▁anlattı	-11.1334
▁dediği	-11.1334
▁yapacağını	-11.1336
▁geliyorlar	-11.1337
▁plata	-11.1337
▁ruso	-11.1341
▁margaret	-11.1342
▁tıp	-11.1344
▁long	-11.1348
▁koridor	-11.1348
▁oturma	-11.1349
▁fikrini	-11.1349
▁bienvenida	-11.1351
▁aday	-11.1352
cık	-11.1352
sky	-11.1352
▁giyin	-11.1354
daha	-11.1354
▁kansada	-11.1354
larımızın	-11.1355
▁saati	-11.1357
ano	-11.1362
▁ailem	-11.1365
▁mental	-11.1368
▁atrapar	-11.1368
▁desayuno	-11.1368
▁eksistensia	-11.1368
▁balığı	-11.1374
adr	-11.1374
▁görünen	-11.1374
▁bok	-11.1374
▁meselesi	-11.1376
▁birazcık	-11.1382
▁entendi	-11.1382
▁laura	-11.1387
▁posibilidades	-11.1388
▁tar	-11.1391
▁alimentos	-11.1392
▁getirme	-11.1392
▁okulda	-11.1395
▁bivia	-11.1396
▁pensen	-11.1397
▁açar	-11.1398
▁kaybetme	-11.1399
▁atın	-11.1403
▁amante	-11.1405
▁fo	-11.1406
▁garanti	-11.141
ld	-11.1413
▁petrolio	-11.1413
▁yerli	-11.1416
iş	-11.1417
▁indika	-11.1417
▁benimki	-11.1418
▁tıbbi	-11.1423
▁similar	-11.1423
▁techo	-11.1427
▁res	-11.1428
▁sonyar	-11.1432
▁lye	-11.1432
▁miyas	-11.1434
▁kreasion	-11.1435
▁esten	-11.1438
▁kaçır	-11.1438
▁palasio	-11.1439
▁verdiler	-11.144
▁oridjen	-11.144
▁tap	-11.1444
▁truko	-11.1444
▁kenara	-11.1445
sie	-11.1446
▁asperan	-11.1447
▁tenyendo	-11.1448
▁korkak	-11.1451
▁kime	-11.1453
lis	-11.1454
izado	-11.1457
we	-11.1458
▁avisar	-11.1458
▁sayfa	-11.1461
▁repuestas	-11.1461
▁carl	-11.1463
▁birinde	-11.1468
▁varken	-11.147
▁kerian	-11.147
▁aparesyo	-11.1473
▁primavera	-11.1473
▁estomago	-11.1473
▁ertesi	-11.1473
berg	-11.1477
▁yerlere	-11.1477
▁sür	-11.1477
▁tarım	-11.1478
▁temperatura	-11.1478
▁world	-11.1479
▁olursun	-11.1479
▁reacsion	-11.148
▁kurban	-11.1483
▁olmalısınız	-11.1487
▁başlayalım	-11.1491
▁ederler	-11.1493
▁kinezo	-11.1496
ılması	-11.1496
▁restorante	-11.15
▁yüzyıl	-11.1501
sene	-11.1503
▁olduk	-11.1504
▁gritar	-11.1509
▁makale	-11.151
acaksınız	-11.1512
▁mezar	-11.1513
▁fon	-11.1515
han	-11.1516
▁eyalet	-11.1516
▁reto	-11.1517
▁popüler	-11.1517
▁repente	-11.1517
▁praktika	-11.1521
dılar	-11.1523
▁hazırla	-11.1524
▁reklam	-11.1526
▁kılıç	-11.1526
▁pay	-11.1529
▁chu	-11.1529
tura	-11.153
▁obviamente	-11.1535
▁suyun	-11.1536
▁halkı	-11.1536
unda	-11.1536
▁ilham	-11.1538
▁novio	-11.1538
ling	-11.1539
▁rekompensa	-11.1548
▁geçirmek	-11.1549
▁dates	-11.1554
▁zar	-11.1556
▁sokak	-11.1559
▁taylor	-11.1559
▁florida	-11.1561
▁dönme	-11.1562
▁ülkeler	-11.1563
▁biçim	-11.1564
▁faltaes	-11.1565
▁ettiniz	-11.1568
▁yapımı	-11.1569
▁olvides	-11.1569
syon	-11.1572
▁ur	-11.1573
▁duydunuz	-11.1574
▁esforso	-11.1576
▁finales	-11.1576
▁lavorava	-11.1576
▁yolla	-11.1576
▁katıldı	-11.1577
▁konsegi	-11.1578
▁lucy	-11.1582
biz	-11.1583
▁rekere	-11.1587
▁kampo	-11.159
▁derler	-11.1592
▁basın	-11.1596
▁aniyo	-11.1596
▁sey	-11.1603
ilir	-11.1604
▁eskrito	-11.1605
▁pencere	-11.1605
▁kaybı	-11.1606
▁lio	-11.1609
▁terrenos	-11.161
▁yolcu	-11.161
▁sekretos	-11.161
▁date	-11.1612
ard	-11.1615
rri	-11.1616
▁talento	-11.1619
▁giderken	-11.1619
▁europeo	-11.1622
▁akompanya	-11.1624
▁öp	-11.1624
▁autoridad	-11.1626
layın	-11.1631
▁dejenme	-11.1633
▁aferin	-11.1633
▁enkargar	-11.1639
▁tenesh	-11.1642
▁yargı	-11.1644
▁pasan	-11.1645
▁aşı	-11.1646
▁suba	-11.1651
▁gümüş	-11.1652
▁çekip	-11.1653
▁"""""""...	-11.1654
▁meterse	-11.1656
▁alkanse	-11.1659
▁ayı	-11.1659
▁dışına	-11.1664
▁kaplan	-11.1666
▁cu	-11.1667
▁içme	-11.1667
▁gürültü	-11.1668
▁muydun	-11.1672
bro	-11.1674
▁suseder	-11.1675
▁nena	-11.1676
▁devrim	-11.1677
â	-11.1677
▁sadık	-11.1678
acaktır	-11.1678
▁ameliyat	-11.1679
▁luke	-11.1681
▁halkın	-11.1682
üm	-11.1683
▁alanında	-11.1684
▁livra	-11.1684
▁william	-11.1689
▁zamanın	-11.1691
▁seksual	-11.1694
▁geçme	-11.1695
▁komunidades	-11.1695
▁noktası	-11.1697
▁arabası	-11.1704
▁kukla	-11.1706
▁igales	-11.1707
▁nerde	-11.1711
▁yapması	-11.1712
dia	-11.1714
▁kampeon	-11.1715
▁soruşturma	-11.1718
▁enyega	-11.1718
▁gitmiyor	-11.172
▁çekin	-11.1721
▁pieza	-11.1723
▁siguimos	-11.1725
▁şeklinde	-11.1728
▁anlamda	-11.1729
rim	-11.173
▁nancy	-11.1731
▁temin	-11.1732
▁eksplia	-11.1733
▁asperamos	-11.1734
▁cep	-11.1734
▁görmez	-11.1735
▁telgraf	-11.1737
▁yılan	-11.1737
▁kam	-11.1738
▁zahmet	-11.1739
▁sorma	-11.1741
▁dokun	-11.1742
sü	-11.1745
iyoruz	-11.1749
▁başını	-11.1751
▁sordu	-11.1754
▁algı	-11.1759
▁kreemos	-11.1759
▁yazma	-11.1762
▁hizmetçi	-11.1763
▁kuralları	-11.1764
▁suçlama	-11.1767
▁enfermera	-11.1768
▁sayılır	-11.177
▁laboriozoes	-11.1771
▁hain	-11.1771
▁eseri	-11.1774
▁eksselensia	-11.1776
▁geldiler	-11.1778
▁tempesta	-11.1778
▁firme	-11.1782
▁kombustible	-11.1783
▁mag	-11.1784
▁amy	-11.1785
▁düzelt	-11.1791
can	-11.1791
▁cadde	-11.1792
▁taşın	-11.1793
▁odreno	-11.1797
▁gidebilir	-11.1799
▁tornan	-11.18
▁boz	-11.1802
▁desharon	-11.1803
vis	-11.1803
▁budala	-11.1803
▁gıda	-11.1803
▁kardeşin	-11.1804
▁dönecek	-11.1804
▁sürede	-11.1808
▁kıza	-11.1808
▁mm	-11.1809
▁alex	-11.1815
▁alet	-11.1816
▁hazırım	-11.1816
▁yoldaş	-11.1817
▁iyiydi	-11.1818
▁biliyordu	-11.1818
ris	-11.182
▁demasiada	-11.1821
▁soy	-11.1822
▁pega	-11.1823
▁gördüğümüz	-11.1824
▁dönün	-11.1824
▁resivi	-11.1824
▁kalmos	-11.1826
▁şiir	-11.1827
madan	-11.1827
▁diş	-11.1828
▁ultimamente	-11.1831
▁doğdu	-11.1832
▁clima	-11.1836
▁bond	-11.1838
▁aksine	-11.1839
▁informes	-11.1841
▁miktarda	-11.1841
idos	-11.1841
▁görüşme	-11.1843
▁güzellik	-11.1844
madım	-11.1844
▁chiflik	-11.1851
▁hor	-11.1851
▁zenci	-11.1854
▁farkı	-11.1854
▁tornen	-11.1858
▁responde	-11.1862
▁evidensia	-11.1865
pri	-11.1869
▁monstruo	-11.1871
üp	-11.1875
▁agradesko	-11.1876
▁güzeldi	-11.1877
▁kruz	-11.1877
▁australia	-11.188
▁mate	-11.1881
▁piano	-11.1881
▁cevabı	-11.1883
▁rolü	-11.1883
▁hali	-11.1883
▁yunan	-11.1884
▁bağ	-11.1885
▁suma	-11.1885
▁mura	-11.1887
▁ross	-11.1887
▁termino	-11.1888
▁metes	-11.1889
▁lou	-11.189
▁guadrar	-11.1892
▁vesinos	-11.1895
jen	-11.1896
▁görünce	-11.1896
▁declarasion	-11.1897
▁modeli	-11.1902
▁tarz	-11.1903
▁kısmını	-11.1904
▁bunda	-11.1905
yalım	-11.1905
▁görsel	-11.1906
▁kadaver	-11.1906
▁aleks	-11.1907
▁areas	-11.1907
sis	-11.1907
▁araştır	-11.1909
▁olmazsa	-11.191
▁autos	-11.1911
▁jan	-11.1913
▁tripulasion	-11.1913
▁holmes	-11.1913
▁öbür	-11.1915
▁standart	-11.1917
▁desarroyar	-11.1919
▁avlemos	-11.1921
▁err	-11.1922
▁demiştim	-11.1925
solo	-11.1926
▁ürün	-11.1926
▁oynama	-11.1928
▁asya	-11.1928
▁soruyu	-11.1929
▁gol	-11.193
▁embia	-11.1931
▁vaso	-11.1935
▁enkantaria	-11.1935
▁görmüyor	-11.1937
▁defender	-11.194
▁sizlere	-11.1943
▁rea	-11.1948
▁limpio	-11.1948
▁metyeron	-11.195
▁adımı	-11.1952
▁şart	-11.1954
▁shabat	-11.1958
▁muchachoa	-11.1958
▁windows	-11.1959
▁tenido	-11.1959
▁malzeme	-11.1966
▁viktima	-11.1967
▁keresinde	-11.1967
▁organ	-11.1968
▁buluş	-11.1969
▁barney	-11.1969
▁jesse	-11.1973
▁söylemedim	-11.1974
▁şeydir	-11.1975
▁metodo	-11.1977
▁bakmayın	-11.1977
▁tarif	-11.1977
▁bio	-11.1978
▁veinte	-11.198
▁şanslar	-11.1981
▁belge	-11.1981
▁çeker	-11.1981
▁asistir	-11.1983
▁reunir	-11.1984
▁attı	-11.1985
▁kasabada	-11.1988
▁kondision	-11.1989
ac	-11.1991
▁dinlemek	-11.1997
ilmiş	-11.1997
top	-11.2
▁dudo	-11.2004
▁dini	-11.2004
▁konsidera	-11.2006
▁görebilir	-11.2007
▁saltar	-11.2009
▁ss	-11.2015
▁kimyasal	-11.2015
▁takma	-11.2018
ık	-11.2021
▁aradı	-11.2021
▁durumunda	-11.2024
▁anı	-11.2024
▁akodre	-11.2026
▁sho	-11.2027
unun	-11.2028
bor	-11.203
▁trezoro	-11.2032
nizin	-11.2032
lanacak	-11.2034
▁olmalıyım	-11.2034
▁deshates	-11.2038
▁kuedra	-11.2041
▁supyera	-11.2041
▁şunları	-11.2042
▁uzat	-11.2044
▁kare	-11.2044
▁yapay	-11.2044
▁komi	-11.2047
▁kadınla	-11.2048
ıyordu	-11.2049
▁bakıyor	-11.2052
▁asepta	-11.2052
mışsın	-11.2052
▁jugador	-11.2054
pres	-11.2056
▁denize	-11.2056
▁ölecek	-11.2057
▁komp	-11.2059
▁asepto	-11.2061
▁dönemde	-11.2062
▁espanta	-11.2063
▁işkence	-11.2068
▁konuşabilir	-11.2068
▁lingua	-11.2068
▁oğlan	-11.2069
▁dediğini	-11.2069
▁eleksiones	-11.207
▁oes	-11.2071
▁isteme	-11.2071
▁blog	-11.2072
▁yılları	-11.2072
▁salto	-11.2073
▁yaptılar	-11.2074
▁fransızca	-11.2082
▁hasar	-11.2084
▁ajeno	-11.2088
▁grados	-11.2089
disho	-11.2089
▁razonable	-11.209
▁inf	-11.209
▁diskurso	-11.2097
▁mutsuz	-11.2098
▁maldision	-11.2098
▁tatmin	-11.21
▁ç	-11.2102
▁kızla	-11.2104
▁asperen	-11.2106
▁je	-11.2106
▁eskrivi	-11.2106
▁liberar	-11.2107
▁leo	-11.211
▁komutanım	-11.2112
▁bilmiyoruz	-11.2112
▁öylece	-11.2113
▁şehre	-11.2117
▁barrio	-11.2118
▁polisler	-11.2121
ora	-11.2127
▁müdürü	-11.2131
▁nasionales	-11.2131
▁wiyiam	-11.2132
▁konferensia	-11.2135
ıcı	-11.214
▁hayalet	-11.214
▁bulma	-11.2142
▁hele	-11.2143
▁fuyir	-11.2145
▁tornaron	-11.2151
▁olacağı	-11.2152
▁formar	-11.2153
▁eşim	-11.2154
▁pala	-11.2154
ıyorsunuz	-11.2157
▁suçu	-11.2159
▁aparte	-11.2162
▁demande	-11.2162
▁keresh	-11.2163
▁gücünü	-11.2164
▁dioes	-11.2168
▁invito	-11.2173
▁rengi	-11.2176
▁trafiko	-11.2179
▁mismas	-11.2179
▁siertas	-11.2182
▁sufrir	-11.2186
▁orbita	-11.2188
▁amerikanos	-11.2189
▁giderim	-11.219
▁kulübü	-11.2191
▁kriatura	-11.2191
▁kazanan	-11.2195
▁espantozo	-11.2197
▁meten	-11.2201
▁viernes	-11.2201
▁pinta	-11.2203
▁geçici	-11.2203
▁gibidir	-11.2203
▁devre	-11.2204
▁karışık	-11.2204
▁djenio	-11.2204
▁ölen	-11.221
▁deskanso	-11.2211
▁tanıma	-11.2212
▁gapo	-11.2214
▁virus	-11.2215
▁harcama	-11.2215
▁geçecek	-11.2217
▁libres	-11.2217
▁rep	-11.2218
mizde	-11.2218
▁büyüme	-11.2219
▁identifikar	-11.222
▁fırsatı	-11.222
▁sorprendente	-11.222
▁merhamet	-11.2221
▁tık	-11.2223
▁köprü	-11.2225
▁kızılderili	-11.2226
▁eskritor	-11.2234
▁sitios	-11.2235
▁wiy	-11.2239
▁çekiyor	-11.2246
▁tat	-11.2247
▁girip	-11.225
▁edilmesi	-11.2253
▁sun	-11.2258
▁eğitimi	-11.2258
▁taza	-11.2263
▁babanın	-11.2268
▁sizler	-11.2268
▁eramos	-11.227
▁karşıya	-11.227
kim	-11.2273
nas	-11.2273
▁şimdiden	-11.2275
▁kop	-11.2278
▁buck	-11.2279
▁difisiles	-11.228
▁gemiye	-11.2284
▁müsaade	-11.2286
▁aldea	-11.2287
low	-11.2291
▁akabe	-11.2293
▁dijital	-11.2296
▁kullanıyor	-11.2297
▁invitados	-11.2297
▁primeras	-11.2298
▁davis	-11.2298
▁miami	-11.2298
▁soportar	-11.2299
▁ido	-11.2301
▁meydan	-11.2303
▁içi	-11.2304
▁kuriozita	-11.2306
▁liga	-11.2307
▁konuşuyorsun	-11.2307
nsia	-11.2311
▁ismini	-11.2312
▁edemez	-11.2312
▁yerva	-11.2312
▁kira	-11.2313
▁demokrasia	-11.2314
▁kazo	-11.2316
▁yıldan	-11.2319
▁kolecsion	-11.2322
imos	-11.2325
▁denir	-11.2326
▁peri	-11.2326
▁kro	-11.2329
▁elementos	-11.2332
▁yetişkin	-11.2332
▁bisiklet	-11.2332
▁twitter	-11.2334
▁apetese	-11.2334
▁amacıyla	-11.2337
▁sanıyorum	-11.2338
▁baktım	-11.2339
▁dergi	-11.2343
leyen	-11.2345
▁inisio	-11.2345
▁bitki	-11.2345
▁uvyeran	-11.2346
▁relijion	-11.2346
▁uzamos	-11.2347
▁hamile	-11.2347
▁şuradaki	-11.2349
▁redes	-11.2351
▁yerin	-11.2351
leriniz	-11.2352
▁orgyoso	-11.2354
▁adi	-11.2355
▁rayos	-11.2356
▁helen	-11.2358
▁radar	-11.2358
▁manejar	-11.2359
▁christian	-11.2363
▁bit	-11.2365
▁stan	-11.2365
▁materiales	-11.2367
▁observar	-11.2368
▁yaralı	-11.2369
▁prechizamente	-11.2373
▁yaptıklarını	-11.2374
▁bro	-11.2375
ene	-11.2376
▁oranı	-11.238
▁kaveyo	-11.2383
▁konser	-11.2384
▁sağa	-11.2385
▁miss	-11.2387
▁biyolojik	-11.2387
▁istediğimiz	-11.239
liler	-11.239
lie	-11.239
eros	-11.2391
▁arraviado	-11.2392
▁gazeteci	-11.2392
tada	-11.2393
▁içmek	-11.2394
▁campo	-11.2395
▁joan	-11.2395
▁pura	-11.2398
▁yatır	-11.24
tür	-11.2401
▁muchisimo	-11.2401
▁viktimas	-11.2403
▁identidad	-11.2404
▁bölgede	-11.2404
▁tales	-11.2404
▁ötesinde	-11.2404
▁sch	-11.2405
▁ber	-11.2407
▁afekta	-11.2407
▁desastre	-11.2412
▁mesafe	-11.2413
▁parçaları	-11.2415
stro	-11.2416
wey	-11.2417
▁diyeceğim	-11.242
▁yaptınız	-11.2421
▁vaye	-11.2421
▁dolarlık	-11.2423
▁göremiyorum	-11.2423
▁peşinden	-11.2424
▁geçirdim	-11.2425
▁dedos	-11.2426
▁durme	-11.2426
ebilirsin	-11.2427
rar	-11.2435
▁philip	-11.244
▁viktor	-11.244
▁maden	-11.2441
▁cuma	-11.2444
▁çanta	-11.2445
▁bozuk	-11.2445
▁çiz	-11.2446
▁zi	-11.2447
▁bakıyorum	-11.2449
▁etmişti	-11.245
▁yamando	-11.2457
ves	-11.2458
▁estableser	-11.2459
▁asukar	-11.2459
kları	-11.246
▁türü	-11.246
▁uyarı	-11.2461
eceksin	-11.2461
▁yaptır	-11.2462
▁deshan	-11.2463
▁konde	-11.2467
▁köpeği	-11.2468
▁iğne	-11.2468
▁ettir	-11.2471
▁gitmeliyim	-11.2472
rak	-11.2472
▁kova	-11.2477
▁dekarselo	-11.2479
▁söylemedi	-11.2481
▁kocası	-11.2482
▁filo	-11.2488
▁kızları	-11.2489
▁tanıdığım	-11.2489
▁kore	-11.249
▁personaje	-11.2494
▁davranma	-11.2494
▁aradım	-11.2498
▁bıraktım	-11.2499
▁kastigo	-11.2499
▁oliver	-11.2499
▁eu	-11.2501
▁enfrentar	-11.2501
▁icat	-11.2504
▁dodje	-11.2504
▁çöp	-11.2509
▁nasıi	-11.2509
▁mermi	-11.2509
▁uyum	-11.2511
tyle	-11.2511
▁propozision	-11.2512
▁bari	-11.2513
melisiniz	-11.2515
▁gibisin	-11.2516
▁har	-11.2518
▁importar	-11.2519
▁aldikera	-11.2519
▁fisiko	-11.2519
▁etmeliyiz	-11.2524
▁alındı	-11.2526
▁echizo	-11.2528
▁brad	-11.253
▁vurma	-11.2531
▁topates	-11.2532
ensia	-11.2533
▁keşif	-11.2533
anne	-11.2533
lak	-11.2536
▁muazzam	-11.2537
▁rumbo	-11.2538
▁kaldık	-11.2541
▁deshamos	-11.2541
▁sap	-11.2543
▁lavoran	-11.2544
mun	-11.2546
▁hacerlo	-11.2549
ilen	-11.2549
liğine	-11.2549
▁odaya	-11.255
▁duyma	-11.255
▁eline	-11.2552
▁firmar	-11.2554
▁çalıştığını	-11.2555
▁bulunma	-11.2557
▁bandiera	-11.2558
maktan	-11.2563
▁yarat	-11.2564
▁yapabilirsin	-11.2565
▁olaylar	-11.2565
▁geçirdi	-11.2566
▁isimli	-11.2567
▁amaç	-11.2567
▁fra	-11.2569
▁yerleştir	-11.2571
▁subay	-11.2572
eso	-11.2574
▁yapabileceğim	-11.2575
▁publikos	-11.2576
▁venta	-11.2576
kov	-11.2577
▁geleceği	-11.2578
▁salvaje	-11.2578
▁alerta	-11.258
▁kolores	-11.258
acağı	-11.258
▁atma	-11.2583
▁önemlisi	-11.2585
▁yaptığınız	-11.2585
▁ge	-11.2588
▁guadra	-11.2592
▁yapmayın	-11.2594
▁çiftlik	-11.2594
▁intentarlo	-11.2594
▁numarası	-11.2595
▁şeydi	-11.2597
▁tono	-11.2597
ımızı	-11.2603
▁rekuedro	-11.2607
▁yaparız	-11.2608
▁darbe	-11.2611
▁bildiğimiz	-11.2611
▁lokales	-11.2613
▁deskuvri	-11.2614
▁espera	-11.2622
▁olmaması	-11.2625
▁öde	-11.2627
▁gündüz	-11.2627
▁doğruyu	-11.2629
▁bulunuyor	-11.263
▁canına	-11.2633
▁uğraş	-11.2634
▁grado	-11.2635
▁getiren	-11.2636
abiliyor	-11.2637
▁geçiş	-11.2638
▁örneği	-11.264
dığımız	-11.2642
ear	-11.2647
▁stra	-11.2648
▁yapamaz	-11.2649
▁maruz	-11.2655
▁asentador	-11.2656
▁büyükbaba	-11.2659
▁hastaneye	-11.2661
▁savaşa	-11.2662
▁kamara	-11.2663
▁yakından	-11.2663
▁köy	-11.2666
▁yapacağımı	-11.2667
▁açma	-11.2667
▁stüdyo	-11.2669
▁adjentes	-11.267
▁fil	-11.2674
▁hukuk	-11.2675
▁kafayı	-11.2678
▁kural	-11.268
▁kilit	-11.2681
▁ministerio	-11.2685
▁ron	-11.2686
▁lee	-11.2687
▁bırakır	-11.2688
▁puedesh	-11.269
▁hapishane	-11.269
▁vermiş	-11.2692
▁gelirim	-11.2692
▁kontes	-11.2694
▁ekstraodrinario	-11.2694
▁depo	-11.2699
▁toplama	-11.2699
▁kru	-11.27
▁solas	-11.2703
▁kontenido	-11.2703
▁gideyim	-11.2705
▁fort	-11.2706
▁macera	-11.2706
▁amistad	-11.2707
▁matarme	-11.2708
▁konsepto	-11.2708
▁artış	-11.2708
▁sektor	-11.2709
stediğin	-11.2713
▁üstün	-11.2715
▁plasa	-11.2717
mor	-11.2718
▁dul	-11.2724
▁lunes	-11.2725
▁anlatacağım	-11.2726
▁çıkardı	-11.2726
▁kolayca	-11.2726
▁ayudarle	-11.2733
▁dostlarım	-11.2734
▁konuşacak	-11.2734
▁orgolyo	-11.2734
▁charlotte	-11.2736
rd	-11.2737
▁falso	-11.2737
▁eskolas	-11.2739
▁kazarme	-11.2741
▁valores	-11.2742
▁adjensia	-11.2744
▁yapman	-11.2744
▁lideres	-11.2747
▁çatışma	-11.2753
▁idam	-11.2753
▁claramente	-11.2755
▁dokumentos	-11.2755
▁korkuyor	-11.2761
▁rekuedros	-11.2762
▁çalışmaları	-11.2765
▁edifisios	-11.2768
▁buradasın	-11.2769
▁indi	-11.2769
tesh	-11.2774
▁mccoy	-11.2774
▁chicago	-11.2774
▁kısım	-11.2775
▁gecenin	-11.2775
▁beden	-11.2776
abileceğini	-11.2776
▁disponible	-11.2777
▁kase	-11.2777
▁söylüyorlar	-11.2777
▁başlamak	-11.2777
▁nehri	-11.2778
▁karbono	-11.2779
▁istedin	-11.2781
▁kid	-11.2781
▁aktrisa	-11.2783
▁kaliforniya	-11.2784
▁sokakta	-11.2785
▁izleme	-11.2788
▁ceset	-11.2788
▁oysa	-11.2792
▁sağlayacak	-11.2793
▁gerekirdi	-11.2794
▁konuştum	-11.2795
▁uzaklaş	-11.2795
▁içelim	-11.2796
▁independiente	-11.2797
▁hissediyor	-11.2798
▁yetiştir	-11.28
▁figra	-11.2801
▁sorprende	-11.2803
▁erkeğin	-11.2803
▁puestos	-11.2803
▁oksijen	-11.2804
▁jenny	-11.2804
▁pedrimos	-11.2806
▁preferaria	-11.281
▁eksplikasion	-11.2811
▁akordas	-11.2812
▁tepe	-11.2812
▁kutlama	-11.2813
▁nihayet	-11.2814
▁esuchame	-11.2814
uyor	-11.2816
▁görelim	-11.2817
▁yoluyla	-11.2819
▁çocukken	-11.2823
eo	-11.2823
▁suvir	-11.2824
▁mios	-11.2824
▁veremem	-11.2826
▁jason	-11.2828
mparatorluğu	-11.2828
lanması	-11.2828
şler	-11.2832
▁görünür	-11.2834
▁frakaso	-11.2834
▁evaluasion	-11.2835
▁stone	-11.2835
yıp	-11.2836
▁personalmente	-11.284
tter	-11.2843
▁operasyon	-11.2845
▁kullanea	-11.2851
▁fazlasıyla	-11.2852
▁diridje	-11.2854
▁emekli	-11.2855
ford	-11.2858
▁hafıza	-11.2859
djel	-11.286
bb	-11.2862
▁italiano	-11.2863
▁derim	-11.287
▁eriş	-11.2871
sonra	-11.2874
▁değiş	-11.2875
▁distinto	-11.2877
▁johnson	-11.2879
▁gecesi	-11.2881
▁oyyendo	-11.2881
yecek	-11.2882
▁agantar	-11.2883
▁karşılaş	-11.2884
▁çalıştığım	-11.2885
▁konuşalım	-11.2886
▁desharlo	-11.2888
▁tre	-11.289
▁sosio	-11.2893
▁reales	-11.2894
▁nuevamente	-11.2895
▁yapmamı	-11.2896
▁hayatımın	-11.2899
▁fiyat	-11.2899
lenme	-11.2904
▁bilen	-11.2906
▁karşılığında	-11.2907
▁lideri	-11.2909
▁perde	-11.291
uk	-11.2915
▁distrito	-11.2915
▁gittikçe	-11.2916
▁sonuçlar	-11.2916
▁içeren	-11.292
▁anlamadım	-11.2921
▁gor	-11.2921
tın	-11.2921
▁okudum	-11.2921
şim	-11.2922
lt	-11.2924
▁mahalle	-11.2924
▁yuva	-11.2925
srail	-11.2933
▁adamların	-11.2934
▁şefi	-11.2934
▁gal	-11.2935
▁süren	-11.2937
▁poder	-11.2938
▁malos	-11.294
▁sanıyor	-11.2942
▁bağışla	-11.2942
▁kulağa	-11.2946
ios	-11.2947
▁aktif	-11.2947
hu	-11.2948
▁çalışırken	-11.2948
▁oturuyor	-11.295
▁ayında	-11.295
▁toman	-11.2952
well	-11.2952
▁kuan	-11.2953
ilecek	-11.2955
▁preparados	-11.2956
▁vayase	-11.2957
tif	-11.2958
▁yeme	-11.2958
▁trafik	-11.2959
▁ekonomiko	-11.2965
port	-11.2966
▁bilet	-11.2966
▁mezun	-11.2968
▁olabilecek	-11.2969
▁akeyo	-11.297
▁planı	-11.2974
▁pagan	-11.2974
▁şarkıcı	-11.2978
▁aviamos	-11.298
▁değiştirme	-11.2982
▁sirkunstansias	-11.2984
▁fase	-11.2984
▁golor	-11.2985
▁kalmaz	-11.2985
▁pedryendo	-11.2986
▁koma	-11.2987
▁çekilin	-11.2987
▁seremonia	-11.2988
▁öldüğünü	-11.2989
▁ihtiyaçları	-11.2989
stitu	-11.2991
yama	-11.2991
▁disparo	-11.2992
▁karı	-11.2995
▁eskapi	-11.2998
▁gelene	-11.2998
▁kasabaya	-11.3001
▁templo	-11.3002
▁importaria	-11.3002
tık	-11.3005
▁meterme	-11.3005
displays	-11.3007
▁lewis	-11.3007
▁breve	-11.3007
▁didjital	-11.301
▁sör	-11.3012
▁kaçırma	-11.3013
mina	-11.3013
abilmek	-11.3014
▁damos	-11.3014
▁boğa	-11.3015
▁cinsiyet	-11.3017
▁getireyim	-11.3018
▁ot	-11.3019
▁sizde	-11.3022
▁gösterme	-11.3023
pin	-11.3024
aes	-11.3026
▁pazartesi	-11.3027
▁detektive	-11.3028
▁atı	-11.3028
▁bunca	-11.3028
▁entenderlo	-11.3029
▁atmak	-11.303
▁yardımı	-11.303
▁lados	-11.3031
amadım	-11.3031
▁pasharo	-11.3031
▁etmeliyim	-11.3033
kur	-11.3036
▁autor	-11.3036
▁pişman	-11.3037
▁vapoos	-11.3037
▁demandan	-11.3039
!""""	-11.304
▁beklemek	-11.304
▁duvar	-11.304
▁plaka	-11.3044
▁gelmesini	-11.3044
▁dolara	-11.3045
▁adultos	-11.3047
▁yatakta	-11.3047
▁resulto	-11.3048
▁sorabilir	-11.3048
▁grand	-11.3052
▁ölme	-11.3054
▁jurado	-11.3054
▁ueyas	-11.3055
▁sity	-11.3057
▁moskova	-11.3058
▁hayatının	-11.3059
▁çığlık	-11.306
▁kata	-11.306
star	-11.3061
▁uydu	-11.3063
▁etmiştir	-11.3064
▁olmes	-11.3066
▁akabado	-11.3068
▁kasualidad	-11.3068
▁miralo	-11.3069
meden	-11.3074
▁arabanın	-11.3075
▁robin	-11.3076
lon	-11.3077
▁ödünç	-11.3079
▁tokyo	-11.3079
▁enamorada	-11.308
▁güvenilir	-11.3081
▁fumar	-11.3081
mıyoruz	-11.3081
▁aktar	-11.3085
▁olvide	-11.3086
▁zamanım	-11.3087
▁söylemedin	-11.3088
▁selebrar	-11.3089
medi	-11.3093
▁olmazdı	-11.3097
▁anlaş	-11.3101
▁okyanus	-11.3102
spanyol	-11.3104
▁kansas	-11.3105
▁gördüğüme	-11.3105
▁hiçbiri	-11.3105
▁fikrin	-11.3106
▁bölgesi	-11.3107
▁mosu	-11.3111
▁çatı	-11.3111
▁affet	-11.3111
▁kriminal	-11.3113
▁plato	-11.3114
▁ez	-11.3115
▁objektivos	-11.3121
▁durdu	-11.3123
ebilmek	-11.3125
▁kriz	-11.3127
▁arap	-11.3129
▁bekler	-11.3133
burada	-11.3134
▁geçmek	-11.3135
▁preokupar	-11.3137
▁kişiye	-11.3137
▁proyektos	-11.314
kle	-11.3141
▁komersial	-11.3143
▁jonson	-11.3146
▁alay	-11.315
▁bombas	-11.3151
▁çocuğa	-11.3151
▁eskrive	-11.3152
▁göreceksin	-11.3153
▁matematikas	-11.3155
▁modelos	-11.3156
bal	-11.3156
▁organo	-11.3158
▁civarında	-11.3158
▁avustralya	-11.3162
kleri	-11.3166
▁ter	-11.3167
▁gözüküyor	-11.317
▁movimieno	-11.3172
▁rompyo	-11.3172
yü	-11.3173
lma	-11.3173
▁replikar	-11.3174
▁fri	-11.3174
▁climatiko	-11.3174
▁anla	-11.3175
▁estupida	-11.3176
iyet	-11.3181
▁koyma	-11.3181
▁olmasaydı	-11.3187
▁sufisientes	-11.3188
▁çapında	-11.3188
▁düzey	-11.3189
▁konsekuensas	-11.3189
▁etmektedir	-11.3191
▁dishera	-11.3194
▁frankie	-11.3196
▁tratado	-11.3201
▁gratis	-11.3204
▁erkeklerin	-11.3205
ug	-11.3206
▁musikal	-11.3206
ebilirsiniz	-11.3207
itim	-11.3208
▁yapılması	-11.3213
▁enfoke	-11.3214
▁bilgiler	-11.3216
▁cheke	-11.3219
kiniz	-11.3222
▁siguyendo	-11.3224
▁yüzüne	-11.3228
emos	-11.323
▁çekim	-11.323
▁sira	-11.3231
▁pasamos	-11.3233
▁mel	-11.3234
▁pobreza	-11.3234
▁pasos	-11.3236
▁yaşadığı	-11.3239
pan	-11.3241
▁produze	-11.325
▁kredi	-11.3252
▁değişikliği	-11.3254
▁kreerlo	-11.3254
▁yaratmak	-11.3255
▁enkolgar	-11.3255
▁alanda	-11.3257
▁tören	-11.3257
mbo	-11.3258
ğı	-11.3259
▁oyuncak	-11.3261
▁prinsipalmente	-11.3262
▁yıllarda	-11.3265
▁şeref	-11.3265
▁kanon	-11.3266
▁adamsın	-11.3267
▁satış	-11.3274
▁kana	-11.3276
▁siglos	-11.3276
▁dje	-11.3276
▁durmyendo	-11.3276
▁eksplio	-11.3276
▁amaneser	-11.3276
▁önemsiz	-11.3279
▁ensupito	-11.3287
▁oksidjeno	-11.3287
▁kurmak	-11.3287
▁bekleyen	-11.3292
▁kamiza	-11.3292
▁kapıdan	-11.3294
▁ban	-11.3295
ete	-11.3297
▁roger	-11.3299
▁kumar	-11.3302
▁götürür	-11.3302
▁komersio	-11.3304
▁hareketi	-11.3304
▁verdiğim	-11.3304
▁rizikos	-11.3305
▁unidades	-11.3307
nci	-11.3307
▁eylem	-11.3307
▁potensial	-11.331
▁formula	-11.3311
▁entrenador	-11.3316
▁war	-11.3316
▁blues	-11.3316
▁cin	-11.3317
▁üret	-11.3319
▁protesto	-11.3319
▁görecek	-11.332
▁sersem	-11.332
▁indo	-11.3322
▁girecek	-11.3323
▁testi	-11.3324
▁sorumluluk	-11.3324
▁mirakolo	-11.3324
▁yıka	-11.3325
▁altındaki	-11.3325
▁sonuçları	-11.3326
▁agarra	-11.3326
▁pasion	-11.3327
▁terry	-11.3329
▁resientemente	-11.333
▁polisiyas	-11.3333
▁perspektiva	-11.3334
▁emosiones	-11.3336
▁konsiderar	-11.3341
▁ediyordum	-11.3342
▁koro	-11.3342
▁ichi	-11.3345
▁döndüm	-11.3346
▁odio	-11.3346
cher	-11.3347
▁param	-11.3349
▁başım	-11.3349
▁junta	-11.3353
leşti	-11.3353
▁katlan	-11.3355
▁edeceksin	-11.3356
▁distintas	-11.3358
▁istiyorsanız	-11.3358
▁yarısını	-11.3361
▁moore	-11.3362
▁geliştir	-11.3362
▁çalışacağım	-11.3363
csion	-11.3364
ecektir	-11.3365
▁paresa	-11.3365
▁kruel	-11.3366
▁entorno	-11.3366
▁afedersiniz	-11.3368
▁uyandır	-11.337
▁empesando	-11.337
▁denge	-11.3371
kti	-11.3372
▁yeteri	-11.3374
▁gerekmez	-11.3374
▁edilmiştir	-11.3376
▁sinsero	-11.3379
burg	-11.3381
▁avcı	-11.3382
▁kraliyet	-11.3384
▁korona	-11.3391
▁beynin	-11.3391
▁neresi	-11.3392
▁kirli	-11.3393
▁otobüs	-11.3393
▁öldürecek	-11.3394
▁andy	-11.3394
▁basa	-11.3395
▁nadar	-11.3395
▁avles	-11.3399
▁ekibi	-11.3401
▁bulacağım	-11.3402
▁gelişmiş	-11.3402
▁üniforma	-11.3405
▁sil	-11.3411
▁kamyon	-11.3411
mızda	-11.3412
▁saklan	-11.3418
▁romanso	-11.3421
▁kitty	-11.3422
▁asenten	-11.3424
▁piyano	-11.3425
dd	-11.3427
▁işimiz	-11.3431
▁türden	-11.3431
▁bizde	-11.3436
rra	-11.344
▁nüfus	-11.3442
▁boşalt	-11.3443
▁genetik	-11.3447
mla	-11.3448
▁topas	-11.345
▁yerler	-11.3451
▁inanma	-11.3452
▁cezası	-11.3454
▁frankos	-11.3455
▁veriler	-11.3456
▁kendinize	-11.3458
zon	-11.3459
ps	-11.3459
▁kont	-11.3459
▁zeka	-11.346
▁zonas	-11.3462
▁komplikado	-11.3462
▁benefisios	-11.3463
tel	-11.3464
▁emma	-11.3465
▁faya	-11.3467
emeyiz	-11.3468
▁invitar	-11.347
sadece	-11.3472
▁love	-11.3473
▁fotoğrafı	-11.3473
▁bebeği	-11.3473
▁prinsipios	-11.3473
▁pensadas	-11.3474
▁başkası	-11.3475
▁söyleyemem	-11.3477
▁cho	-11.3478
▁ölçüde	-11.3478
▁meşhur	-11.3478
▁yaşındayken	-11.348
▁gelmesi	-11.3484
▁gök	-11.3485
▁salva	-11.3485
tru	-11.3486
▁odia	-11.3486
wi	-11.3486
▁fueras	-11.3488
▁francisco	-11.3489
mir	-11.349
▁iria	-11.3492
▁çeken	-11.3493
▁supa	-11.3493
lamaya	-11.3493
▁yumruk	-11.3494
▁bebida	-11.3495
▁atmosfera	-11.3496
dyo	-11.3498
▁mahkemeye	-11.35
▁sovyet	-11.3501
▁kırıklığına	-11.3501
▁yazarı	-11.3502
▁bulur	-11.3502
▁teki	-11.3502
▁acımasız	-11.3502
▁tratava	-11.3504
▁tornates	-11.3504
▁inanamıyorum	-11.3505
▁yararı	-11.3506
▁halen	-11.3508
▁pecho	-11.3508
▁aramaya	-11.3508
▁yetenekli	-11.351
▁laf	-11.3514
mişsin	-11.3516
▁informar	-11.3517
▁plastik	-11.3517
▁alakalı	-11.3519
▁matado	-11.352
▁mario	-11.3521
▁konsigo	-11.3521
liyor	-11.3522
gos	-11.3524
▁ekspresion	-11.3525
▁bushkan	-11.3527
▁validja	-11.3527
▁bildiğiniz	-11.3531
▁kurtarma	-11.3532
▁einstein	-11.3533
▁manzara	-11.3535
▁çalışıyordu	-11.3537
▁karışma	-11.3537
▁clark	-11.3538
▁seven	-11.3539
▁magnifiko	-11.3543
▁funeral	-11.3543
▁buranın	-11.3543
▁olmamız	-11.3543
▁başladılar	-11.3543
▁söylemiş	-11.3544
rken	-11.3549
▁autoridades	-11.3551
▁radikal	-11.3553
▁komyendo	-11.3554
▁düşündüğüm	-11.3554
▁düşünmüyorum	-11.3555
▁savor	-11.3556
▁kül	-11.3557
▁gölge	-11.3557
▁sözünü	-11.3557
▁miktar	-11.3558
▁pasava	-11.3559
▁kaçma	-11.3559
▁ram	-11.3563
▁abitantes	-11.3564
▁fbi	-11.3567
▁zamanla	-11.3569
zer	-11.357
▁bakanlığı	-11.3572
▁lansar	-11.3574
eta	-11.3575
▁gelecekte	-11.3575
▁edjipto	-11.3575
▁izni	-11.3575
rik	-11.3576
▁dediğimi	-11.3577
▁gelirse	-11.3577
▁tutma	-11.3578
▁söylemeliyim	-11.3578
▁yapamazsın	-11.3578
▁bilgiyi	-11.3579
▁biter	-11.3579
dero	-11.3579
▁dediler	-11.358
▁ağlama	-11.3581
▁adıyla	-11.3582
▁lordum	-11.3584
ang	-11.3585
▁gelmeden	-11.3585
▁marte	-11.3589
▁sigientes	-11.3591
▁sinken	-11.3598
▁poker	-11.3598
▁instrucsiones	-11.3599
▁saha	-11.3599
▁şair	-11.3601
▁meldo	-11.3601
▁vermem	-11.3603
▁williams	-11.3603
▁kullanılır	-11.3604
▁döv	-11.3607
▁louise	-11.3607
▁she	-11.361
kri	-11.3614
▁kitate	-11.3615
▁flo	-11.3616
sveç	-11.3621
▁papi	-11.3622
nanılmaz	-11.3627
▁gittin	-11.3627
▁limite	-11.3628
▁jose	-11.3628
▁kondado	-11.363
▁serrada	-11.363
▁impuestos	-11.363
▁yapmaz	-11.3635
▁progreso	-11.3636
bet	-11.364
▁inanmıyorum	-11.364
▁kausar	-11.3643
▁kendilerine	-11.3645
▁grubun	-11.3646
eceği	-11.3646
▁delik	-11.3649
▁olmalıyız	-11.3652
▁anlaşılan	-11.3652
▁piko	-11.3654
▁edilebilir	-11.3655
▁gergin	-11.3656
▁hollanda	-11.3656
tis	-11.3657
itos	-11.3659
▁rodjer	-11.3665
vie	-11.3667
▁şov	-11.3667
▁listesi	-11.3668
▁toko	-11.3668
▁fuga	-11.367
▁kubierta	-11.367
▁rompe	-11.3672
▁poca	-11.3673
layarak	-11.3674
mışım	-11.3674
▁geceyi	-11.3675
amayacak	-11.3677
arse	-11.368
▁çaldı	-11.368
isi	-11.368
▁rara	-11.3683
▁ölüyor	-11.3684
▁aşkın	-11.3686
ğım	-11.369
ple	-11.3691
▁bata	-11.3691
▁yazdım	-11.3694
▁teknisyen	-11.3695
▁aviso	-11.3696
▁emosionante	-11.3698
▁sözleri	-11.3699
▁nasido	-11.3701
▁şüpheli	-11.3702
▁informa	-11.3702
ıyorlar	-11.3703
▁hükümeti	-11.3704
▁institusion	-11.3705
▁enkantador	-11.3705
▁kule	-11.3706
ınızı	-11.3706
▁güvenliği	-11.3706
▁melda	-11.3707
▁motivos	-11.3708
tsu	-11.3709
▁edersiniz	-11.3709
▁canımı	-11.371
▁agalo	-11.3711
▁etmiyorum	-11.3711
▁tabanca	-11.3713
nada	-11.3713
▁savaştan	-11.3714
▁distintos	-11.3714
▁yönetimi	-11.3715
▁demandamos	-11.3716
dis	-11.3717
▁elektrisita	-11.3717
▁kimsin	-11.3718
▁gadrias	-11.372
▁carta	-11.3721
lıyım	-11.3722
▁yazılı	-11.3726
▁ağı	-11.3728
▁giador	-11.373
▁yaşamın	-11.373
▁serrado	-11.373
▁duy	-11.3731
▁arabe	-11.3731
▁büyükanne	-11.3731
▁testigos	-11.3732
▁kable	-11.3733
▁vinido	-11.3735
▁korrekta	-11.3736
itas	-11.3736
▁kedese	-11.3738
▁hayran	-11.3738
▁kontene	-11.3739
▁öldüreceğim	-11.374
▁komutanı	-11.3746
▁israel	-11.3747
▁basado	-11.3748
▁literalmente	-11.375
▁instante	-11.3751
▁implika	-11.3752
▁yollar	-11.3753
▁koneksion	-11.3754
nsanları	-11.3755
▁çalışmalar	-11.3755
▁pul	-11.3757
▁espejo	-11.3757
▁komuta	-11.3761
▁bakarsanız	-11.3762
▁tartış	-11.3762
▁maaş	-11.3765
▁hesabı	-11.3767
▁demostra	-11.3767
▁eskalera	-11.3768
▁resive	-11.3769
▁fuentes	-11.3769
▁gerekmiyor	-11.377
fodr	-11.3771
▁investigar	-11.3774
▁savria	-11.3777
▁tanışmak	-11.3778
▁bla	-11.3778
▁kostumbre	-11.378
gna	-11.3782
▁getiriyor	-11.3783
▁eslavos	-11.3784
▁oynar	-11.3784
▁hatırlamıyorum	-11.3784
▁rancho	-11.3786
▁prezenta	-11.3786
chu	-11.3789
ngo	-11.3789
▁olabilirsiniz	-11.3789
▁metodos	-11.3794
▁deshado	-11.3797
ius	-11.3797
mme	-11.3798
yacağız	-11.3799
madı	-11.3802
▁gro	-11.3808
▁eskuza	-11.3812
▁mirad	-11.3812
▁bodre	-11.3813
lenen	-11.3815
▁juventud	-11.3816
▁sovietika	-11.3817
▁yöntemi	-11.3817
▁tasa	-11.3818
▁piezas	-11.382
▁andre	-11.3821
eks	-11.3822
▁pasharos	-11.3823
▁eliminar	-11.3826
▁martha	-11.3829
tam	-11.3831
cik	-11.3831
▁partisipar	-11.3831
▁konfia	-11.3834
▁kitaplar	-11.3835
▁promesa	-11.3835
▁alemana	-11.3836
▁şansın	-11.3838
▁önemlidir	-11.384
▁bağış	-11.3845
▁diversion	-11.3845
▁yetki	-11.3846
▁ultimas	-11.3849
▁cesedi	-11.3849
▁promedio	-11.3849
▁taşıma	-11.385
▁topluluk	-11.385
▁bakım	-11.3852
▁emirleri	-11.3852
▁vitesh	-11.3852
▁ocsidental	-11.3853
▁shin	-11.3855
cia	-11.3856
▁sözleşme	-11.3857
▁espozorio	-11.3858
▁treni	-11.3858
▁prometi	-11.3858
▁içinden	-11.3859
▁yavaşça	-11.3862
▁söylediğini	-11.3864
▁bruno	-11.3865
▁karen	-11.3871
del	-11.3871
▁enkargo	-11.3872
▁konsege	-11.3873
▁mecbur	-11.3874
ula	-11.3874
▁kokain	-11.3874
▁günleri	-11.3876
▁salta	-11.3876
aria	-11.3885
▁deri	-11.3885
▁iamos	-11.3886
▁tuzak	-11.3887
▁öldürdün	-11.3887
ther	-11.3889
▁deseos	-11.3893
▁solitario	-11.3894
▁maldichos	-11.3896
▁toro	-11.3897
▁aktua	-11.3897
▁detalyo	-11.3898
▁olvidado	-11.3902
▁toplu	-11.3907
▁gittik	-11.391
nar	-11.3911
▁bekliyorsun	-11.3913
▁oportunidades	-11.3914
▁bot	-11.3914
lenir	-11.3917
▁kortijo	-11.3917
▁eskondido	-11.3919
▁konuşan	-11.3919
▁başlıyoruz	-11.392
▁salan	-11.392
▁ayudante	-11.3921
mesine	-11.3922
▁öğlen	-11.3924
▁elimi	-11.3924
▁yaparsın	-11.3927
▁enganyar	-11.3927
▁bahsediyorsun	-11.3928
▁cidden	-11.3928
▁insana	-11.3931
▁atom	-11.3933
▁administrasion	-11.3937
▁yardımcısı	-11.3942
▁tropikal	-11.3943
▁diyorsunuz	-11.3945
▁yıldızı	-11.3945
▁hapiste	-11.395
etti	-11.395
▁bovedad	-11.3951
▁toplumun	-11.3952
▁duymadım	-11.3953
▁bıktım	-11.3953
▁babamı	-11.3953
uri	-11.3953
likten	-11.3954
▁bulmuş	-11.3954
▁almıştır	-11.3956
ıyla	-11.3957
▁polonya	-11.3958
▁bre	-11.3958
▁işle	-11.3958
▁prisionero	-11.396
▁urdjente	-11.396
able	-11.396
▁inek	-11.3961
▁rosa	-11.3961
▁afganistan	-11.3961
▁howard	-11.3961
▁zamanımız	-11.3965
▁haberleri	-11.3965
▁dönmüş	-11.3969
▁kaybettik	-11.3969
▁interna	-11.3971
▁birbirlerine	-11.3974
▁dönelim	-11.3974
▁konuşacağım	-11.398
▁çalıyor	-11.398
▁öldürür	-11.3981
▁esrar	-11.3986
▁savesh	-11.3987
▁nuclear	-11.3988
▁salen	-11.3993
▁birisin	-11.3995
▁ticari	-11.3995
▁yaşamaya	-11.3997
▁nesesidades	-11.3997
▁biriyim	-11.3997
▁edebiliriz	-11.4
▁god	-11.4001
▁uvyeras	-11.4005
▁yaklaşım	-11.4006
▁deskuvryo	-11.4006
miyorum	-11.4009
▁amariyo	-11.4009
▁randevu	-11.4011
lıyorum	-11.4011
▁spa	-11.4017
▁rusos	-11.4018
▁manga	-11.4021
▁elizabeth	-11.4022
ire	-11.4022
▁insanlardan	-11.4022
▁derken	-11.4023
▁militares	-11.4024
▁desente	-11.4025
▁kalkma	-11.4029
▁anlar	-11.4029
▁aprendizaje	-11.4029
▁otomatik	-11.4029
line	-11.403
▁siertamente	-11.4032
▁ekselansları	-11.4032
yorsun	-11.4033
▁arkadaşlarım	-11.4034
▁vueltas	-11.4036
▁topado	-11.4037
sviçre	-11.4037
▁çıkarır	-11.4038
▁komşu	-11.4038
▁kullanan	-11.4041
▁iran	-11.4041
▁betty	-11.4041
▁kurul	-11.4041
▁evlendi	-11.4043
▁zorlu	-11.4044
▁tara	-11.4045
▁gozar	-11.4046
▁way	-11.4047
gun	-11.4047
▁deshando	-11.4047
▁aramak	-11.4049
▁unuttun	-11.405
▁suele	-11.4052
▁başlat	-11.4052
▁kompasion	-11.4053
▁latin	-11.4053
▁paraya	-11.4053
▁alarak	-11.4054
▁gelmeye	-11.4056
▁kalbi	-11.4057
ndje	-11.4057
▁diridjir	-11.4063
▁nosotras	-11.4063
▁kayentura	-11.4063
▁ekipos	-11.4063
▁gördüğün	-11.4064
▁yamadas	-11.4064
emezsin	-11.4065
▁bilgileri	-11.4066
▁artistos	-11.4072
▁pozitivo	-11.4073
▁fantasma	-11.4073
▁öğrenciler	-11.4073
ant	-11.4077
▁kendinden	-11.4077
▁aşağılık	-11.4079
▁aunar	-11.4084
▁tornamos	-11.4086
osa	-11.4087
▁profundamente	-11.4087
▁pearl	-11.4088
▁solombra	-11.4089
▁sessizlik	-11.4093
▁espesiales	-11.4097
▁günden	-11.4098
▁mesajı	-11.41
▁trasero	-11.41
▁konuşur	-11.41
▁görünüyordu	-11.4101
▁çalışıyordum	-11.4102
gg	-11.4102
▁götürecek	-11.4103
▁matematik	-11.4103
▁tanrının	-11.4106
pto	-11.4107
ef	-11.4111
▁gözü	-11.4111
▁akusado	-11.4112
▁truo	-11.4115
▁ilet	-11.4117
▁nasa	-11.4118
▁djen	-11.4119
▁saint	-11.4122
▁kane	-11.4123
▁ruta	-11.4126
▁hepsinin	-11.4126
▁imadjinen	-11.4126
▁fan	-11.413
▁efektivo	-11.4132
▁albüm	-11.4133
▁kamaretaes	-11.4135
▁göreceksiniz	-11.4135
▁organizasiones	-11.4136
▁dra	-11.4137
▁aldılar	-11.4137
▁hikayesi	-11.4137
▁ediliyor	-11.4138
dikleri	-11.4139
▁gelsin	-11.414
▁kompetensia	-11.4141
▁dakikada	-11.4142
ilebilir	-11.4145
▁alegre	-11.4146
sol	-11.4148
▁imadjina	-11.4149
▁apareser	-11.4152
▁büyüleyici	-11.4155
▁boyun	-11.4155
▁tüfek	-11.4161
▁dinleme	-11.4161
▁emosion	-11.4162
▁pasaria	-11.4165
▁molesto	-11.4166
▁fuelo	-11.4168
▁gayna	-11.4174
▁çalışması	-11.4174
▁dedika	-11.4175
▁edersen	-11.4175
▁sevdiğini	-11.4175
▁sekundaria	-11.4178
▁bagaje	-11.4179
lginç	-11.4181
▁romantik	-11.4182
▁projesi	-11.4182
▁riske	-11.4182
▁aldığım	-11.4182
stein	-11.4183
▁matates	-11.4188
▁konstruido	-11.4189
▁sotano	-11.419
▁papaz	-11.4193
▁pratik	-11.4197
▁sonrisa	-11.4201
dıkları	-11.4201
▁azerias	-11.4202
▁çıkalım	-11.4203
▁profesion	-11.4204
uer	-11.4205
▁yüzyılda	-11.4206
▁kabron	-11.4206
▁tengamos	-11.4209
▁indio	-11.4209
gor	-11.4211
▁cm	-11.4212
▁mostro	-11.4213
▁grant	-11.4215
▁karşılaşma	-11.4215
tikos	-11.4215
▁şampiyon	-11.4218
▁gönderme	-11.422
▁pasajeros	-11.422
ral	-11.4226
▁kolegos	-11.4229
▁lavori	-11.423
bak	-11.423
▁tutuyor	-11.4231
▁kaydı	-11.4232
▁tomen	-11.4234
▁sağla	-11.4237
▁tanımıyorum	-11.4237
▁başlayacak	-11.4239
▁düşünmüyor	-11.424
▁önde	-11.4241
▁kobra	-11.4242
▁extranyos	-11.4242
▁demiştin	-11.4244
▁raf	-11.4246
▁buyrun	-11.4247
▁nasimiento	-11.4247
▁eğlen	-11.4248
▁görmemiştim	-11.4249
▁emily	-11.425
▁evime	-11.425
rle	-11.4251
▁olvidalo	-11.4251
▁kolorados	-11.4251
dle	-11.4253
▁joseph	-11.4256
▁aylık	-11.4256
▁guesos	-11.4257
▁reputasion	-11.4258
▁kala	-11.4263
▁çiftçi	-11.4264
▁gençler	-11.4268
▁arroz	-11.427
nti	-11.4272
▁ihtimalle	-11.4273
▁wiyiams	-11.4274
▁fraza	-11.4275
▁kamina	-11.4278
▁poderoso	-11.4281
▁kullanır	-11.4281
▁bugünkü	-11.4284
▁tanışma	-11.4285
gri	-11.4286
▁arre	-11.4288
▁hakkımda	-11.4289
▁bestia	-11.4289
▁durur	-11.4291
▁düşer	-11.4293
▁aktiva	-11.4294
liyim	-11.4297
▁bulabilir	-11.4299
▁boşver	-11.4301
▁bakanı	-11.4302
dado	-11.4304
▁sigaro	-11.4304
▁saldır	-11.4304
tivos	-11.4308
▁hastanede	-11.4308
▁katta	-11.4309
▁limites	-11.4309
▁aktitud	-11.4309
▁görünmüyor	-11.431
▁muertes	-11.4313
▁kong	-11.4314
▁arrimar	-11.4316
▁ölümcül	-11.4316
▁rovo	-11.4317
▁ferida	-11.4318
▁orasion	-11.4324
▁kokusu	-11.4326
▁invita	-11.4327
rs	-11.4331
▁renkli	-11.4332
▁golpear	-11.4332
▁egzamen	-11.4333
▁götüreceğim	-11.4333
▁olmayabilir	-11.4338
▁periodista	-11.4339
▁vidro	-11.4339
▁apple	-11.434
▁siguyo	-11.434
▁enganyo	-11.434
▁ağzını	-11.4341
▁öldüren	-11.4345
▁djestion	-11.4347
▁empesaron	-11.4347
▁öylesine	-11.4354
▁otuz	-11.4354
▁klasik	-11.4356
▁yerro	-11.4357
▁amava	-11.4358
▁patates	-11.4365
▁fal	-11.4366
▁desapareser	-11.4366
▁dönerim	-11.4366
▁abilidad	-11.4367
▁götürmek	-11.4367
▁doku	-11.4369
▁lento	-11.437
▁jenerozo	-11.437
▁tecnologias	-11.4371
iye	-11.4372
▁planetas	-11.4372
▁özelliği	-11.4374
▁türkiye	-11.4375
▁bağışlayın	-11.4375
▁almayı	-11.4379
▁kompanyias	-11.438
▁güne	-11.4382
nga	-11.4385
▁vegas	-11.4386
▁performans	-11.4386
sunu	-11.4387
▁abashe	-11.4387
▁ayda	-11.4388
seydim	-11.4388
▁sipariş	-11.439
▁hâle	-11.4395
▁preokuparse	-11.4396
cü	-11.4398
▁yatıyor	-11.4398
▁chicolata	-11.4398
▁düşünür	-11.4399
▁maçı	-11.44
bol	-11.4404
▁edilme	-11.4404
▁geçip	-11.4405
▁kristo	-11.4405
▁döneminde	-11.4407
▁zu	-11.4407
ebiliyor	-11.4409
▁üstesinden	-11.441
▁etkileyici	-11.441
▁uzağa	-11.4411
▁yetecek	-11.4411
▁yaşamı	-11.4412
▁evrim	-11.4413
▁sarah	-11.4416
▁babasının	-11.4416
▁konuştuk	-11.4419
▁peska	-11.442
▁gündür	-11.4423
▁praktikamente	-11.4424
▁cehennem	-11.4425
▁istiyordu	-11.4425
▁bakıp	-11.4427
ite	-11.4427
▁feo	-11.4429
▁eksperiensias	-11.443
▁alimentar	-11.4433
▁onca	-11.4433
▁ruhu	-11.4434
▁edilecek	-11.4434
ig	-11.4436
ab	-11.4437
▁gemide	-11.4439
▁duyduğum	-11.444
▁atları	-11.4441
▁aventura	-11.4442
▁irak	-11.4443
▁inklue	-11.4444
▁mentiras	-11.4448
▁letra	-11.4451
▁yapabileceğimiz	-11.4451
▁keyif	-11.4456
▁affedersin	-11.4457
▁komisyon	-11.4457
▁getirecek	-11.4458
▁gitmedi	-11.4458
▁gemiyi	-11.446
▁sezar	-11.4461
diğinde	-11.4461
▁tavşan	-11.4461
▁traision	-11.4461
▁fayo	-11.4462
▁kapıya	-11.4465
▁entrevista	-11.4465
▁taşıyor	-11.4466
▁komünist	-11.4468
▁desafio	-11.4469
▁sentimiento	-11.4469
lanabilir	-11.4472
▁süreç	-11.4474
▁sarışın	-11.4475
▁istemiştim	-11.4476
▁bahsetti	-11.4476
▁şükür	-11.4477
▁olmaları	-11.4478
yani	-11.448
car	-11.4481
▁mağaza	-11.4481
▁sinyifikasion	-11.4482
▁akaban	-11.4484
▁isyan	-11.4485
ndome	-11.4485
▁alice	-11.4487
▁aklına	-11.4487
vin	-11.4487
gue	-11.449
▁vol	-11.4492
▁pata	-11.4494
▁kuvvet	-11.4496
ikas	-11.4497
▁filan	-11.4499
▁amiral	-11.4502
▁etmesini	-11.4503
▁bizzat	-11.4505
▁sevmiyor	-11.4506
▁vaktim	-11.4507
▁gidiyorsunuz	-11.4507
tasion	-11.4508
▁benzeri	-11.451
jar	-11.4513
zan	-11.4514
▁izi	-11.4515
▁yemeğini	-11.4517
▁fran	-11.4519
▁uy	-11.4519
▁şansım	-11.452
▁tanıdık	-11.4523
nla	-11.4524
▁sırrı	-11.4524
rte	-11.4525
yiyim	-11.4527
▁kos	-11.4533
▁bölümünde	-11.4535
▁hazine	-11.4538
▁olabileceği	-11.4538
diğimiz	-11.4538
▁üzücü	-11.4541
▁kafasını	-11.4548
▁saray	-11.4551
▁hakaret	-11.4553
▁geminin	-11.4554
▁kiminle	-11.4556
ılabilir	-11.4556
▁aralarında	-11.456
▁owadr	-11.4561
sch	-11.4563
▁umurunda	-11.4564
▁iniş	-11.4569
▁metan	-11.4571
▁arkada	-11.4571
▁inanır	-11.4574
▁sonny	-11.4575
▁superar	-11.4575
▁duş	-11.4576
ones	-11.4576
▁muryendo	-11.4576
▁influensa	-11.4577
▁dök	-11.4579
▁invitado	-11.4582
▁değiştirdi	-11.4583
▁silahını	-11.4584
▁kadınlara	-11.4585
▁etmedi	-11.4586
▁olacaksınız	-11.4588
▁levantate	-11.459
▁kimlik	-11.4593
▁kasar	-11.4595
▁kok	-11.4595
ince	-11.4595
▁öyledir	-11.4596
▁lovo	-11.4596
▁demokrasi	-11.4597
▁kontinuo	-11.46
▁elegante	-11.4601
yarak	-11.4601
▁mekan	-11.4606
▁tareas	-11.4607
▁yaşıyorum	-11.4608
müzik	-11.4608
rus	-11.4609
▁problemi	-11.4609
▁kusursuz	-11.4612
▁kokuyor	-11.4613
▁prechizo	-11.4613
kus	-11.4613
saydım	-11.4614
hey	-11.4615
▁yürüyüş	-11.4617
▁djeneralmente	-11.4618
▁rekabet	-11.4619
▁esperas	-11.462
▁silahları	-11.4622
ds	-11.4622
▁kullanım	-11.4624
▁şirketler	-11.4625
▁michel	-11.4628
▁filmin	-11.463
▁pil	-11.463
▁sakat	-11.4632
▁konuşmam	-11.4635
▁warren	-11.4637
▁supongo	-11.4637
layabilir	-11.4643
▁teksto	-11.4643
▁movimienan	-11.4643
▁istersiniz	-11.4644
▁anlatma	-11.4647
▁konvertirse	-11.4648
▁metites	-11.4651
▁shu	-11.4652
▁trui	-11.4653
▁hüküm	-11.4654
▁mejora	-11.4655
▁geliyordu	-11.4658
▁ülkelerde	-11.4666
▁provoka	-11.4667
▁dosya	-11.4668
▁tecavüz	-11.467
▁puedyeron	-11.4673
▁olumlu	-11.4673
▁patruya	-11.4673
▁silahlar	-11.4674
▁kimdi	-11.4675
▁şahit	-11.4675
▁hat	-11.4676
▁reg	-11.4676
▁ivas	-11.4679
▁kuvvetli	-11.468
▁elektro	-11.4685
▁demandaron	-11.4685
▁ofisi	-11.4686
▁duyar	-11.4687
▁ekivoka	-11.4687
eli	-11.4689
lio	-11.4691
▁miydiniz	-11.4692
mparator	-11.4693
▁konfio	-11.4696
▁importalo	-11.4696
▁eskapado	-11.4696
▁buradayız	-11.4698
▁şüphesiz	-11.4698
▁donanma	-11.4699
ılıyor	-11.47
▁anton	-11.4702
▁kubrir	-11.4702
rado	-11.4704
▁sığır	-11.4704
▁desharia	-11.4705
▁paranın	-11.4706
▁arabada	-11.4707
▁egzempyos	-11.4707
▁düşüyor	-11.471
ide	-11.4712
▁giriyor	-11.4712
▁karıştır	-11.4712
▁bilinir	-11.4714
▁çalışmıyor	-11.4715
peki	-11.4716
▁gizemli	-11.4716
▁sürecek	-11.4718
▁çağ	-11.4718
▁baker	-11.472
▁fonksiones	-11.4721
▁temas	-11.4722
▁naci	-11.4723
▁eskaleras	-11.4725
▁dormido	-11.4733
▁yapılır	-11.4734
▁hapis	-11.4735
▁burun	-11.4736
▁durumun	-11.4739
lerimizin	-11.474
▁ücret	-11.474
▁üçte	-11.474
▁emredersiniz	-11.4741
▁arkadaşları	-11.4742
▁bushkava	-11.4747
▁gittiler	-11.4748
▁fassinante	-11.4748
▁hiçbirşey	-11.4748
▁matarlo	-11.4748
nza	-11.4755
lli	-11.4756
▁dükkanı	-11.4756
▁estratedjia	-11.4756
▁dispositivo	-11.4759
▁tire	-11.4761
▁korta	-11.4762
▁yapmalıyız	-11.4762
ung	-11.4762
mışlar	-11.4763
▁sanayi	-11.4764
▁abilidades	-11.4765
stan	-11.4767
▁konteksto	-11.477
▁mushos	-11.477
▁oyunları	-11.477
▁hazlo	-11.4771
bit	-11.4773
▁sıradaki	-11.4773
▁kredito	-11.4774
ston	-11.4775
▁düşündü	-11.4779
ebileceğini	-11.4783
▁kırık	-11.4783
▁mali	-11.4784
▁pesa	-11.4784
emeyecek	-11.4785
▁sınırlı	-11.4786
▁temizle	-11.4787
▁hatırladın	-11.4787
▁kaybol	-11.4787
ncil	-11.4788
▁siguan	-11.4789
manı	-11.4789
▁puedimos	-11.4789
▁fikirler	-11.4789
▁söylediğin	-11.4791
▁nervios	-11.4793
▁mani	-11.4795
▁naturales	-11.4796
▁komplejo	-11.4796
▁seninki	-11.4796
▁okumak	-11.4798
▁ermanas	-11.4798
▁hissi	-11.4801
.''	-11.4806
▁istedikleri	-11.4806
dığımı	-11.4806
▁suisidio	-11.4806
▁dinler	-11.4806
▁sıcaklık	-11.4807
▁djoyas	-11.4809
▁dolaş	-11.4809
ion	-11.4809
sten	-11.481
▁gitmeden	-11.4813
▁tutan	-11.4815
▁pantolon	-11.4816
▁kole	-11.4817
sk	-11.4817
▁lanzamiento	-11.482
▁madrid	-11.4821
▁alıcı	-11.4823
▁jüri	-11.4825
dığında	-11.4825
▁tebrikler	-11.4828
▁izlemek	-11.4828
▁fincan	-11.4831
▁enteresoes	-11.4835
▁respirar	-11.4835
▁akıllıca	-11.4836
lerdeki	-11.4836
▁vermez	-11.4838
▁almaz	-11.4838
▁cadı	-11.484
▁ekspertos	-11.4841
ılmıştır	-11.4841
▁durumlarda	-11.4843
▁ahi	-11.4844
süz	-11.4846
▁yaklaşıyor	-11.4849
amazsınız	-11.485
▁vinyera	-11.485
▁kanto	-11.485
▁sefere	-11.485
▁adres	-11.4852
▁durar	-11.4852
▁dekadas	-11.4852
▁aguas	-11.4853
▁betahayim	-11.4856
▁öpücük	-11.4856
▁vende	-11.4856
▁beşinci	-11.4856
▁bart	-11.4857
▁görmeyi	-11.4858
▁visual	-11.4859
▁diferensyas	-11.486
▁sonucunda	-11.4863
ramos	-11.4863
cak	-11.4864
▁ulaşmak	-11.4866
▁avryo	-11.4868
▁ventanas	-11.4868
▁kimikos	-11.487
▁yönetmen	-11.4876
▁türk	-11.4878
▁golpea	-11.4878
▁buyur	-11.4879
▁heyecanlı	-11.4879
▁kut	-11.4881
▁açıkçası	-11.4884
▁arıyorsun	-11.4884
▁avlarle	-11.4885
▁ispat	-11.4887
sus	-11.4888
▁walker	-11.4893
▁hattı	-11.4894
▁çorba	-11.4894
▁suave	-11.4895
rie	-11.4896
▁enkuentro	-11.4896
▁oluyorum	-11.4896
▁yanıma	-11.49
▁oyan	-11.4901
▁göç	-11.4903
▁icin	-11.4904
▁permiten	-11.4904
▁autentiko	-11.4905
nto	-11.4906
çeride	-11.4907
▁mıydın	-11.4908
kes	-11.4908
▁up	-11.4909
▁birincisi	-11.4913
laşma	-11.4914
▁trua	-11.4915
▁sıvı	-11.4915
▁separar	-11.4916
▁ortam	-11.4918
layacağım	-11.492
▁organisar	-11.492
▁duymuş	-11.4921
▁alacaksın	-11.4921
ağa	-11.4923
▁oyunun	-11.4924
kı	-11.4928
▁sandviç	-11.493
▁victor	-11.493
▁kaçak	-11.4931
zy	-11.4931
▁novle	-11.4933
madın	-11.4933
▁zekâ	-11.4934
▁sentros	-11.4935
▁fransezes	-11.4936
▁damla	-11.4936
▁roket	-11.4938
▁olmadığına	-11.4941
▁ep	-11.4941
▁fondos	-11.4941
▁çıktım	-11.4941
▁senaryo	-11.4943
▁bulup	-11.4943
▁tamamdır	-11.4946
▁kötülük	-11.4948
▁sınırı	-11.4948
▁duman	-11.4948
▁keriamos	-11.4948
▁düşen	-11.4949
▁ancho	-11.4949
nizde	-11.4953
▁fizik	-11.4954
▁kilos	-11.4954
▁amerikalılar	-11.4955
▁demonio	-11.4957
▁tadını	-11.4957
▁durup	-11.4958
▁sırt	-11.4959
▁kurdu	-11.4962
tando	-11.4962
▁pedroname	-11.4967
▁misterio	-11.4967
▁starbuck	-11.4967
▁raymond	-11.4967
▁aumenta	-11.4967
▁ağız	-11.4971
▁resistir	-11.4971
▁kimika	-11.4974
▁bekliyordum	-11.4975
▁jun	-11.4975
▁operasiones	-11.4981
▁ressam	-11.4984
djia	-11.4985
▁voses	-11.4985
az	-11.4988
▁piedras	-11.4988
ity	-11.4988
▁etmiştim	-11.4989
▁yöne	-11.499
▁nano	-11.4991
▁af	-11.4993
▁çoğunu	-11.4993
▁sevmiyorum	-11.4994
▁deskonosido	-11.4994
▁taşıyan	-11.4994
▁başlayan	-11.4995
▁sinta	-11.4996
▁gideriz	-11.4997
▁konvensido	-11.5001
ledi	-11.5003
▁süreci	-11.5004
▁robots	-11.5004
▁ötürü	-11.5004
▁telegrama	-11.5004
▁sevmem	-11.5006
▁nubes	-11.5006
▁movimientos	-11.5007
lat	-11.5007
ington	-11.501
▁gördüğümde	-11.5011
sınlar	-11.5012
▁şeyle	-11.5012
▁leke	-11.5015
▁pika	-11.5016
▁öğretti	-11.5017
▁bovos	-11.5017
uma	-11.5017
▁efendimiz	-11.5017
▁etrafı	-11.5019
ring	-11.502
▁devriye	-11.502
▁evrenin	-11.5023
▁esir	-11.5023
renim	-11.5027
▁anında	-11.5027
▁salimos	-11.5027
▁teker	-11.5029
▁normas	-11.5029
▁alışveriş	-11.5033
▁presta	-11.5036
▁ios	-11.5037
▁maestra	-11.5042
▁roka	-11.5043
▁doktorlar	-11.5045
▁rob	-11.5046
▁oskar	-11.5046
eme	-11.5047
▁götürdü	-11.5048
▁kocan	-11.5048
kli	-11.5049
▁bırakalım	-11.5049
▁bakteri	-11.5052
çünkü	-11.5054
▁kreado	-11.5056
▁göreceğiz	-11.5056
▁eksperto	-11.5057
pas	-11.5058
▁plastiko	-11.5059
▁altından	-11.5059
▁komunes	-11.506
▁kaida	-11.506
▁estes	-11.5062
rlanda	-11.5065
▁komenzi	-11.5068
▁atlar	-11.5068
▁denizci	-11.5071
▁edision	-11.5073
▁misafir	-11.5074
▁grita	-11.5075
▁etmeden	-11.5076
▁getirdin	-11.5077
▁oluşur	-11.5077
▁sebastian	-11.508
▁software	-11.508
▁seviyorsun	-11.5081
▁okupa	-11.5081
▁konssiente	-11.5083
▁green	-11.5085
▁kalmayacak	-11.5086
▁apunta	-11.5086
▁cennet	-11.5088
▁profil	-11.5093
▁venganza	-11.5094
▁istemedi	-11.5095
▁sırası	-11.5095
▁moneda	-11.5095
▁ventaja	-11.5096
▁geliştirme	-11.5096
▁denemek	-11.5097
cal	-11.5098
▁yevando	-11.5099
▁dikkate	-11.5102
▁referes	-11.5102
▁eskonder	-11.5104
▁medianoche	-11.5105
▁konduktor	-11.5105
bur	-11.5106
▁nota	-11.5106
▁işleme	-11.5107
▁ayarla	-11.5108
▁kızların	-11.5108
▁virdjen	-11.511
▁asosiasion	-11.5111
▁askeroso	-11.5111
▁bekliyoruz	-11.5111
▁buluşma	-11.5111
meliydim	-11.5111
▁deriva	-11.5113
▁sobre	-11.5115
▁intelijentes	-11.5116
▁noktaya	-11.5116
▁partikulas	-11.5117
▁lojika	-11.5117
▁denizaltı	-11.5118
nov	-11.5118
cılar	-11.5118
▁işareti	-11.5122
▁geçmişte	-11.5124
▁aplikasion	-11.5124
▁tersero	-11.5126
▁keskin	-11.5127
▁işimi	-11.5128
yas	-11.5129
sor	-11.513
yorum	-11.5131
▁alacağız	-11.5133
▁by	-11.5133
▁kurma	-11.5134
▁gezi	-11.5138
▁mesurar	-11.5138
▁kullandığı	-11.514
▁vidjila	-11.514
▁fırlat	-11.5141
▁olabilirler	-11.5143
▁ex	-11.5143
eya	-11.5145
▁elveda	-11.5146
▁kedamos	-11.5147
lemek	-11.515
▁yolları	-11.5151
▁elizabet	-11.5151
▁norm	-11.5154
bat	-11.5155
▁christine	-11.5156
▁umuyorum	-11.5156
▁charley	-11.5156
▁rango	-11.5158
▁ladrones	-11.5158
▁evim	-11.5166
▁bezar	-11.5167
▁yegada	-11.5168
▁eksperimentos	-11.517
▁açlıktan	-11.517
▁fiyatı	-11.5171
▁yaşar	-11.5172
▁yenos	-11.5175
▁kalacaksın	-11.5178
▁etmedim	-11.5179
art	-11.518
▁radiasion	-11.5181
▁universal	-11.5181
aki	-11.5182
▁akademia	-11.5183
ase	-11.5183
▁komputadoras	-11.5184
▁akseptar	-11.5184
▁tanıştım	-11.5185
▁sahi	-11.5186
▁servisi	-11.5186
▁kaçmak	-11.5186
▁elektrika	-11.5188
▁uçan	-11.5189
▁bilmez	-11.5192
rry	-11.5199
▁tankes	-11.5199
▁ahmak	-11.5202
▁baktı	-11.5204
▁bru	-11.5204
▁tornas	-11.5205
kü	-11.5206
irim	-11.5206
▁brasil	-11.5207
▁yüzyılın	-11.5207
▁sonradan	-11.5207
▁telefonda	-11.5207
▁observa	-11.5208
▁salo	-11.5209
▁champan	-11.5211
▁meslek	-11.5213
▁parker	-11.5213
▁kopar	-11.5215
klarını	-11.5216
▁cla	-11.5217
▁telsiz	-11.5218
▁puan	-11.5222
▁sınırları	-11.5222
ray	-11.5222
▁estima	-11.5222
▁verileri	-11.5223
▁antojos	-11.5223
▁vendria	-11.5224
▁veneno	-11.5224
▁aklı	-11.5224
▁olurlar	-11.5225
▁makinesi	-11.5226
▁entenden	-11.5226
▁pares	-11.5229
▁öykü	-11.5229
▁yaşadı	-11.5229
▁similares	-11.5229
▁olacaklar	-11.5232
▁kriaturas	-11.5232
▁geliyorsun	-11.5232
▁comodo	-11.5233
▁ani	-11.5235
▁dediğin	-11.5237
▁privada	-11.5239
amente	-11.5243
▁kostar	-11.5243
▁obvio	-11.5245
▁tünel	-11.5245
▁enyego	-11.5245
▁yemeğine	-11.5245
▁marty	-11.5246
▁lagrimas	-11.5249
▁estandar	-11.5249
▁asalto	-11.525
▁kolina	-11.525
▁vidjilar	-11.525
▁altos	-11.5252
▁yönetici	-11.5252
▁riski	-11.5253
▁aşağıdaki	-11.5255
▁terror	-11.5256
▁şiddetli	-11.526
▁perra	-11.526
▁izleri	-11.5261
▁artikolos	-11.5263
▁kalanı	-11.5264
▁balas	-11.5265
▁neymiş	-11.5265
▁barra	-11.527
▁asentarse	-11.527
▁ejekusion	-11.527
▁mentiroso	-11.527
▁ayna	-11.527
▁seka	-11.5272
▁bolso	-11.5272
▁kri	-11.5272
▁teşhis	-11.5274
▁alana	-11.5275
▁çete	-11.5275
▁trenta	-11.5275
more	-11.5277
▁altını	-11.5278
▁nesil	-11.528
▁katerine	-11.5283
▁melek	-11.5283
▁kamarada	-11.5284
▁savian	-11.5284
▁kandır	-11.5286
▁kültürel	-11.5286
▁asasinos	-11.5287
▁ormanda	-11.529
▁asero	-11.529
▁amplia	-11.529
▁hızı	-11.5291
▁seferinde	-11.5295
▁kuras	-11.5296
▁arayıp	-11.5297
▁keran	-11.5299
▁rifle	-11.5302
▁ihtimali	-11.5302
▁epi	-11.5302
▁selecsion	-11.5304
ep	-11.5305
▁ağacı	-11.5306
abilen	-11.5308
▁konosyo	-11.5309
▁mah	-11.531
▁inchar	-11.5312
▁ag	-11.5312
▁seko	-11.5312
▁usd	-11.5312
▁aerea	-11.5313
▁yaşta	-11.5314
kul	-11.5314
▁yaşıyoruz	-11.5314
▁ölüme	-11.5316
▁empiegados	-11.5319
▁absudro	-11.5322
▁değiştirir	-11.5323
▁ayegado	-11.5324
lâ	-11.5324
▁blake	-11.5324
▁kötüsü	-11.5325
mm	-11.5327
▁kendisinin	-11.5328
▁sivilizasion	-11.5328
▁blue	-11.533
▁roto	-11.5331
▁imperial	-11.5335
▁çıkmaz	-11.5335
▁canlandır	-11.5335
▁dansçı	-11.5335
▁diridjida	-11.5336
▁kongreso	-11.5336
▁personales	-11.5338
▁boşuna	-11.5338
lerindeki	-11.5338
mıştık	-11.534
stersen	-11.5343
▁etmekten	-11.5343
▁tesadüf	-11.5344
▁konduze	-11.535
▁konsekuensa	-11.5352
▁sinyatura	-11.5352
▁vermeyeceğim	-11.5355
▁hisse	-11.536
▁işlerini	-11.5361
▁kulübe	-11.5362
▁simples	-11.5362
▁akorda	-11.5363
ifika	-11.5364
▁kritika	-11.5365
▁katılma	-11.5365
▁becer	-11.5365
▁ned	-11.5366
▁soygun	-11.5367
▁tose	-11.5367
nüz	-11.5369
▁rye	-11.537
▁brooklyn	-11.5373
▁island	-11.5374
▁paredes	-11.5374
▁col	-11.5375
▁judy	-11.5375
▁sorunlar	-11.5375
▁darse	-11.5376
lamış	-11.5377
▁mari	-11.5377
▁egzersis	-11.5378
▁aumentar	-11.5378
▁yetenek	-11.5379
▁kom	-11.5383
cy	-11.5386
▁destrucsion	-11.5386
▁sesler	-11.5387
▁gastos	-11.5387
▁salyendo	-11.5388
▁josep	-11.5389
▁bugüne	-11.5391
▁serian	-11.5393
▁irene	-11.5394
▁fundamental	-11.5397
▁aves	-11.5397
▁tornaria	-11.5398
▁publisidad	-11.5399
▁kafası	-11.5399
kendi	-11.5401
▁ulaştı	-11.5402
▁yön	-11.5404
▁espri	-11.5405
▁indjenieria	-11.5406
▁will	-11.5406
▁gy	-11.5407
▁nobel	-11.5407
▁anlamıyla	-11.5407
▁nadir	-11.5409
pon	-11.541
ivo	-11.5411
toria	-11.5411
▁oradaydı	-11.5412
▁hayatında	-11.5412
▁abandono	-11.5412
▁djaketa	-11.5412
▁kuartel	-11.5412
▁kristal	-11.5413
▁declaro	-11.5413
▁yönünde	-11.5413
kara	-11.5414
▁tuttu	-11.5414
ii	-11.5414
▁debashos	-11.5414
▁yarışı	-11.5416
▁bakarım	-11.5417
▁yevarme	-11.5419
▁senatör	-11.542
yacağını	-11.5422
▁selda	-11.5423
▁anladığım	-11.5426
▁tomaron	-11.5427
jan	-11.5427
▁mostran	-11.5428
▁motores	-11.5428
▁kargar	-11.543
▁basil	-11.5431
▁tanım	-11.5431
▁ailenin	-11.5432
▁yaratık	-11.5433
▁ekonomizar	-11.5434
▁etmelisin	-11.5434
baba	-11.5437
▁opsiones	-11.5437
▁helikopter	-11.5438
▁yazılmış	-11.544
▁asentimos	-11.544
▁interesado	-11.5443
▁atakes	-11.5445
▁olayın	-11.5445
▁böylesi	-11.5445
▁avusturya	-11.5448
▁ekivokada	-11.5448
tüm	-11.5449
▁mekical	-11.5451
▁entrenamiento	-11.5451
▁rekonosimiento	-11.5452
▁oynuyor	-11.5453
▁kuşlar	-11.5453
▁fines	-11.5457
htiyar	-11.5458
▁tedavisi	-11.5461
▁sesle	-11.5463
▁bromeando	-11.5465
▁vuestros	-11.5469
▁burnunu	-11.5469
▁bağır	-11.547
▁sevdiği	-11.5471
▁danyos	-11.5471
▁sahil	-11.5471
▁ciddiyim	-11.5471
▁toneladas	-11.5473
▁ingresos	-11.5474
▁annenin	-11.5474
ril	-11.5474
eg	-11.5476
▁kartı	-11.5477
sidir	-11.5481
nuzu	-11.5482
▁orijinal	-11.5483
taria	-11.5483
▁hazırlan	-11.5484
▁puediamos	-11.5484
▁kralın	-11.5486
▁obje	-11.5486
▁pastor	-11.5487
gh	-11.549
▁alternatif	-11.5491
▁odaklan	-11.5491
▁dissiplina	-11.5491
▁kadarı	-11.5494
bla	-11.5494
▁bahsetme	-11.5495
▁aganta	-11.5498
▁vic	-11.55
▁çağrı	-11.5501
▁artan	-11.5501
mem	-11.5502
▁düşmüş	-11.5509
tic	-11.5509
▁gizlice	-11.5509
▁bakacağım	-11.5511
sco	-11.5513
▁fla	-11.5515
▁okaziones	-11.5515
▁fenomeno	-11.5518
▁iyisin	-11.5518
tero	-11.5518
die	-11.5519
off	-11.552
▁viajes	-11.5521
▁apuesta	-11.5522
▁ekonomika	-11.5522
▁kave	-11.5522
▁alternativa	-11.5524
mle	-11.5526
▁gezegenin	-11.553
▁ilgilendirmez	-11.5531
ise	-11.5531
▁paramı	-11.5532
▁gitmeyi	-11.5533
▁seçenek	-11.5533
▁onay	-11.5533
▁hük	-11.5534
▁görevli	-11.5535
slam	-11.5535
▁zincir	-11.5536
▁invento	-11.5537
mil	-11.5539
▁aldığını	-11.554
▁almam	-11.5543
amıyor	-11.5543
▁akuedro	-11.5543
▁açığa	-11.5543
▁okur	-11.5543
▁taklit	-11.5543
▁desidimos	-11.5544
nasıl	-11.5544
▁toparlo	-11.5544
▁ararım	-11.5544
▁ajenos	-11.5545
▁patrones	-11.5545
▁sulu	-11.5545
▁viuda	-11.5546
▁sabaha	-11.5547
▁eee	-11.5551
oka	-11.5551
▁agrada	-11.5551
▁kolunu	-11.5553
▁desteği	-11.5556
▁ekstraodrinaria	-11.5556
iza	-11.5558
▁değilmiş	-11.5559
baş	-11.5563
▁averle	-11.5564
▁opina	-11.5564
▁proba	-11.5565
▁zordur	-11.5565
▁anlatır	-11.5567
lardaki	-11.5567
idas	-11.5568
▁atraktivo	-11.557
▁vermiyor	-11.557
▁yazan	-11.5571
▁rezil	-11.5571
▁funsionan	-11.5571
▁kafanı	-11.5573
ou	-11.5573
▁araçlar	-11.5576
▁azian	-11.5576
ez	-11.5578
ucu	-11.5579
▁etsin	-11.558
▁senador	-11.5583
▁ihtimal	-11.5584
▁djenera	-11.5585
nka	-11.5586
▁polo	-11.5588
▁niyetim	-11.5591
▁paylaşmak	-11.5591
▁kre	-11.5592
▁diles	-11.5596
▁konuşuruz	-11.5598
▁duruşma	-11.5605
▁grito	-11.5607
▁öncesi	-11.5609
▁asasinado	-11.5609
▁tokio	-11.561
▁prefera	-11.561
▁europeos	-11.5614
▁live	-11.5619
anos	-11.5621
▁kaminando	-11.5625
▁despuess	-11.5626
▁lukando	-11.5626
seydi	-11.5628
lina	-11.5628
▁adekuado	-11.5628
▁aspektos	-11.5629
▁korea	-11.563
kte	-11.5631
goro	-11.5632
▁sözler	-11.5632
▁asar	-11.5634
▁akontesa	-11.5636
▁organize	-11.5636
tia	-11.5637
▁süreliğine	-11.5637
▁şarkısı	-11.564
▁mazalozo	-11.5642
▁indjeniero	-11.5642
▁dimos	-11.5642
▁ekstremo	-11.5643
▁edebilirsiniz	-11.5643
manın	-11.5643
▁yarışma	-11.5645
▁calmate	-11.5649
▁kondukta	-11.565
▁sentensia	-11.5651
▁yıldızlar	-11.5652
▁sientifika	-11.5653
▁animo	-11.5654
▁arasına	-11.5655
evi	-11.5655
▁madalya	-11.5655
ento	-11.5657
dığınız	-11.5659
▁yaka	-11.5659
▁demedim	-11.5661
lanmıştır	-11.5663
▁euro	-11.5664
▁tadı	-11.5669
▁kıl	-11.567
▁op	-11.5674
nızda	-11.5675
▁sidney	-11.5676
▁largate	-11.5677
▁dezeyaria	-11.5679
▁görünmez	-11.5682
▁yaklaşma	-11.5683
▁orayı	-11.5683
zninizle	-11.5683
▁neredesin	-11.5684
leştirme	-11.5688
ari	-11.5689
▁kullanabilir	-11.5689
▁simpatiko	-11.5689
▁düşme	-11.5692
▁vedraderamente	-11.5693
▁istemiyoruz	-11.5694
▁belaya	-11.5695
▁kulevra	-11.5696
har	-11.5696
dığın	-11.5698
▁yetmez	-11.57
▁koloni	-11.5701
▁deskansa	-11.5701
▁bölgesinde	-11.5701
▁industrial	-11.5701
▁salonu	-11.5704
▁sürüyor	-11.5704
▁seamos	-11.5705
▁etkileşim	-11.5706
▁erdi	-11.5709
▁djenerales	-11.571
▁konti	-11.571
▁gresia	-11.5716
▁konuşurken	-11.5718
▁kemik	-11.572
▁isteği	-11.5723
fen	-11.5723
▁bastadro	-11.5724
▁pretende	-11.5724
▁olmama	-11.5726
▁arkitektura	-11.573
▁presupuesto	-11.573
▁simpson	-11.573
▁kongre	-11.573
▁farkındayım	-11.5732
ladım	-11.5734
▁matando	-11.5734
▁yorando	-11.5735
▁çiçekler	-11.5736
▁tour	-11.5739
▁ettiğimiz	-11.574
▁uyuma	-11.5742
▁getireceğim	-11.5743
▁djugeves	-11.5743
▁pra	-11.5743
▁ducha	-11.5745
▁aktivo	-11.5746
▁yerleri	-11.5746
agora	-11.5747
▁konuşuyorum	-11.5748
▁ensenya	-11.575
▁alfred	-11.5751
leniyor	-11.5752
▁gau	-11.5753
▁derdin	-11.5753
saydı	-11.5755
▁kalmayı	-11.5755
▁embarazada	-11.5756
▁kömür	-11.5756
▁kaynakları	-11.5756
▁bankası	-11.576
▁inferior	-11.5763
▁povereto	-11.5763
▁dimelo	-11.5763
▁öyleydi	-11.5763
▁bugünlerde	-11.5764
▁ayar	-11.5765
▁restoran	-11.5767
▁ayegando	-11.5768
▁retiro	-11.577
▁alteza	-11.577
▁çamur	-11.5772
▁deskrivir	-11.5774
▁alise	-11.5776
▁adası	-11.5777
▁ısı	-11.5777
▁doktoru	-11.5778
▁bert	-11.5779
▁fayda	-11.5779
▁ty	-11.578
▁işgal	-11.5782
▁digan	-11.5783
▁başlamış	-11.5783
▁bivyo	-11.5783
▁yerinden	-11.5787
▁sınav	-11.5788
▁barato	-11.5792
iya	-11.5793
▁kilitli	-11.5794
▁japonezoes	-11.5796
▁suelta	-11.5796
▁oriente	-11.5797
▁keser	-11.5797
▁karvon	-11.5797
▁idiotas	-11.58
tto	-11.5812
▁şişman	-11.5813
▁üzüldüm	-11.5814
▁national	-11.5814
▁konstante	-11.5816
▁andrew	-11.5816
ure	-11.5816
▁etmenin	-11.5817
▁cirkulo	-11.5817
▁kendileri	-11.5819
▁töreni	-11.5821
▁kendimize	-11.5821
▁puedites	-11.5821
▁sahneye	-11.5824
▁özellikleri	-11.5825
▁drama	-11.5828
▁mona	-11.5828
▁subayı	-11.5829
▁desharme	-11.5831
▁aktör	-11.5832
▁pakete	-11.5833
ket	-11.5834
▁ölür	-11.5835
▁suiza	-11.5837
▁okultar	-11.5837
▁sigaros	-11.5839
▁camaras	-11.5839
▁paro	-11.5839
▁nakit	-11.584
▁devamlı	-11.5841
▁minik	-11.5841
ky	-11.5841
▁seyirci	-11.5842
▁düzeyde	-11.5843
▁olmalıydı	-11.5845
▁referensia	-11.5845
▁kolego	-11.5846
▁miel	-11.5846
▁bodrum	-11.5848
▁disenyar	-11.5848
▁defteri	-11.585
▁merkaras	-11.585
▁barba	-11.585
mekten	-11.5851
▁brezilya	-11.5851
▁funsiono	-11.5851
▁hollywood	-11.5851
▁gravedad	-11.5851
▁tina	-11.5852
▁uzo	-11.5855
▁koyu	-11.5859
▁sandy	-11.586
▁yavru	-11.5861
▁araştırmalar	-11.5863
▁mesura	-11.5864
▁almirante	-11.5865
▁metido	-11.5866
▁ste	-11.5868
▁maske	-11.5868
▁adresi	-11.587
▁inceleme	-11.5873
▁köşe	-11.5874
▁nasıldı	-11.5874
▁junior	-11.5876
leyin	-11.5876
▁bakmaya	-11.5876
büyük	-11.5877
▁dun	-11.5878
of	-11.5879
▁olmanız	-11.5881
▁etmeme	-11.5881
▁intente	-11.5884
▁olduğunun	-11.5884
▁bedava	-11.5884
wer	-11.5884
▁broadway	-11.5885
▁yaratma	-11.5886
▁fikirleri	-11.589
eb	-11.5892
▁çalışıyorlar	-11.5893
▁olmanı	-11.5894
▁ch	-11.5895
▁kıta	-11.5895
▁psiko	-11.5895
▁düşündün	-11.5896
▁hesaplama	-11.5896
▁reich	-11.5902
▁trokando	-11.5903
sson	-11.5903
nle	-11.5904
▁pokito	-11.5906
▁uğruna	-11.5906
▁aykırı	-11.5906
▁vermeyi	-11.5907
▁profesionales	-11.5907
pek	-11.5908
▁adamdı	-11.5909
layıcı	-11.591
▁sistemleri	-11.591
▁karanlıkta	-11.591
▁değişir	-11.591
▁kuruş	-11.591
acaklar	-11.5911
▁mahk	-11.5911
rma	-11.5914
▁governos	-11.5924
▁bara	-11.5927
▁biliyorlar	-11.5931
▁katy	-11.5931
▁gerekti	-11.5932
▁ref	-11.5935
▁galaksia	-11.5935
▁filmde	-11.5938
▁içecek	-11.5938
▁blok	-11.5939
▁salata	-11.5939
▁empa	-11.594
rk	-11.594
▁rovaron	-11.594
cle	-11.5942
dimos	-11.5942
chen	-11.5944
▁çikolata	-11.5944
▁kitapları	-11.5945
▁kuşku	-11.5946
▁disiplin	-11.5947
▁permita	-11.5949
▁akodren	-11.595
▁bitirme	-11.5951
▁pelota	-11.5951
▁leydi	-11.5951
▁odun	-11.5953
▁trati	-11.5953
▁plataforma	-11.5954
▁libera	-11.5956
▁alakası	-11.5956
mazdım	-11.596
▁sayede	-11.5961
▁benzemiyor	-11.5964
leyip	-11.5965
▁briya	-11.5966
▁yazılım	-11.5968
▁earl	-11.597
▁aptallık	-11.597
▁gre	-11.5971
ei	-11.5971
▁personajes	-11.5974
mba	-11.5975
hadi	-11.5977
▁igalmente	-11.5979
belki	-11.5981
▁refudjiados	-11.5981
▁mensionar	-11.5983
▁müze	-11.5984
▁kıyı	-11.5985
▁yaparlar	-11.5987
▁obstante	-11.5988
...""""	-11.5988
▁nan	-11.5989
▁siviles	-11.599
▁öldürdüm	-11.599
ag	-11.5991
▁lavoramos	-11.5992
▁kendiniz	-11.5992
▁alabilirsin	-11.5993
kat	-11.5995
▁infantil	-11.5995
yayım	-11.5995
▁clinika	-11.5996
▁desagradable	-11.5996
tina	-11.5997
▁sahnede	-11.5999
av	-11.6003
▁siertos	-11.601
lari	-11.6012
▁koloka	-11.6013
▁sade	-11.6016
▁tutku	-11.6016
▁padje	-11.6016
▁uzmanı	-11.6017
▁anlatayım	-11.6018
▁familiares	-11.6018
▁motel	-11.6018
▁gruplar	-11.6021
▁haklısınız	-11.6022
gro	-11.6022
ues	-11.6024
▁yapmadı	-11.6025
▁kurtulmak	-11.6029
▁hizmeti	-11.603
▁ignora	-11.603
▁assensor	-11.6031
▁motoru	-11.6032
▁başlangıçta	-11.6033
▁rezerva	-11.6037
▁kapitulo	-11.6037
▁salı	-11.6038
▁ikisini	-11.6038
telo	-11.6038
▁has	-11.604
▁payı	-11.6041
▁öner	-11.6041
▁gastar	-11.6041
senin	-11.6042
▁biblia	-11.6043
▁şarabı	-11.6043
▁pembe	-11.6044
▁ürünü	-11.6044
▁parayla	-11.6044
▁oluşturur	-11.6046
▁verirseniz	-11.6047
▁buldunuz	-11.6049
▁ji	-11.6049
▁zo	-11.605
▁manten	-11.6052
▁bastır	-11.6053
▁potansiyel	-11.6055
▁revolver	-11.6058
cyo	-11.6058
gado	-11.606
▁demiş	-11.606
▁rekonose	-11.606
▁oldular	-11.606
▁ronda	-11.6063
▁volando	-11.6063
ere	-11.6064
▁favorito	-11.6065
▁pişir	-11.6067
▁yeven	-11.6069
▁dondurma	-11.607
▁polonia	-11.6071
▁apareja	-11.6072
▁sufrimiento	-11.6072
▁anlayamıyorum	-11.6072
▁bushkamos	-11.6073
▁gerçekleştir	-11.6074
▁kov	-11.6076
▁faaliyet	-11.6076
▁meldando	-11.6077
▁abasha	-11.6078
▁celula	-11.6079
▁apuestas	-11.608
▁alkış	-11.6082
▁krean	-11.6084
▁boton	-11.6084
▁kokaina	-11.6085
▁acayip	-11.6085
▁movil	-11.6086
▁kolaborasion	-11.6087
▁soruyorum	-11.6088
▁puedido	-11.609
▁kanıtı	-11.6091
▁arabayla	-11.6092
▁movimienas	-11.6093
▁kayar	-11.6093
▁solusiones	-11.6093
▁moderna	-11.6094
mont	-11.6095
▁empesan	-11.6095
▁savaşçı	-11.6096
▁faydalı	-11.6098
▁detroit	-11.6099
▁şirin	-11.6099
▁demişti	-11.6104
▁matmazel	-11.6106
▁krema	-11.6106
▁aburrido	-11.6107
▁kemar	-11.6108
sita	-11.6108
kada	-11.6108
▁pintar	-11.6112
▁ulaşma	-11.6112
▁muren	-11.6114
▁pin	-11.6115
▁deside	-11.6117
sıdır	-11.6119
▁efsane	-11.612
▁aktuasion	-11.6121
▁yoksul	-11.6121
▁kashas	-11.6123
lyn	-11.6123
▁pasi	-11.6124
▁bildiği	-11.6125
▁imzala	-11.6126
▁koydu	-11.6127
▁bakacak	-11.6127
▁kapının	-11.6127
▁agnes	-11.6128
▁görebiliyorum	-11.613
▁dor	-11.613
öyle	-11.6131
▁multi	-11.6132
▁posivles	-11.6133
▁palo	-11.6133
iyorsunuz	-11.6133
▁nelson	-11.6134
▁supo	-11.6134
▁elena	-11.6136
malıydım	-11.6136
▁yazmak	-11.6137
▁dostu	-11.614
▁yedek	-11.6141
▁ac	-11.6142
▁lanza	-11.6142
▁devasa	-11.6143
▁çıkmaya	-11.6143
▁giren	-11.6145
▁hikayeyi	-11.6145
▁teklifi	-11.6146
▁transforma	-11.6146
▁aydır	-11.6146
▁aş	-11.6148
iyorlar	-11.6149
▁konflikto	-11.6149
▁komen	-11.6152
▁bisikleta	-11.6153
elo	-11.6155
▁evvel	-11.6156
▁inanmak	-11.6157
▁win	-11.6159
▁aklından	-11.6161
▁kader	-11.6162
▁öldüğü	-11.6162
▁maskara	-11.6163
▁arko	-11.6164
▁yevi	-11.6164
▁verse	-11.6164
▁mintir	-11.6165
iano	-11.6167
▁nesesarios	-11.6169
▁olumsuz	-11.6169
▁repeto	-11.6169
ilmesi	-11.6174
▁etkileri	-11.6175
▁good	-11.6175
▁innovasion	-11.6176
▁lavar	-11.618
▁pound	-11.6181
▁revisar	-11.6183
▁insiste	-11.6184
▁lastima	-11.6184
▁bulurum	-11.6186
▁adams	-11.6186
▁kalmaya	-11.6188
▁tipik	-11.6192
▁jet	-11.6192
mmer	-11.6192
▁tırman	-11.6192
▁denedim	-11.6193
▁konuştu	-11.6194
▁anlatmaya	-11.6194
▁öneri	-11.6195
▁peshkar	-11.6197
▁hallederim	-11.6198
▁gani	-11.6199
▁düşündük	-11.62
▁korusun	-11.6201
▁görmüştüm	-11.6202
▁haberim	-11.6203
▁siyahi	-11.6205
▁ring	-11.6207
▁çeviri	-11.6208
▁açmak	-11.621
▁hepimizi	-11.621
▁krese	-11.621
▁bebes	-11.6211
▁âşık	-11.6211
▁koymak	-11.6213
▁djenes	-11.6214
▁kast	-11.6214
▁alev	-11.6214
kini	-11.6215
▁miller	-11.6215
▁yevarlo	-11.6219
▁adivina	-11.622
▁pencereden	-11.622
▁açıldı	-11.622
▁tortura	-11.6222
▁kiliseye	-11.6222
▁polisin	-11.6223
▁kurallar	-11.6223
▁ekspozision	-11.6225
▁kurbağa	-11.6225
onun	-11.6226
▁otto	-11.6229
▁bıçağı	-11.6229
fin	-11.623
▁ayegates	-11.623
▁karakteristikas	-11.6231
▁aranızda	-11.6232
▁esperado	-11.6233
▁resimleri	-11.6235
▁konserva	-11.6236
▁resimler	-11.6239
▁radyasyon	-11.6239
iyordu	-11.6241
▁sendika	-11.6241
▁ırk	-11.6243
▁sesion	-11.6243
antes	-11.6244
▁organos	-11.6244
makta	-11.6244
▁kondena	-11.6245
▁anlamsız	-11.6246
▁oriental	-11.6246
▁kolu	-11.6247
▁avrian	-11.6248
▁ekspresar	-11.6248
▁kök	-11.6251
▁soruyor	-11.6251
▁demiryolu	-11.6254
▁aslın	-11.6255
my	-11.6255
▁arestar	-11.6255
▁katılmak	-11.6256
▁gelişim	-11.6257
▁gidebilirsin	-11.6257
▁işlem	-11.6259
▁lanso	-11.6259
▁onze	-11.626
▁komensaron	-11.6261
▁gideceksin	-11.6263
▁neşeli	-11.6263
▁gizar	-11.6264
▁konserto	-11.6265
▁askerleri	-11.6266
▁varım	-11.6267
rios	-11.6267
▁depresion	-11.6268
▁bahsediyorum	-11.6269
▁arkasına	-11.6272
▁sosten	-11.6275
▁etmemiz	-11.6275
▁inversion	-11.6275
▁canı	-11.6276
▁kararlı	-11.6277
▁kuruldu	-11.6279
▁aşkı	-11.6282
mpa	-11.6283
▁konsiste	-11.6285
▁çinli	-11.6288
▁ham	-11.6288
▁kıyafet	-11.6288
sy	-11.629
▁xx	-11.6291
▁traidor	-11.6291
▁sekuensia	-11.6292
▁kuento	-11.6292
jas	-11.6293
▁elektronik	-11.6295
▁reskate	-11.6296
▁gereği	-11.6298
iliyor	-11.6299
▁desnuda	-11.63
▁çelik	-11.63
mişim	-11.6301
▁beyni	-11.6305
▁djigante	-11.6305
▁verimli	-11.6305
▁memuru	-11.6309
▁divorsio	-11.631
tum	-11.6311
▁mini	-11.6315
▁publika	-11.6315
▁dizimos	-11.6315
▁başkalarının	-11.6315
▁düşünüyoruz	-11.6316
▁fotografias	-11.6317
▁evren	-11.6317
▁inkreiblemente	-11.6318
▁sepas	-11.6318
larý	-11.632
▁biyo	-11.6323
▁aşçı	-11.6324
▁orleans	-11.6324
eri	-11.6326
▁abandona	-11.6326
▁azete	-11.6329
▁anlaştık	-11.6329
▁bırakıyorum	-11.6331
▁tersine	-11.6333
▁exkusa	-11.6334
rna	-11.6334
▁makul	-11.6335
▁ryo	-11.6335
▁raton	-11.6336
gn	-11.6336
▁arruinar	-11.6337
dicho	-11.6337
▁hakkım	-11.634
▁olursak	-11.6341
▁çalışacak	-11.6341
▁dönemi	-11.6342
▁kaldırın	-11.6342
torio	-11.6345
gal	-11.6346
▁letras	-11.6346
nternet	-11.6348
▁aedado	-11.6349
▁tomado	-11.6349
▁perşembe	-11.6353
▁ekivoko	-11.6353
▁kazı	-11.6353
▁oluşturmak	-11.6355
▁joder	-11.6355
▁kavesas	-11.6357
▁olabiliriz	-11.6358
▁albümü	-11.636
▁bakterias	-11.636
▁ob	-11.6361
▁yarattı	-11.6361
▁com	-11.6362
hara	-11.6366
▁us	-11.6366
▁tanrıya	-11.6367
▁chikez	-11.6367
▁gözle	-11.637
▁afirma	-11.637
▁muyuz	-11.637
▁anladınız	-11.637
fra	-11.6371
▁olalım	-11.6377
▁annemi	-11.6377
▁fuistes	-11.6378
▁kg	-11.6381
▁largas	-11.6382
▁profesores	-11.6382
▁komporta	-11.6384
ğini	-11.6386
▁çıktığı	-11.6387
▁bayrak	-11.6391
▁inanç	-11.6392
▁eti	-11.6394
▁zalim	-11.6396
şini	-11.6397
lisi	-11.6397
lüğü	-11.6398
▁martini	-11.6398
▁yorgunum	-11.64
ırken	-11.6402
▁kondesa	-11.6403
▁rita	-11.6403
▁keçi	-11.6404
leşme	-11.6404
▁kasados	-11.6404
▁anneme	-11.6406
▁kalbim	-11.6407
over	-11.6408
leşmiş	-11.6409
▁cümle	-11.6409
▁negroes	-11.6411
eceğine	-11.6412
▁ulus	-11.6414
▁üzülme	-11.6416
▁altas	-11.642
▁griego	-11.6421
▁profitar	-11.6424
▁bekleyeceğim	-11.6426
bby	-11.6427
▁sospeka	-11.6427
▁nerden	-11.6428
▁konsegites	-11.6428
▁bud	-11.6431
ıldığı	-11.6432
▁diskusion	-11.6432
likle	-11.6432
▁girmiş	-11.6433
▁ederdim	-11.6433
ato	-11.6434
▁ajan	-11.6435
▁antik	-11.6435
▁konektar	-11.6438
▁izkiedro	-11.6439
▁besin	-11.644
▁direniş	-11.6442
▁korresponde	-11.6442
▁hedefi	-11.6444
▁oywood	-11.6445
sea	-11.6448
▁şarkıyı	-11.6448
▁interesantes	-11.6449
▁diskulpas	-11.6451
▁sürücü	-11.6452
▁blonda	-11.6455
▁diana	-11.6456
▁asentada	-11.6457
▁kaybetmiş	-11.6458
▁geldiğimde	-11.6461
dayken	-11.6462
emiyorum	-11.6463
▁britanya	-11.6464
▁rikeza	-11.6464
▁yerim	-11.6465
▁mansana	-11.6466
▁permityo	-11.6468
▁basketbol	-11.6468
▁harold	-11.6468
▁ipucu	-11.6468
▁gryen	-11.6469
tengo	-11.6469
▁dubios	-11.6471
▁pratiko	-11.6472
▁göğüs	-11.6472
▁yıllarca	-11.6474
▁sima	-11.6476
teo	-11.6476
▁deniyor	-11.6477
ning	-11.6477
▁akraba	-11.6477
▁ks	-11.6478
▁kaldın	-11.6479
▁yazdığı	-11.6482
▁tras	-11.6482
▁tarla	-11.6482
▁aplikar	-11.6484
▁almario	-11.6486
▁wolf	-11.6486
▁die	-11.6488
▁tribu	-11.6488
sil	-11.6492
▁korkuyorsun	-11.6493
▁disponibles	-11.6493
▁milletler	-11.6494
▁grev	-11.6495
▁prometyo	-11.6497
▁peggy	-11.6497
▁sobra	-11.6498
▁salyeron	-11.6499
▁istifa	-11.65
org	-11.6501
▁gereksiz	-11.6502
▁topluluğu	-11.6503
▁carla	-11.6509
▁manuel	-11.6509
▁görüşü	-11.651
▁nezaket	-11.6512
▁denilen	-11.6513
▁sağlama	-11.652
▁ayırt	-11.652
▁bekliyorlar	-11.652
▁permanente	-11.6524
▁dizian	-11.6526
▁kaos	-11.6526
▁afekto	-11.6526
▁kurum	-11.6527
▁verip	-11.6529
▁savcı	-11.6529
▁yönet	-11.6531
▁itaat	-11.6532
▁dahaki	-11.6532
▁impresionante	-11.6533
▁böylelikle	-11.6535
▁surat	-11.6535
ebilen	-11.6535
mira	-11.6535
▁tadra	-11.6536
▁tehlikede	-11.6536
▁cihaz	-11.6537
ice	-11.6538
▁hop	-11.6539
sp	-11.654
▁ikiye	-11.654
▁sagrado	-11.6541
▁uğra	-11.6542
▁sopa	-11.6542
▁movimientose	-11.6544
▁kafalı	-11.6545
▁clay	-11.6546
ible	-11.6547
▁luis	-11.6549
▁mahkemede	-11.6549
▁siguia	-11.6553
▁kazanma	-11.6553
▁sinkuenta	-11.6555
▁kuadros	-11.6555
▁pakistan	-11.6555
▁birinden	-11.6558
kichi	-11.6558
▁jac	-11.6559
▁rahatla	-11.6561
▁kezo	-11.6563
▁profunda	-11.6565
▁personalidad	-11.6565
▁şoför	-11.6567
▁onesto	-11.6569
▁pacifiko	-11.657
▁pasen	-11.6571
▁chuck	-11.6571
sinler	-11.6571
▁maten	-11.6571
▁arayacağım	-11.6572
▁seviye	-11.6576
▁eksplorar	-11.6576
▁eğil	-11.6577
▁bağlantılı	-11.6578
▁troki	-11.6579
▁yaşadım	-11.6581
▁nişan	-11.6581
▁eşyaları	-11.6584
▁yanıyor	-11.6585
▁koja	-11.6587
▁göreceğim	-11.6595
▁ömür	-11.6597
▁nucleo	-11.6599
hiç	-11.66
▁arı	-11.66
▁andan	-11.6602
▁mezcla	-11.6603
▁çıkıyorum	-11.6607
ünün	-11.661
▁konuya	-11.6611
▁mortal	-11.6611
▁ayırma	-11.6613
▁averse	-11.6613
▁eksaminar	-11.6615
▁philippe	-11.6615
▁sueldo	-11.6616
▁iv	-11.6617
▁giyme	-11.6622
▁hazırız	-11.6623
▁artes	-11.6624
▁keridos	-11.6624
▁çiftliği	-11.6624
▁temer	-11.6624
▁nehrin	-11.6625
▁pensates	-11.6628
kinden	-11.6628
▁site	-11.6628
▁refudjio	-11.6628
▁vuelto	-11.6628
ydü	-11.6628
▁piedad	-11.6629
▁disulpeme	-11.663
▁kargos	-11.6631
▁ciddiye	-11.6631
çin	-11.6632
▁görünme	-11.6632
▁oluşturuyor	-11.6632
merhaba	-11.6633
▁kelly	-11.6633
▁pol	-11.6634
nis	-11.6634
▁validjas	-11.6634
▁çağı	-11.6634
▁dünyasında	-11.6635
▁ayrılmak	-11.6638
▁sevme	-11.6639
▁espantar	-11.6642
www	-11.6643
▁sovrino	-11.6643
▁sufryo	-11.6643
▁apostar	-11.6644
▁prestar	-11.6645
▁lester	-11.6648
▁uze	-11.6648
▁diamantes	-11.6649
▁bildiğin	-11.665
▁bos	-11.6651
▁cömert	-11.6652
▁şa	-11.6652
▁arayan	-11.6653
▁etmeyecek	-11.6654
▁botas	-11.6654
▁olmalılar	-11.6655
▁resiente	-11.6656
▁eskisi	-11.6657
▁şövalye	-11.6658
▁river	-11.6659
▁gala	-11.666
▁kapıları	-11.666
▁distribusion	-11.6661
▁difikultades	-11.6661
▁ambasador	-11.6665
▁sudan	-11.6666
▁molekulas	-11.6666
▁isterse	-11.6667
▁aynısını	-11.6667
▁deskubrimiento	-11.6669
▁episodio	-11.6669
▁edebilirsin	-11.6671
▁koste	-11.6671
▁evento	-11.6672
▁intentava	-11.6675
▁sierra	-11.6676
▁birleşmiş	-11.6677
▁otelde	-11.6677
▁tomates	-11.6677
▁gözler	-11.6678
dera	-11.6678
abileceği	-11.6679
▁kategori	-11.6682
▁önceydi	-11.6682
lidir	-11.6683
▁miserable	-11.6684
larındaki	-11.6684
▁veikulo	-11.6684
▁gerçi	-11.6688
▁resibo	-11.6689
▁mason	-11.669
▁zirko	-11.6691
▁fijate	-11.6691
kol	-11.6694
▁tamamı	-11.6696
▁arayın	-11.6696
▁vuestras	-11.6696
▁vengas	-11.6696
▁kalabilir	-11.6698
▁impulso	-11.6699
▁ettiğin	-11.67
▁mae	-11.6701
▁seri	-11.6701
▁alkunya	-11.6702
▁catherine	-11.6702
▁alınan	-11.6705
▁konosidos	-11.6705
dem	-11.6707
▁mit	-11.6708
udi	-11.6709
▁eksplozion	-11.671
▁serebral	-11.671
fet	-11.671
alo	-11.671
▁ovliga	-11.6711
diğin	-11.6711
▁emniyet	-11.6712
alora	-11.6714
▁dışarıya	-11.6714
▁arizona	-11.6717
▁kesme	-11.6718
▁duvara	-11.6719
▁pedronar	-11.6722
▁başkaları	-11.6723
▁düzenleme	-11.6726
resi	-11.6726
▁yakaladım	-11.6728
zen	-11.6729
▁saldırıya	-11.673
▁tutuklu	-11.673
▁ferrokarril	-11.6732
▁posiblemente	-11.6732
▁ekstremadamente	-11.6732
▁olanak	-11.6733
▁dizs	-11.6735
▁dostlar	-11.6735
▁demandates	-11.6735
smi	-11.6736
kincisi	-11.6737
▁arabam	-11.6738
▁poseda	-11.6739
▁bilietoes	-11.6739
▁soylu	-11.674
mat	-11.674
▁erramienta	-11.6744
▁sıraya	-11.6744
▁asustado	-11.6745
▁kocanız	-11.6746
▁yunanistan	-11.6747
▁lafı	-11.6747
▁ganeden	-11.6751
ağı	-11.6752
▁dehşet	-11.6753
▁gücün	-11.6754
▁yanındaki	-11.6754
mada	-11.6755
▁dragon	-11.6756
▁kali	-11.6757
▁mağara	-11.6757
▁arregla	-11.6757
▁trokaron	-11.6758
▁ruedas	-11.6758
▁mankan	-11.6758
▁guevo	-11.6759
ebilme	-11.6759
fendi	-11.676
▁kahverengi	-11.6762
▁resmini	-11.6762
▁düşür	-11.6762
▁bon	-11.6762
▁gelmeyecek	-11.6763
▁prima	-11.6763
▁tigre	-11.6763
▁planea	-11.6765
▁uyumak	-11.6768
▁soruları	-11.6768
▁düşündüğünü	-11.677
▁giysi	-11.6771
day	-11.6771
▁zorluk	-11.6776
▁marlowe	-11.6776
▁multitud	-11.6776
▁grano	-11.6777
▁servet	-11.6777
▁konstantemente	-11.6778
▁birisini	-11.6779
▁east	-11.6779
luğunu	-11.6781
bayan	-11.6784
vil	-11.6785
▁fatal	-11.6789
▁revela	-11.679
▁yaşasın	-11.679
jer	-11.679
▁yaşına	-11.6791
▁poeta	-11.6792
▁sano	-11.6792
▁austria	-11.6793
▁kooperasion	-11.6793
▁kompra	-11.6794
leyecek	-11.6794
lus	-11.6796
▁geçmişi	-11.6796
ett	-11.6798
▁ülkelerin	-11.68
▁öl	-11.6801
▁oturan	-11.6801
nor	-11.6802
▁diyoruz	-11.6802
vert	-11.6803
▁imkan	-11.6803
▁edward	-11.6804
▁herkesten	-11.6805
lıktan	-11.6805
▁gülümse	-11.6806
▁atan	-11.6806
▁pizza	-11.6806
▁uyanık	-11.6807
▁oso	-11.6808
▁suelen	-11.6811
▁julian	-11.6811
▁kobrar	-11.6813
ğın	-11.6815
▁kultural	-11.6816
▁partisipasion	-11.6817
manız	-11.6818
yes	-11.6819
▁liberal	-11.6821
▁bilinmeyen	-11.6822
▁pesado	-11.6824
▁bea	-11.6825
▁taşır	-11.6828
▁estemos	-11.6829
▁hücreleri	-11.683
▁presios	-11.683
▁podria	-11.683
pt	-11.6832
▁sp	-11.6833
▁balo	-11.6833
▁tel	-11.6834
▁çene	-11.6834
▁romano	-11.6834
lerse	-11.6834
▁ufaklık	-11.6834
▁pompa	-11.6835
tados	-11.6835
▁del	-11.6836
▁pedazos	-11.6836
bio	-11.6837
▁ovligado	-11.6838
mia	-11.6842
▁ph	-11.6842
▁dyera	-11.6844
▁şifre	-11.6844
▁deskuvrimos	-11.6846
▁sm	-11.6846
▁wal	-11.6846
▁repetar	-11.6847
▁rod	-11.6848
▁yamaron	-11.6848
▁bahis	-11.6848
vy	-11.6849
▁rastro	-11.685
▁sekretea	-11.6851
▁siclo	-11.6851
▁ilişkiler	-11.6853
▁üretimi	-11.6854
▁doları	-11.6855
▁salamos	-11.6855
▁oyeron	-11.6856
▁anlatacak	-11.6856
▁gerçekleri	-11.6856
▁sıklıkla	-11.6857
▁sürdür	-11.6857
▁olamazsın	-11.6859
▁sugjera	-11.6859
eh	-11.686
▁puevlos	-11.6861
▁unidas	-11.6865
▁eskrivyendo	-11.6866
▁tarafýndan	-11.6866
▁definision	-11.6867
kado	-11.6867
▁suesia	-11.6867
▁kaygı	-11.6869
muyor	-11.687
adores	-11.6872
▁kinezos	-11.6872
▁konsiderado	-11.6873
▁bilieto	-11.6874
larımıza	-11.6875
▁yapabilirsiniz	-11.6875
▁atrapado	-11.6875
▁sovyetler	-11.6876
▁bileyim	-11.6876
▁çerçeve	-11.6877
▁oynat	-11.6877
▁biyoloji	-11.6878
▁kırk	-11.6878
▁rokas	-11.6881
▁şık	-11.6882
▁dediniz	-11.6884
▁birisinin	-11.6884
▁varlığı	-11.6886
▁ateşe	-11.6886
▁hristiyan	-11.6887
▁biriktir	-11.6888
▁sujeta	-11.6889
▁güneşin	-11.689
▁determinar	-11.6891
▁metemos	-11.6893
▁açıkla	-11.6893
imin	-11.6896
▁çare	-11.6897
▁başbakan	-11.6898
şey	-11.6899
▁bütçe	-11.6899
mpo	-11.6902
mamı	-11.6902
▁hâlde	-11.6903
▁çılgınca	-11.6908
▁tiempas	-11.6911
ec	-11.6913
▁carol	-11.6914
▁satmak	-11.6915
▁reddetti	-11.6916
▁individuos	-11.6923
▁komprobar	-11.6923
▁akabamos	-11.6923
▁gösterecek	-11.6926
▁hisseder	-11.6926
▁köpekler	-11.6926
▁suyos	-11.6927
▁lang	-11.6927
▁transmision	-11.6927
uf	-11.693
▁kus	-11.693
▁çalar	-11.693
▁kulüp	-11.6931
izada	-11.6932
git	-11.6932
▁yarattığı	-11.6933
▁değişiklikler	-11.6934
▁kaçın	-11.6935
▁pensarlo	-11.6936
▁tanır	-11.6937
▁birimi	-11.6938
▁mutfakta	-11.6939
▁alas	-11.6939
▁kılıcı	-11.6939
▁personel	-11.6939
mayacaksın	-11.694
▁artır	-11.6941
▁aşama	-11.6941
nger	-11.6942
▁kennedy	-11.6942
▁stewart	-11.6942
▁jackie	-11.6945
▁bahar	-11.6945
▁halt	-11.6947
eye	-11.6949
▁yapmanız	-11.6949
▁enterrar	-11.6951
▁mat	-11.6954
▁komunista	-11.6957
▁olu	-11.6958
▁atreve	-11.6959
▁voto	-11.6959
▁bahane	-11.6959
▁organiza	-11.6961
▁nube	-11.6961
bon	-11.6962
ske	-11.6962
▁enormes	-11.6963
▁saçmalama	-11.6964
▁kazanır	-11.6964
▁asil	-11.6965
▁respira	-11.6966
▁protein	-11.697
▁deposito	-11.6971
▁tahliye	-11.6972
▁fasebook	-11.6972
▁büyücü	-11.6972
▁direk	-11.6973
▁toplumsal	-11.6974
▁filozofia	-11.6976
▁gitmeliyiz	-11.6978
▁shakespeare	-11.6978
vu	-11.6979
▁babama	-11.6981
▁karreras	-11.6984
▁eralo	-11.6985
▁bakıyorsun	-11.6986
▁music	-11.6992
▁internasyonales	-11.6994
▁çalışmayı	-11.6995
▁gidiyorlar	-11.6995
▁kalkış	-11.6995
▁diyecek	-11.6996
▁yetersiz	-11.6996
disheron	-11.6997
▁tipiko	-11.6997
▁tersi	-11.6999
▁ibaret	-11.6999
▁alıyoruz	-11.6999
▁giderse	-11.6999
▁hücreler	-11.7
▁sterlin	-11.7002
▁konstitusion	-11.7003
▁hap	-11.7006
▁hatırladım	-11.7007
▁sensible	-11.7007
▁eskritorio	-11.7008
inize	-11.7011
▁böcek	-11.7012
▁ortalıkta	-11.7012
▁agrikultura	-11.7018
▁sudjiero	-11.7018
▁gözünü	-11.7019
cion	-11.7025
▁gerçeklik	-11.7026
todo	-11.7029
▁yapıyordu	-11.703
▁sahibiz	-11.7031
▁goza	-11.7032
larımın	-11.7032
▁ayın	-11.7036
dishitesh	-11.7037
luğa	-11.7039
▁kabus	-11.704
▁protedje	-11.7041
▁kalırsa	-11.7041
▁fuma	-11.7045
▁ilegal	-11.7046
▁kolokar	-11.7046
▁dikkatini	-11.7049
▁bekledim	-11.705
▁rejiones	-11.705
▁özgü	-11.7053
▁yönlendir	-11.7055
▁kullanmaya	-11.7056
▁mentes	-11.7056
▁bivi	-11.706
▁arnold	-11.7064
▁kinze	-11.7065
▁kalıcı	-11.7066
▁investigadores	-11.7068
yeni	-11.7069
▁air	-11.707
▁topava	-11.7071
aga	-11.7073
ciler	-11.7076
▁panik	-11.7076
▁etapa	-11.7078
▁tirando	-11.7079
▁pirinç	-11.7079
▁olabildiğince	-11.7079
▁lukso	-11.708
▁koydum	-11.7081
▁anlamlı	-11.7083
▁yakalamak	-11.7085
▁bn	-11.7086
▁tarta	-11.709
▁bilmiyordu	-11.7092
emiyor	-11.7092
▁djugo	-11.7095
▁ederse	-11.7095
▁vermedi	-11.7097
▁darwin	-11.7097
enta	-11.7098
▁bakire	-11.71
fl	-11.7102
irler	-11.7103
▁demedio	-11.7103
▁pesadiya	-11.7105
gno	-11.7108
▁memnunum	-11.7108
▁fiel	-11.7108
▁garon	-11.7108
▁dokumento	-11.7109
▁tendensia	-11.7109
▁kul	-11.7109
▁independensia	-11.711
▁tembel	-11.711
▁masanın	-11.7112
▁risa	-11.7113
▁tenerlo	-11.7115
▁arar	-11.7115
ugh	-11.7118
▁olmakla	-11.7118
▁juzgar	-11.7118
tine	-11.7119
▁kararını	-11.7119
▁tanıyorsun	-11.7122
nny	-11.7122
▁yem	-11.7122
▁balta	-11.7125
▁sevin	-11.7131
▁ülkeyi	-11.7133
nal	-11.7137
▁dezeyava	-11.7138
ıldığını	-11.7138
leyici	-11.7139
▁ekspedision	-11.7141
kto	-11.7142
▁kovboy	-11.7143
ima	-11.7146
▁ağaçlar	-11.7146
adam	-11.7147
▁faktores	-11.7147
▁eche	-11.7149
▁kanalı	-11.715
▁miyo	-11.7152
▁kestiones	-11.7154
▁salvajes	-11.7154
▁böylesine	-11.7156
▁takdirde	-11.7156
▁biftek	-11.7156
▁pedryeron	-11.7156
▁uelga	-11.7157
▁arresto	-11.7157
▁konforme	-11.7157
▁tokes	-11.7159
▁hissettiğini	-11.7159
larımdan	-11.716
▁kaptura	-11.7161
▁örgütü	-11.7164
▁kalktı	-11.7164
▁endüstri	-11.7164
▁doktorun	-11.717
▁donald	-11.7171
▁derrota	-11.7173
▁asombroso	-11.7173
▁rast	-11.7174
▁anlarsın	-11.7175
▁sınıfı	-11.7177
ls	-11.7178
▁satan	-11.718
▁kodji	-11.7181
▁konsegimos	-11.7182
▁youtube	-11.7187
▁uzaktan	-11.7188
▁öğrendik	-11.719
▁gördüğü	-11.7192
▁verebilirim	-11.7192
▁falsa	-11.7192
▁visitas	-11.7193
▁arriesgar	-11.7194
▁artifisial	-11.7196
▁kombinasion	-11.7197
▁arasından	-11.7198
▁korasones	-11.7198
▁kanlı	-11.72
▁desidido	-11.72
▁famoza	-11.7203
▁casus	-11.7203
▁rusa	-11.7205
▁tabako	-11.7206
▁dövme	-11.7209
▁yaşayacak	-11.7211
▁konkluzion	-11.7211
▁resmen	-11.7216
▁evidente	-11.7217
▁yazın	-11.7218
▁geçiriyor	-11.7218
▁zehirli	-11.7218
▁ziyade	-11.7219
▁salas	-11.7219
▁gary	-11.7219
▁cok	-11.7221
▁yararlı	-11.7222
▁viya	-11.7225
▁kürek	-11.7229
▁verelim	-11.7229
hola	-11.723
▁cham	-11.7231
tör	-11.7233
▁aterrisar	-11.7234
▁roosevelt	-11.7234
▁facebook	-11.7234
▁kazandım	-11.7234
▁düzine	-11.7236
▁düşünmemiştim	-11.7236
▁kolonya	-11.7238
▁muevete	-11.7238
lem	-11.7239
▁ijas	-11.7242
▁ölç	-11.7244
▁yatma	-11.7245
▁hall	-11.7245
▁güzelsin	-11.7245
▁feridos	-11.7246
▁val	-11.7246
▁geliyoruz	-11.725
▁propozo	-11.725
▁yakalandı	-11.725
▁traeme	-11.725
▁enkarga	-11.7252
▁espia	-11.7253
rr	-11.7253
▁asia	-11.7255
▁ölümünden	-11.7257
mine	-11.7257
▁bou	-11.7258
▁etrafa	-11.7258
▁aldınız	-11.7259
▁süvari	-11.7261
▁empedir	-11.7261
gle	-11.7262
▁olursunuz	-11.7263
▁kabanya	-11.7266
▁biologia	-11.7266
▁söylemeyi	-11.7267
▁nar	-11.7268
▁istedik	-11.727
▁sorgu	-11.727
▁göm	-11.7271
▁sakates	-11.7272
▁konfesar	-11.7274
mıyorsunuz	-11.7276
▁kedaron	-11.7277
▁hikayeler	-11.7279
▁çalıştığı	-11.728
▁djenetika	-11.7281
iki	-11.7281
▁bruja	-11.7281
▁barry	-11.7282
▁kütüphane	-11.7284
▁news	-11.7285
▁edemezsin	-11.7286
▁vesino	-11.7286
▁aparejando	-11.7286
▁kalacağız	-11.7288
▁enstitüsü	-11.7289
od	-11.729
▁caddesi	-11.7291
▁tanırım	-11.7291
▁plano	-11.7292
▁jugadores	-11.7293
▁ganador	-11.7295
▁zararı	-11.7297
▁galaksi	-11.7298
▁sintura	-11.7299
▁alırsın	-11.7299
▁dinliyor	-11.7299
▁oluştur	-11.7299
▁lavoras	-11.7303
▁fre	-11.7303
▁belir	-11.7304
▁deuda	-11.7304
▁dersi	-11.7305
▁yokken	-11.7305
▁çekildi	-11.7306
▁anual	-11.7306
▁bahset	-11.7307
ğında	-11.7308
▁asentirse	-11.7308
▁kelimeler	-11.7309
▁tapa	-11.7309
siydi	-11.7311
▁gitmesi	-11.7313
▁mensiona	-11.7317
▁fea	-11.7317
▁öldürmüş	-11.7318
▁girdim	-11.7318
izm	-11.7319
fort	-11.7319
▁permitame	-11.732
▁konsey	-11.7322
▁matan	-11.7323
▁yapmıştır	-11.7324
▁sedros	-11.7326
▁milli	-11.7326
▁karış	-11.7328
▁depresyon	-11.7329
▁yükselt	-11.7329
▁incha	-11.7329
▁sueter	-11.733
▁transformar	-11.733
▁saviamos	-11.7332
▁tamamıyla	-11.7336
ct	-11.7336
▁amerikana	-11.7336
▁hill	-11.7336
▁enganya	-11.7337
▁kometer	-11.7338
▁siyaset	-11.7339
▁pisina	-11.7339
dishites	-11.734
jes	-11.7342
▁konkurso	-11.7344
▁yakalama	-11.7345
▁talebi	-11.7345
nlo	-11.7345
miyoruz	-11.7345
▁bakıma	-11.7346
▁entenda	-11.7347
▁emisiones	-11.7348
▁layık	-11.7348
▁proibido	-11.735
▁mola	-11.7352
▁sakinleş	-11.7353
gü	-11.7354
▁marc	-11.7354
▁kolları	-11.7355
▁limon	-11.7356
she	-11.7356
▁atık	-11.7357
▁oğlun	-11.7357
▁eksi	-11.7358
▁cüret	-11.736
▁more	-11.736
▁ensayo	-11.736
▁zorundasınız	-11.7361
▁indu	-11.7363
▁transfer	-11.7363
▁franklin	-11.7364
est	-11.7365
▁single	-11.7365
▁rayo	-11.7366
▁uçur	-11.7367
▁eşyalarını	-11.7368
▁perikolozos	-11.737
▁respeta	-11.7371
miyorsunuz	-11.7372
klerini	-11.7373
▁regalos	-11.7373
▁oturur	-11.7374
nizden	-11.7375
▁bienvenidos	-11.7375
diğimi	-11.7375
ted	-11.7375
▁babanız	-11.7376
▁norveç	-11.7376
▁edi	-11.7378
▁bekleyebilir	-11.7379
▁hatırlama	-11.738
▁evimde	-11.7381
▁delito	-11.7382
▁vereceksin	-11.7384
▁istemiyorsun	-11.7384
▁elektron	-11.7387
▁döndüğünde	-11.7387
▁yılına	-11.7388
▁bakarak	-11.7388
▁tru	-11.7389
▁üstünü	-11.7391
layalım	-11.7391
▁usuarios	-11.7392
▁martes	-11.7394
▁çözmek	-11.7394
▁hissediyorsun	-11.7395
▁toprağı	-11.7396
▁arrogar	-11.7396
▁sağolun	-11.74
ifikasion	-11.7404
▁eşya	-11.7404
leşiyor	-11.7404
▁tecnika	-11.7406
▁establese	-11.7406
▁zirugia	-11.7407
▁eskritura	-11.7408
▁algasil	-11.7408
▁aracılığıyla	-11.7408
://	-11.7408
▁deneyelim	-11.7408
▁kuanta	-11.741
▁deyişle	-11.7413
▁sorar	-11.7413
▁meclis	-11.7414
▁gemileri	-11.7415
▁nesne	-11.7415
▁ölümüne	-11.7416
▁tyler	-11.7418
esi	-11.742
amadı	-11.7425
▁maldita	-11.7425
▁detektar	-11.7426
▁palm	-11.7427
▁botikas	-11.7427
▁kontinue	-11.7429
▁korktum	-11.7429
▁vurmak	-11.743
▁devir	-11.7431
imizin	-11.7431
▁açıklaması	-11.7432
▁kabile	-11.7434
▁komitesi	-11.7434
▁seloso	-11.7436
▁gion	-11.7438
▁ombro	-11.7439
ırlar	-11.7439
▁konekta	-11.7439
▁kannabis	-11.7439
▁tiempa	-11.744
estas	-11.744
▁laboratuvar	-11.7443
▁asustada	-11.7443
▁viaja	-11.7444
ates	-11.7444
▁cia	-11.7444
stanbul	-11.7445
▁devesh	-11.7446
▁pozo	-11.7448
▁kazanıyor	-11.7449
▁sınıfta	-11.745
zas	-11.7452
kiler	-11.7453
▁tradisional	-11.7454
▁california	-11.7455
▁bebido	-11.7455
▁alevanto	-11.7455
djio	-11.7456
▁kurumu	-11.7458
▁haberdar	-11.7458
▁karol	-11.746
▁temia	-11.7462
▁gerras	-11.7463
▁retira	-11.7468
▁tüy	-11.7468
▁ölçü	-11.7469
gs	-11.7471
▁orkesta	-11.7471
▁zihinsel	-11.7472
▁meldadura	-11.7472
▁definitivamente	-11.7472
yoruz	-11.7472
▁maneja	-11.7475
▁gördüğünü	-11.7475
▁plena	-11.7476
▁yetkili	-11.7477
▁partiye	-11.7479
▁korri	-11.748
▁dahası	-11.7481
▁grizo	-11.7481
▁çıkmadı	-11.7483
▁produktor	-11.7484
landığı	-11.7484
▁relijiozo	-11.7488
▁bilimi	-11.7489
▁ışıkları	-11.7489
▁yapıyordum	-11.749
▁avanse	-11.749
▁görebiliyor	-11.749
▁oidos	-11.7491
▁indisios	-11.7491
▁uslu	-11.7491
▁veriyoruz	-11.7492
▁döndür	-11.7493
▁kızılderililer	-11.7493
▁düşmanı	-11.7495
▁biçimi	-11.7496
▁azalt	-11.7497
▁traversar	-11.7497
ysanız	-11.7497
▁moleste	-11.7498
▁ilerliyor	-11.7498
▁kıskan	-11.7499
▁çoğunluğu	-11.7501
▁rei	-11.7501
▁arabalar	-11.7502
▁büro	-11.7502
ele	-11.7502
▁işiniz	-11.7503
▁fondasion	-11.7503
▁kafana	-11.7505
▁tiren	-11.7505
▁dükkan	-11.7506
▁frederick	-11.7506
▁evans	-11.7506
▁tas	-11.7506
▁çalmak	-11.7506
▁tradision	-11.7507
▁despe	-11.7507
▁kondenado	-11.7509
▁çocuklarım	-11.7509
▁ataka	-11.751
▁yapmayacağım	-11.7511
▁kontando	-11.7513
▁empese	-11.7517
rit	-11.7518
▁sız	-11.7518
▁şahsen	-11.752
sas	-11.752
▁sanmam	-11.7522
▁planlama	-11.7523
onlar	-11.7523
▁duyduk	-11.7523
▁kullanmayı	-11.7524
▁değerlendir	-11.7524
▁edeceğini	-11.7526
▁baskın	-11.7526
▁moderno	-11.7527
▁olursan	-11.7529
▁rh	-11.753
manızı	-11.7531
tanrı	-11.7531
▁intentas	-11.7533
▁yapardım	-11.7533
▁declara	-11.7533
ella	-11.7534
emedim	-11.7534
tiraf	-11.7534
▁dinyidad	-11.7535
▁siudadano	-11.7536
▁kalite	-11.7538
eve	-11.7538
▁yazmış	-11.7538
▁pegar	-11.7539
▁birbirlerini	-11.754
▁güvenme	-11.7543
▁zemin	-11.7543
acağına	-11.7545
▁yolladı	-11.7549
▁geçirir	-11.7549
şleri	-11.7551
▁başlamıştı	-11.7551
▁atraktiva	-11.7551
▁edebilecek	-11.7552
▁prezentes	-11.7553
▁entri	-11.7553
▁sasedrote	-11.7553
▁neşe	-11.7553
▁vedres	-11.7559
▁hı	-11.7559
▁venser	-11.7562
▁sabahın	-11.7562
▁gota	-11.7563
▁şimdiki	-11.7564
▁kullanıcı	-11.7566
▁çeyrek	-11.7568
▁hayret	-11.7568
dayız	-11.7569
chas	-11.7569
▁miri	-11.757
▁doris	-11.757
▁sihirli	-11.7575
▁time	-11.7575
▁etc	-11.7576
▁paniko	-11.7577
stediğim	-11.7577
oo	-11.7578
▁sarayı	-11.7579
▁mago	-11.758
▁izliyor	-11.7581
▁masaya	-11.7581
▁doğan	-11.7582
▁ulaşım	-11.7584
▁despierto	-11.7584
▁öldürürüm	-11.7584
▁çarptı	-11.7585
şı	-11.7586
▁bağlayın	-11.7586
lton	-11.7586
▁odayı	-11.7586
▁mantık	-11.7587
izi	-11.7587
abilme	-11.7588
▁maya	-11.7588
▁partikularmente	-11.7589
sim	-11.7591
▁bahsettiğim	-11.7593
▁taşındı	-11.7594
▁yapacaksınız	-11.7594
▁oranda	-11.7596
▁ulu	-11.7596
▁sharaes	-11.7597
mezsin	-11.7598
▁torpe	-11.7598
▁tıraş	-11.76
▁douglas	-11.76
▁duymuştum	-11.7603
▁etiket	-11.7603
bad	-11.7603
tty	-11.7603
▁gez	-11.7604
spanyolca	-11.7604
▁pedroneme	-11.7604
▁atıyor	-11.7605
▁tratan	-11.7605
▁bankos	-11.7606
▁grafik	-11.7607
▁sessizce	-11.7608
▁konularda	-11.7609
▁eksepsion	-11.7609
▁ryan	-11.7609
▁ahlak	-11.7613
▁morris	-11.7614
▁çıkabilir	-11.7614
▁interkambio	-11.7616
▁umilde	-11.7616
▁satisfecho	-11.7616
lgi	-11.7616
▁portreto	-11.7617
▁retirar	-11.7617
▁biva	-11.7617
▁mitch	-11.762
▁sokaklarda	-11.762
▁all	-11.7621
▁virüs	-11.7621
▁konte	-11.7621
bert	-11.7623
▁davranıyor	-11.7624
▁miktarı	-11.7627
▁pasaporto	-11.7631
▁sürdürülebilir	-11.7632
▁evrensel	-11.7633
▁paliza	-11.7634
▁royal	-11.7637
▁bahsediyor	-11.7641
▁lig	-11.7645
▁dolusu	-11.7647
▁oynadı	-11.7648
▁aktores	-11.7648
▁vurur	-11.7649
▁egzistir	-11.7649
▁aziendolo	-11.7651
▁responsables	-11.7652
▁katie	-11.7653
▁istediler	-11.7654
▁organismos	-11.7655
▁solusionar	-11.7656
▁investigasiones	-11.7657
▁görevim	-11.7657
▁oteli	-11.7658
deyim	-11.7659
ysan	-11.7663
vol	-11.7664
▁kalanını	-11.7665
▁yaralandı	-11.7666
▁sigui	-11.7667
▁dolores	-11.7668
▁kedes	-11.7668
▁eroina	-11.7671
▁muayene	-11.7671
▁olmasının	-11.7672
▁gününü	-11.7672
▁tha	-11.7672
▁düğme	-11.7673
▁markas	-11.7673
▁nöbet	-11.7674
▁despedir	-11.7674
▁reve	-11.7674
▁kenarında	-11.7675
▁arkadaşınız	-11.7676
▁elimizden	-11.7676
▁entendemos	-11.7678
▁durdurun	-11.7678
müştü	-11.768
▁şeylerle	-11.768
▁edilemez	-11.7681
▁kendimiz	-11.7682
▁beslenme	-11.7683
mızdan	-11.7683
▁çök	-11.7684
▁sebeple	-11.7684
▁barda	-11.7684
▁yönde	-11.7684
▁yokmuş	-11.7685
▁çalışın	-11.7686
▁puedias	-11.7686
▁çıkarsa	-11.7686
▁puedyeramos	-11.7688
▁göründüğü	-11.7688
▁sue	-11.7688
diye	-11.7688
▁olsan	-11.7691
yüz	-11.7692
▁görevini	-11.7696
▁ettiğimi	-11.7696
▁eslavo	-11.7696
▁pal	-11.7697
▁eşcinsel	-11.7698
▁göl	-11.7698
▁ülkeye	-11.7698
undan	-11.7698
▁etkiler	-11.7698
▁ilacı	-11.7699
▁ly	-11.7699
▁miyer	-11.7701
ime	-11.7701
▁eşsiz	-11.7703
▁pasear	-11.7704
tario	-11.7706
▁belirsiz	-11.7708
▁preparada	-11.771
▁ekilibrio	-11.7714
▁marea	-11.7714
▁yarıyor	-11.7714
▁dilini	-11.7715
▁robinson	-11.7715
elli	-11.7717
▁kanat	-11.7718
▁teddy	-11.772
▁konveniente	-11.7722
▁itiraz	-11.7724
▁hayli	-11.7725
▁kriminales	-11.7725
▁direkt	-11.7726
▁yılından	-11.7726
▁yemekten	-11.7726
fil	-11.7727
sünüz	-11.7727
▁geleceğin	-11.7728
▁bienestar	-11.773
▁little	-11.7731
▁bevyendo	-11.7731
▁hiv	-11.7732
▁çalma	-11.7732
dishimos	-11.7732
▁kompuesto	-11.7732
▁kravata	-11.7736
▁bulamadım	-11.7737
▁röportaj	-11.7738
▁güçleri	-11.7739
▁platos	-11.7742
başka	-11.7742
▁okuyor	-11.7744
▁invitasion	-11.7744
▁etkin	-11.7744
▁çevirdi	-11.7748
▁odamda	-11.775
▁felsefe	-11.7752
▁terminal	-11.7753
nek	-11.7754
▁aclarar	-11.7755
▁petision	-11.7756
▁komisyonu	-11.7759
▁meraklı	-11.7762
▁peşine	-11.7763
▁unutmuşum	-11.7765
▁medias	-11.7765
▁gueso	-11.7766
▁sosios	-11.7768
▁asender	-11.7769
▁gibiyim	-11.7769
▁dulses	-11.7769
▁vaktimiz	-11.7769
▁sevdiğin	-11.7769
▁uygulan	-11.7771
duğunu	-11.7771
▁insanlık	-11.7772
▁tuvalet	-11.7773
▁yüzük	-11.7774
▁kısaca	-11.7775
▁denk	-11.7775
▁iken	-11.7776
▁bez	-11.7776
▁kasap	-11.7778
▁susedyendo	-11.778
▁pijama	-11.778
▁kaçınılmaz	-11.778
▁asma	-11.778
▁hazinos	-11.7781
▁medalya	-11.7782
▁presa	-11.7783
▁harikaydı	-11.7783
▁hırsızlık	-11.7784
▁troke	-11.7784
▁alec	-11.7786
▁boşanma	-11.7787
▁ambeza	-11.7788
▁uyumlu	-11.7788
▁ederdi	-11.779
▁yaparsan	-11.7791
▁zan	-11.7793
▁işletme	-11.7794
jos	-11.7797
▁saygın	-11.7797
▁gray	-11.7798
despues	-11.7799
▁boyutlu	-11.7799
▁değişimi	-11.7801
wo	-11.7803
▁seviş	-11.7803
▁hol	-11.7804
▁kurtardı	-11.7804
▁kardeşler	-11.7805
▁denver	-11.7806
▁sinirli	-11.7807
▁eğ	-11.7809
▁bilin	-11.7809
▁oyuncusu	-11.781
▁saate	-11.781
▁hatam	-11.7811
▁djer	-11.7814
▁birlikleri	-11.7814
▁sars	-11.7815
▁yaşamış	-11.7816
▁anlamıyorsun	-11.7817
▁yaşadığım	-11.7818
▁kanunu	-11.7818
▁güzelim	-11.7819
▁melde	-11.7821
▁strateji	-11.7821
▁plazes	-11.7825
▁ürünleri	-11.7826
▁geçirdik	-11.7828
▁komisaria	-11.7829
▁öncü	-11.783
▁sammy	-11.7831
▁ziyarete	-11.7831
▁kırsal	-11.7831
▁samimi	-11.7833
zos	-11.7833
▁dertte	-11.7837
▁gününde	-11.7838
▁unikamente	-11.7839
▁dönüştü	-11.7841
▁instrumentos	-11.7842
▁merkezinde	-11.7842
likleri	-11.7843
▁deneyin	-11.7845
▁responda	-11.7846
dıklarını	-11.7847
▁anlatıyor	-11.7848
▁ümit	-11.7848
▁paisaje	-11.7848
▁haydut	-11.7848
▁gönderin	-11.7849
dedi	-11.785
▁çocuklarla	-11.785
▁cole	-11.785
▁konvoy	-11.7852
▁adorable	-11.7852
▁bendiga	-11.7852
▁ederseniz	-11.7855
▁çalıştık	-11.7855
izados	-11.7857
▁anlayışı	-11.7857
▁yığın	-11.7858
▁devrimi	-11.7858
▁claude	-11.7858
▁detene	-11.7859
▁dispositivos	-11.7861
▁paranı	-11.7862
▁jakob	-11.7863
lenmesi	-11.7864
▁propaganda	-11.7864
▁arranka	-11.7865
▁tutmaya	-11.7865
tiği	-11.7865
▁agradeser	-11.7866
▁anlayamadım	-11.7866
▁koltuk	-11.7866
▁bildiğini	-11.7868
▁hakkını	-11.7869
▁aktos	-11.7871
▁öldürüyor	-11.7874
ümüz	-11.7875
▁salgın	-11.7876
memiz	-11.7876
▁demokratik	-11.7877
▁deprem	-11.7877
▁dishimos	-11.7877
▁esperansas	-11.7878
▁kedas	-11.7878
▁utan	-11.7879
▁kresyo	-11.7879
▁virginia	-11.788
▁saldırgan	-11.788
▁saldırdı	-11.7883
▁katolik	-11.7884
▁yörünge	-11.7884
▁naves	-11.7888
▁kafam	-11.7888
▁presentasion	-11.7889
▁stalin	-11.7889
▁evliliği	-11.7891
▁istediğinizi	-11.7891
▁inkar	-11.7893
▁estupenda	-11.7894
nızdan	-11.7895
▁ağrıyor	-11.7895
▁zihin	-11.7895
▁enkargado	-11.7895
▁jenerasiones	-11.7896
▁benzeyen	-11.7896
▁sabiduria	-11.7896
▁tutuklama	-11.7896
▁frankenstein	-11.7896
▁eroin	-11.7896
▁düşünecek	-11.7898
ong	-11.7899
▁kortes	-11.7899
idir	-11.7899
▁olanlardan	-11.79
▁avras	-11.7901
▁yay	-11.7902
▁eksplotar	-11.7904
▁kontinuasion	-11.7905
lf	-11.7908
▁olurdum	-11.7909
▁sevmez	-11.7909
ası	-11.791
▁mau	-11.7911
▁koruyucu	-11.7912
▁trene	-11.7915
ub	-11.7916
▁evlenecek	-11.7916
use	-11.7918
▁oluşturan	-11.7918
▁mosa	-11.7918
▁mont	-11.7919
▁day	-11.7922
▁kritiko	-11.7923
▁moto	-11.7926
acağımızı	-11.7929
▁alexander	-11.7929
▁sermaye	-11.7929
▁willie	-11.793
▁toby	-11.7931
semos	-11.7931
▁katili	-11.7934
diklerini	-11.7934
▁merka	-11.7934
▁bitmedi	-11.7935
▁yaşı	-11.7936
▁soltar	-11.7936
▁kitabın	-11.7936
▁tabak	-11.794
misin	-11.7941
▁olmadığımı	-11.7941
▁aslan	-11.7941
▁verdiğini	-11.7944
▁arrankar	-11.7944
▁rehber	-11.7944
meyeceğiz	-11.7944
▁piskueso	-11.7946
▁telefoos	-11.7946
▁ima	-11.7946
▁uçağa	-11.7946
▁çarpışma	-11.7946
▁kimya	-11.7947
▁aereo	-11.7947
▁sales	-11.7949
▁sürmez	-11.7949
▁asistente	-11.7949
▁kreeme	-11.7949
lütfen	-11.795
▁entornado	-11.7952
▁simbolo	-11.7954
▁fazladan	-11.7958
▁representasion	-11.7958
▁bağı	-11.7959
▁dünyası	-11.7963
▁nokturno	-11.7963
▁şerefine	-11.7964
▁oluyordu	-11.7965
▁elma	-11.7965
af	-11.7966
▁ailesinin	-11.7967
mur	-11.7967
▁tüfeği	-11.7968
▁abi	-11.7968
▁esforsos	-11.7969
▁gitmez	-11.7969
▁başkenti	-11.797
vos	-11.7973
tayım	-11.7974
▁haksız	-11.7974
▁başın	-11.7975
▁hayatına	-11.7978
▁samurai	-11.798
▁komparasion	-11.7982
▁tuz	-11.7982
▁vital	-11.7984
ndolo	-11.7986
▁manual	-11.7986
▁umanas	-11.7987
▁kanseri	-11.7988
▁divertir	-11.7988
▁angel	-11.7989
▁kalıyorum	-11.7989
▁fosil	-11.799
▁değin	-11.799
▁kapatın	-11.7991
bei	-11.7991
▁yatağı	-11.7993
▁kişilerin	-11.7995
▁tarafına	-11.7995
kine	-11.7995
▁embiaron	-11.7996
müyor	-11.7996
▁orgyosa	-11.7996
▁nasiones	-11.7998
meyeceğini	-11.7999
▁bang	-11.8001
▁krimenes	-11.8001
▁armadas	-11.8002
▁apropiado	-11.8003
▁who	-11.8004
▁konsulta	-11.8004
kt	-11.8005
▁verdiğin	-11.8005
▁şartlar	-11.8007
▁metimos	-11.8008
mbi	-11.8009
▁alması	-11.801
▁yüzme	-11.8011
▁apresia	-11.8011
▁okulta	-11.8012
▁dilim	-11.8012
▁posteriormente	-11.8013
▁üzüntü	-11.8013
▁korkusu	-11.8015
▁eventos	-11.8017
▁ofis	-11.8018
estado	-11.8018
riya	-11.8019
▁vuruş	-11.802
larımızdan	-11.8022
tle	-11.8022
iyo	-11.8023
▁golpes	-11.8024
▁buenoes	-11.8025
▁gelmiştir	-11.8025
▁sonetes	-11.8027
▁heykel	-11.8027
▁madres	-11.8027
▁kaçmaya	-11.8028
▁enfrenta	-11.8028
▁panel	-11.8029
▁reducsion	-11.803
▁burdan	-11.803
▁sokma	-11.8032
▁sera	-11.8033
göz	-11.8033
seydin	-11.8034
▁puedyeran	-11.8035
▁enterrado	-11.8037
▁enkantada	-11.8041
▁gittiği	-11.8041
▁fur	-11.8041
▁representantes	-11.8041
▁dedikodu	-11.8042
▁basada	-11.8043
bot	-11.8045
▁stryet	-11.8047
▁tendrias	-11.8047
▁yapmanın	-11.8047
▁arold	-11.8048
▁girebilir	-11.8048
▁oimos	-11.805
arme	-11.805
▁gatos	-11.8051
mama	-11.8052
laç	-11.8052
▁başladığında	-11.8055
▁piyasaya	-11.8055
▁santral	-11.8055
▁indise	-11.8057
stri	-11.8058
▁organizasyon	-11.8058
illa	-11.8058
▁mantena	-11.8059
bey	-11.806
▁diploma	-11.806
▁bloke	-11.8061
▁kontratar	-11.8061
▁palma	-11.8064
mazdı	-11.8064
▁vaziya	-11.8064
▁açı	-11.8066
▁estando	-11.8066
▁fotoğrafları	-11.8066
ex	-11.8067
▁kuyu	-11.8067
▁pato	-11.8067
▁unikos	-11.8068
▁miran	-11.8068
▁vias	-11.8069
▁adamdan	-11.807
lamayı	-11.8071
lanıp	-11.8071
▁trukos	-11.8071
▁anlattım	-11.8074
vik	-11.8074
▁avansar	-11.8075
▁sizsiniz	-11.8075
▁bushkas	-11.8076
▁kadaveres	-11.8077
▁roja	-11.8077
▁içindir	-11.8078
▁almaktadır	-11.8079
sina	-11.8079
▁bernard	-11.8081
▁katkı	-11.8082
▁geçtiğimiz	-11.8082
▁kuba	-11.8082
▁estrukturas	-11.8083
▁soktu	-11.8084
▁feda	-11.8085
▁aktualidad	-11.8085
▁kıyasla	-11.8087
▁otele	-11.8089
▁olsaydın	-11.809
win	-11.809
▁profundidad	-11.8091
▁tebrik	-11.8093
▁seve	-11.8093
▁izler	-11.8094
▁repeta	-11.8094
▁sunmak	-11.8097
▁parçalar	-11.8097
▁razı	-11.8098
▁soporto	-11.8098
▁literatura	-11.8098
▁korkutucu	-11.8098
▁zarif	-11.8098
▁koraje	-11.8098
▁finansal	-11.8099
▁minnettarım	-11.8099
▁yelken	-11.8099
▁instrumento	-11.8102
▁dostumuz	-11.8102
▁mühendis	-11.8103
▁okuldan	-11.8103
▁oğul	-11.8103
mpi	-11.8106
▁başlattı	-11.8106
▁individual	-11.8106
▁partis	-11.8108
diğiniz	-11.8108
▁fotoğraflar	-11.8109
▁eskonde	-11.8109
▁düşünen	-11.8112
▁deskripsion	-11.8113
▁djiro	-11.8114
▁hizmetleri	-11.8115
▁noruega	-11.8115
▁kurgu	-11.8116
▁archivos	-11.8117
▁sospechoso	-11.8119
▁komedi	-11.8119
▁kuzen	-11.8119
▁hart	-11.812
▁kreando	-11.8121
amiento	-11.8122
▁korkar	-11.8123
▁başlangıcı	-11.8124
town	-11.8125
▁yukarıya	-11.8126
▁minnettar	-11.8127
▁salve	-11.8128
▁satıcı	-11.813
▁hayali	-11.8131
▁tendriamos	-11.8132
▁dışarda	-11.8133
aklı	-11.8134
eu	-11.8134
▁basar	-11.8135
▁boru	-11.8137
▁trajedia	-11.8139
tivas	-11.814
▁hayvanları	-11.8142
iyordum	-11.8142
▁halı	-11.8144
▁sanıyorsunuz	-11.8144
▁tension	-11.8145
▁ahlaki	-11.8146
ılıp	-11.8147
▁duyduğuma	-11.8148
▁serro	-11.8149
▁portofolio	-11.8149
▁espantavle	-11.8149
▁stephen	-11.8149
▁truyeron	-11.8149
▁kreamos	-11.8149
ifiko	-11.815
▁liras	-11.8155
▁kreas	-11.8156
▁ambulansia	-11.8156
▁aldığımız	-11.8156
▁açıp	-11.8157
▁dâhil	-11.8158
▁amma	-11.8159
▁elen	-11.8159
▁faktor	-11.8159
▁yakalanma	-11.816
▁inme	-11.8162
▁müzesi	-11.8166
▁ör	-11.8167
▁periodistas	-11.8167
▁yaşan	-11.8168
▁intentamos	-11.8168
▁empiegado	-11.817
▁cephane	-11.817
▁ilgilenme	-11.8172
shire	-11.8174
▁pisa	-11.8175
▁intikam	-11.8176
▁alanları	-11.8177
▁sefil	-11.8177
▁göçmen	-11.8178
▁buradaydı	-11.818
▁espasios	-11.8181
▁preokupasion	-11.8182
▁balina	-11.8182
▁lizzie	-11.8183
▁napoleon	-11.8183
▁belirgin	-11.8184
▁analisar	-11.8184
▁dansı	-11.8184
▁emosional	-11.8185
▁kurulan	-11.8185
▁dayalı	-11.8187
▁haftalık	-11.8187
▁forman	-11.8187
▁öğrencisi	-11.8188
▁bives	-11.8189
▁krio	-11.8191
▁vuruldu	-11.8191
▁içimde	-11.8191
▁eksperimentar	-11.8194
▁likido	-11.8195
▁hayvanların	-11.8196
▁kombatir	-11.8196
▁kötüye	-11.8196
▁geçit	-11.8196
▁nombrado	-11.8197
▁aplika	-11.8199
▁inanmıyor	-11.82
▁mintyendo	-11.8201
▁embii	-11.8201
▁kritik	-11.8201
▁aparentemente	-11.8201
▁savaşmak	-11.8202
mazsan	-11.8203
▁fostanos	-11.8203
▁lüks	-11.8203
▁çöl	-11.8205
▁wu	-11.8205
▁empesemos	-11.8206
▁katkıda	-11.8206
▁mimari	-11.8206
▁lisans	-11.8207
▁kaminos	-11.8208
▁psikolojik	-11.8208
▁yaşanan	-11.8209
▁kullandı	-11.821
▁norma	-11.821
▁hoşlanıyor	-11.821
▁kıpırda	-11.8211
▁asit	-11.8212
▁tanığı	-11.8213
menin	-11.8214
▁konsidero	-11.8218
▁teorisi	-11.8218
▁fortaleza	-11.8219
▁ekstranya	-11.8219
▁trono	-11.822
▁young	-11.8221
▁kolona	-11.8222
▁geçelim	-11.8222
▁il	-11.8223
▁kreyo	-11.8224
▁eskaparon	-11.8229
▁zorundaydım	-11.823
▁mıydınız	-11.823
▁salido	-11.8231
▁pla	-11.8231
▁universidades	-11.8231
▁inci	-11.8233
▁kontrola	-11.8234
▁artı	-11.8234
▁pila	-11.8235
▁normalde	-11.8235
▁onbaşı	-11.8236
▁kibrit	-11.8236
bl	-11.8238
▁bitmiş	-11.8239
dlo	-11.824
▁akademik	-11.8241
▁dinlenme	-11.8243
▁şi	-11.8245
▁kit	-11.8245
▁renunsiar	-11.8245
▁akusa	-11.8246
▁etmemi	-11.8248
▁yüzey	-11.8248
mza	-11.8249
irken	-11.8249
▁gabriel	-11.8252
▁görürsünüz	-11.8253
▁sepan	-11.8253
deyiz	-11.8253
▁yapısı	-11.8253
▁bilgiye	-11.8254
▁yanından	-11.8256
▁temor	-11.8256
▁alishtereado	-11.8257
▁açıkladı	-11.8257
tığını	-11.8257
▁yanınızda	-11.8257
▁benefisio	-11.8259
▁gs	-11.826
▁başlarında	-11.8261
▁roberts	-11.8262
▁yaşadığımız	-11.8264
cilik	-11.8264
arım	-11.8267
djie	-11.8267
▁toke	-11.8267
▁verirler	-11.8268
▁gitara	-11.8272
▁veriyorlar	-11.8273
▁edwadr	-11.8274
daydı	-11.8277
▁söylüyordu	-11.8278
▁gözlerin	-11.8279
▁disposision	-11.828
▁amazon	-11.828
▁alırız	-11.828
▁görevlisi	-11.8281
▁varlığını	-11.8282
▁uzaklaştır	-11.8284
▁seçildi	-11.8286
▁londjitud	-11.8287
▁tiraron	-11.8288
▁yürüyor	-11.829
▁asemejante	-11.8292
▁ul	-11.8293
plan	-11.8293
▁diğerine	-11.8293
▁estelar	-11.8293
kun	-11.8294
▁bırakacağım	-11.8294
▁şirketin	-11.8294
▁vurgu	-11.8295
▁mataria	-11.8295
▁demandarme	-11.8296
▁hamle	-11.8297
▁ettiğiniz	-11.8298
tio	-11.8298
moslo	-11.8299
▁espor	-11.8301
▁başlamadan	-11.8302
▁palmer	-11.8302
▁retardo	-11.8304
▁soledad	-11.8305
fel	-11.8305
▁gerçekçi	-11.8305
▁yapmaktan	-11.8306
▁gösterdiği	-11.8308
▁evitarlo	-11.8308
▁zekice	-11.831
▁oyunlar	-11.831
▁kampı	-11.831
▁çıkarıyor	-11.8314
teria	-11.8314
▁başımı	-11.8316
▁annene	-11.8316
lay	-11.8316
▁tomemos	-11.8316
▁komunikar	-11.832
▁hastalığın	-11.8321
ira	-11.8321
tier	-11.8321
▁kalanlar	-11.8323
▁ücretsiz	-11.8323
▁turkia	-11.8323
▁virdjinia	-11.8323
▁geliştirmek	-11.8325
▁veikulos	-11.8325
▁individuo	-11.8326
▁erkeği	-11.8327
acağımı	-11.8328
▁ucunda	-11.8328
▁konservar	-11.8328
simo	-11.8329
▁karajo	-11.833
▁bırakmış	-11.8332
lock	-11.8334
▁bokaas	-11.8336
▁başardık	-11.8336
▁yapabilecek	-11.8338
▁gia	-11.8339
▁ateşin	-11.834
▁çalın	-11.834
arios	-11.834
▁kasabanın	-11.8341
tınız	-11.8342
▁submarino	-11.8344
▁yapmalıyım	-11.8344
ent	-11.8344
kula	-11.8345
▁viejas	-11.8348
▁enyegar	-11.8349
▁djura	-11.8349
▁kantando	-11.8349
rat	-11.835
▁vermişti	-11.8351
▁adora	-11.8351
▁öldürdüğünü	-11.8351
▁olacağına	-11.8352
pos	-11.8355
mazsın	-11.8357
▁gülünç	-11.8357
yap	-11.8357
sida	-11.8357
▁entren	-11.8358
▁francois	-11.8359
tip	-11.836
▁seçer	-11.836
▁bet	-11.836
▁sally	-11.8361
muzu	-11.8363
▁arıyordum	-11.8367
▁karımı	-11.8367
▁arkaya	-11.8371
▁rueda	-11.8371
▁olmamış	-11.8372
▁kaybeder	-11.8372
▁gus	-11.8374
▁elime	-11.8374
▁vidjilansia	-11.8374
▁hitap	-11.8374
▁agarrar	-11.8376
▁karşılaştır	-11.8376
ult	-11.8377
mekte	-11.8379
▁gelirler	-11.8381
▁yeteneği	-11.8382
fon	-11.8383
▁restos	-11.8384
▁konferans	-11.8385
▁inatçı	-11.8385
▁adınız	-11.8389
▁aklımı	-11.839
▁almadan	-11.839
▁bretanya	-11.8392
▁testimonio	-11.8392
▁yasadışı	-11.8392
▁sebebini	-11.8392
▁karakteri	-11.8394
▁edgar	-11.8395
▁içmeye	-11.8395
▁obtene	-11.8397
▁distinta	-11.8397
▁büyüdü	-11.8397
▁tasarruf	-11.84
▁sandın	-11.8402
▁grafiko	-11.8404
▁başardı	-11.8405
▁gazı	-11.8405
▁remo	-11.8405
▁kayi	-11.8408
ymuş	-11.8408
▁diğerlerinin	-11.8409
▁birdenbire	-11.8409
▁decirtelo	-11.8409
▁koinsidensia	-11.8409
▁şahane	-11.8409
bilidad	-11.8409
▁romantiko	-11.8411
▁izlas	-11.8411
▁beach	-11.8411
musun	-11.8411
▁işık	-11.8411
nta	-11.8412
▁pazarlık	-11.8412
▁içten	-11.8415
▁belası	-11.8418
▁resivimos	-11.8419
lenmiştir	-11.842
▁ellen	-11.8421
▁ong	-11.8425
▁insektos	-11.8426
▁tunel	-11.8426
▁komemos	-11.8427
▁yapılıyor	-11.8427
▁asegra	-11.8427
▁provokar	-11.8427
lenecek	-11.8427
tiniz	-11.8428
▁anımsa	-11.8428
▁reverendo	-11.8429
iyi	-11.8431
▁kontinente	-11.8432
▁ingreso	-11.8432
▁oluşturma	-11.8432
▁nüfusu	-11.8433
abileceğimiz	-11.8434
▁buldular	-11.8435
▁aplikasiones	-11.8437
▁publikado	-11.8437
▁wei	-11.8438
nton	-11.844
mizden	-11.8441
▁yerleşim	-11.8443
▁dağı	-11.8443
▁özgürlüğü	-11.8443
▁köylü	-11.8444
▁birbirinden	-11.8445
▁funsione	-11.8445
▁samuel	-11.8445
▁tümüyle	-11.8446
▁lezzetli	-11.8446
▁ortağı	-11.8446
▁başladığı	-11.8448
▁görmüyorum	-11.8448
ies	-11.8449
▁ödemek	-11.8449
▁oirlo	-11.8453
▁eser	-11.8454
▁indjenieros	-11.8454
▁kuşu	-11.8455
▁duruyordu	-11.8456
eando	-11.8457
▁zira	-11.8458
▁numarayı	-11.8458
▁ran	-11.846
▁ayegas	-11.846
▁sevdiğimi	-11.8461
▁alfombra	-11.8462
▁aspirin	-11.8462
▁dispoza	-11.8463
▁elijido	-11.8465
▁puederes	-11.8465
▁eko	-11.8466
▁simdi	-11.8467
jon	-11.8467
▁kariyer	-11.8469
▁söylerdi	-11.847
▁hanımlar	-11.847
▁sistemin	-11.847
▁galaksias	-11.8472
▁çatlak	-11.8473
▁kir	-11.8474
▁proporsionar	-11.8476
yeceğim	-11.8477
▁konum	-11.8477
ach	-11.8478
▁vyera	-11.8478
▁eyen	-11.8478
lığına	-11.8479
▁franko	-11.8479
▁roves	-11.8483
▁bittiğinde	-11.8485
▁segida	-11.8486
▁taya	-11.8487
▁minas	-11.8488
▁tokando	-11.8488
▁ışın	-11.8489
mb	-11.8489
▁azme	-11.8489
▁duygusu	-11.849
▁yamarme	-11.8491
dünya	-11.8495
unuz	-11.8496
▁adamlarım	-11.8496
nsanın	-11.8496
▁eskuadron	-11.8497
▁fraguo	-11.8497
▁esensial	-11.8498
▁paises	-11.8499
kut	-11.8499
▁cehennemde	-11.8499
▁tirado	-11.8499
▁şefkat	-11.85
▁insendio	-11.8503
tera	-11.8504
▁dünyadan	-11.8504
▁bushkarlo	-11.8505
▁düşüş	-11.8507
▁subi	-11.8508
▁onar	-11.8508
▁yüzleş	-11.8509
▁mücevher	-11.8509
▁orror	-11.851
▁dezeyan	-11.8511
▁çağırıyor	-11.8512
▁alkansa	-11.8514
▁zorlama	-11.8514
▁bakılırsa	-11.8515
▁traje	-11.8515
▁verdiniz	-11.8517
[...]
